@pad@	0
@start@	0
@end@	0
@@UNKNOWN@@	0
▁t	-0
▁a	-1
he	-2
▁i	-3
▁w	-4
▁s	-5
▁the	-6
re	-7
er	-8
▁o	-9
in	-10
▁b	-11
nd	-12
▁I	-13
ha	-14
▁f	-15
▁c	-16
▁m	-17
▁p	-18
ou	-19
or	-20
▁to	-21
ing	-22
▁and	-23
ed	-24
it	-25
on	-26
le	-27
▁d	-28
▁it	-29
ll	-30
▁l	-31
is	-32
ve	-33
as	-34
at	-35
▁n	-36
es	-37
▁g	-38
ot	-39
▁ha	-40
ar	-41
om	-42
ut	-43
ic	-44
▁th	-45
us	-46
▁is	-47
▁e	-48
▁in	-49
▁T	-50
▁on	-51
an	-52
▁of	-53
▁re	-54
▁for	-55
en	-56
ver	-57
et	-58
ct	-59
ly	-60
hat	-61
gh	-62
▁y	-63
ro	-64
▁this	-65
▁be	-66
al	-67
▁my	-68
ith	-69
oo	-70
▁with	-71
ld	-72
▁that	-73
▁you	-74
ow	-75
▁st	-76
se	-77
ac	-78
ay	-79
id	-80
all	-81
▁The	-82
▁was	-83
ter	-84
ke	-85
▁we	-86
▁h	-87
▁have	-88
ad	-89
ur	-90
▁but	-91
▁not	-92
ght	-93
ble	-94
me	-95
st	-96
▁us	-97
ion	-98
ri	-99
▁u	-100
▁so	-101
▁an	-102
very	-103
her	-104
▁pro	-105
ould	-106
▁as	-107
▁are	-108
▁li	-109
▁A	-110
pp	-111
ch	-112
ice	-113
▁wor	-114
ce	-115
ir	-116
▁com	-117
ent	-118
ill	-119
▁It	-120
▁S	-121
ust	-122
ect	-123
▁ne	-124
▁do	-125
▁mo	-126
▁or	-127
ra	-128
ally	-129
▁se	-130
reat	-131
▁sh	-132
ks	-133
▁j	-134
qu	-135
▁ex	-136
▁very	-137
able	-138
▁he	-139
▁W	-140
th	-141
▁one	-142
ood	-143
▁they	-144
▁wh	-145
▁can	-146
han	-147
▁at	-148
ure	-149
ack	-150
▁me	-151
uct	-152
ge	-153
▁co	-154
▁great	-155
▁de	-156
▁r	-157
▁up	-158
nt	-159
il	-160
▁like	-161
ort	-162
▁M	-163
▁would	-164
▁(	-165
▁ti	-166
hen	-167
ss	-168
▁al	-169
▁lo	-170
▁out	-171
▁them	-172
out	-173
am	-174
em	-175
▁use	-176
his	-177
▁fr	-178
▁le	-179
▁all	-180
ast	-181
▁B	-182
ant	-183
▁get	-184
▁qu	-185
▁loo	-186
▁con	-187
if	-188
▁fe	-189
..	-190
▁pr	-191
▁had	-192
ul	-193
ive	-194
▁just	-195
ak	-196
ound	-197
▁This	-198
▁pl	-199
duct	-200
ig	-201
ome	-202
one	-203
ap	-204
▁C	-205
el	-206
▁good	-207
▁product	-208
ain	-209
un	-210
pe	-211
ity	-212
▁from	-213
▁H	-214
▁these	-215
▁work	-216
▁ab	-217
▁bu	-218
▁N	-219
ough	-220
ie	-221
▁will	-222
▁comp	-223
▁am	-224
▁su	-225
▁si	-226
▁P	-227
▁when	-228
ought	-229
▁well	-230
ther	-231
▁than	-232
▁1	-233
▁k	-234
▁any	-235
ind	-236
▁per	-237
so	-238
▁more	-239
red	-240
▁has	-241
▁rec	-242
▁if	-243
▁G	-244
▁no	-245
▁v	-246
▁D	-247
ide	-248
ine	-249
li	-250
ate	-251
▁too	-252
▁eas	-253
and	-254
ong	-255
▁your	-256
▁time	-257
est	-258
▁look	-259
art	-260
▁does	-261
▁other	-262
▁O	-263
tle	-264
▁about	-265
ard	-266
ite	-267
▁fit	-268
ca	-269
▁L	-270
▁only	-271
ers	-272
ck	-273
ake	-274
▁2	-275
fect	-276
op	-277
▁did	-278
▁pur	-279
▁tr	-280
use	-281
fe	-282
▁sa	-283
▁F	-284
ven	-285
▁ad	-286
ore	-287
ear	-288
▁need	-289
fter	-290
▁love	-291
▁really	-292
ick	-293
▁pre	-294
ze	-295
ality	-296
▁price	-297
ag	-298
cha	-299
▁go	-300
▁sm	-301
um	-302
▁some	-303
▁un	-304
▁lit	-305
▁exp	-306
▁what	-307
▁mu	-308
cause	-309
▁buy	-310
▁ke	-311
ich	-312
ep	-313
▁bought	-314
ved	-315
▁quality	-316
▁little	-317
ess	-318
▁purcha	-319
▁because	-320
lo	-321
ist	-322
...	-323
ight	-324
▁don	-325
▁bo	-326
ation	-327
▁much	-328
ase	-329
▁ar	-330
mend	-331
ab	-332
ommend	-333
▁wat	-334
▁back	-335
▁po	-336
ays	-337
▁off	-338
▁-	-339
▁en	-340
ace	-341
▁sc	-342
ting	-343
urn	-344
▁bet	-345
▁3	-346
▁want	-347
mp	-348
▁recommend	-349
ue	-350
▁E	-351
▁nice	-352
▁over	-353
are	-354
▁which	-355
ade	-356
▁size	-357
▁perfect	-358
act	-359
▁dis	-360
ile	-361
▁were	-362
ink	-363
pl	-364
▁small	-365
fort	-366
▁works	-367
ment	-368
▁set	-369
▁every	-370
har	-371
▁after	-372
▁They	-373
pt	-374
▁year	-375
▁ord	-376
▁even	-377
atter	-378
▁used	-379
▁got	-380
▁also	-381
▁easy	-382
az	-383
▁sho	-384
hing	-385
▁ag	-386
▁R	-387
▁ho	-388
▁kn	-389
▁been	-390
▁could	-391
iew	-392
sed	-393
▁there	-394
▁tw	-395
&#	-396
irst	-397
▁wear	-398
▁thing	-399
ire	-400
▁long	-401
▁cle	-402
▁sp	-403
age	-404
▁better	-405
00	-406
▁int	-407
blem	-408
▁man	-409
▁how	-410
▁problem	-411
▁spe	-412
igh	-413
▁V	-414
ving	-415
▁des	-416
ry	-417
ps	-418
right	-419
▁U	-420
our	-421
ft	-422
▁by	-423
▁mon	-424
▁now	-425
other	-426
own	-427
▁cam	-428
▁inst	-429
▁case	-430
▁bl	-431
▁col	-432
view	-433
▁My	-434
!!	-435
ies	-436
▁first	-437
▁che	-438
int	-439
▁using	-440
▁still	-441
▁dif	-442
▁review	-443
oth	-444
34	-445
▁made	-446
lf	-447
▁te	-448
ens	-449
▁5	-450
ous	-451
34;	-452
&#34;	-453
ond	-454
ty	-455
im	-456
).	-457
▁new	-458
air	-459
▁batter	-460
▁hand	-461
ach	-462
▁two	-463
ass	-464
▁sound	-465
ook	-466
▁tri	-467
▁put	-468
per	-469
▁camer	-470
ull	-471
▁feel	-472
ud	-473
The	-474
▁comfort	-475
ture	-476
ug	-477
▁ro	-478
▁happ	-479
▁char	-480
ered	-481
▁color	-482
▁"	-483
▁keep	-484
rd	-485
ily	-486
▁cont	-487
▁ca	-488
ress	-489
▁seem	-490
▁fl	-491
ign	-492
▁its	-493
▁way	-494
▁make	-495
▁then	-496
▁4	-497
ower	-498
ever	-499
▁Y	-500
thing	-501
omet	-502
▁mak	-503
▁pic	-504
mo	-505
fere	-506
▁light	-507
▁big	-508
less	-509
▁into	-510
azon	-511
te	-512
▁find	-513
ions	-514
▁app	-515
▁again	-516
ger	-517
▁down	-518
▁camera	-519
▁right	-520
cc	-521
ord	-522
ff	-523
▁think	-524
▁scre	-525
▁lot	-526
eri	-527
▁looking	-528
▁old	-529
▁high	-530
ually	-531
▁expect	-532
ree	-533
▁bit	-534
▁month	-535
▁supp	-536
ail	-537
bo	-538
▁aw	-539
▁We	-540
fore	-541
▁day	-542
ans	-543
▁If	-544
▁read	-545
▁$	-546
here	-547
av	-548
▁ch	-549
vice	-550
▁Am	-551
▁who	-552
▁ph	-553
▁hard	-554
ince	-555
▁fo	-556
▁picture	-557
▁head	-558
▁comfortable	-559
▁she	-560
▁few	-561
▁cl	-562
▁dri	-563
▁differe	-564
▁watch	-565
▁enough	-566
▁last	-567
ult	-568
orm	-569
▁somet	-570
▁rece	-571
▁hold	-572
▁clean	-573
▁repl	-574
wn	-575
ish	-576
▁didn	-577
▁see	-578
▁give	-579
▁years	-580
▁around	-581
▁know	-582
▁purchased	-583
ful	-584
▁item	-585
▁ret	-586
hes	-587
▁play	-588
▁lar	-589
▁run	-590
▁another	-591
▁without	-592
▁These	-593
ave	-594
▁looks	-595
ose	-596
ute	-597
io	-598
▁before	-599
▁take	-600
▁car	-601
▁doesn	-602
▁So	-603
ph	-604
▁try	-605
▁same	-606
tty	-607
▁Amazon	-608
▁say	-609
nder	-610
▁should	-611
▁unit	-612
▁mat	-613
we	-614
nect	-615
up	-616
hed	-617
▁min	-618
▁while	-619
▁part	-620
ated	-621
▁wee	-622
ount	-623
▁cable	-624
▁most	-625
ery	-626
▁act	-627
▁ear	-628
▁purchase	-629
ipp	-630
▁ext	-631
▁cheap	-632
▁pretty	-633
▁gl	-634
▁best	-635
▁inc	-636
ise	-637
▁battery	-638
▁far	-639
▁happy	-640
▁ordered	-641
▁K	-642
ple	-643
rand	-644
▁bag	-645
▁hel	-646
▁sec	-647
▁mod	-648
▁since	-649
▁thr	-650
astic	-651
▁add	-652
top	-653
▁shoes	-654
oney	-655
▁dec	-656
▁imp	-657
lent	-658
ning	-659
▁sure	-660
▁their	-661
▁But	-662
▁sha	-663
▁recei	-664
▁connect	-665
▁many	-666
ub	-667
▁fine	-668
ol	-669
▁found	-670
▁screen	-671
end	-672
▁never	-673
▁pair	-674
▁res	-675
les	-676
▁money	-677
side	-678
▁prot	-679
▁our	-680
▁return	-681
fin	-682
▁through	-683
▁order	-684
▁something	-685
▁acc	-686
▁iss	-687
▁J	-688
dy	-689
ts	-690
▁came	-691
▁box	-692
▁may	-693
▁key	-694
ber	-695
ouse	-696
ather	-697
ature	-698
▁chan	-699
ci	-700
▁tak	-701
ason	-702
▁Great	-703
▁You	-704
▁going	-705
▁br	-706
▁op	-707
mm	-708
▁water	-709
▁soft	-710
app	-711
▁though	-712
▁pack	-713
od	-714
os	-715
▁tried	-716
▁start	-717
▁sl	-718
▁comput	-719
▁len	-720
ition	-721
self	-722
▁wr	-723
▁different	-724
▁pe	-725
ool	-726
▁exce	-727
ove	-728
▁turn	-729
vers	-730
ows	-731
▁war	-732
▁quick	-733
▁6	-734
ton	-735
▁top	-736
ars	-737
▁Very	-738
▁worth	-739
▁months	-740
▁under	-741
ably	-742
vel	-743
▁clo	-744
▁own	-745
▁power	-746
ating	-747
▁makes	-748
▁reviews	-749
▁design	-750
▁protect	-751
ance	-752
▁sur	-753
▁worked	-754
▁TV	-755
▁wanted	-756
▁tim	-757
▁bot	-758
▁lap	-759
▁On	-760
ob	-761
ased	-762
ER	-763
▁card	-764
▁drive	-765
ways	-766
▁cou	-767
▁fits	-768
ots	-769
▁her	-770
ip	-771
▁sli	-772
▁In	-773
finite	-774
▁fun	-775
▁needed	-776
▁room	-777
▁iP	-778
▁perfectly	-779
▁thought	-780
▁where	-781
▁bro	-782
▁ser	-783
board	-784
iz	-785
▁computer	-786
▁replac	-787
▁Not	-788
ones	-789
▁able	-790
read	-791
▁help	-792
ware	-793
au	-794
ual	-795
finitely	-796
▁install	-797
▁speak	-798
▁Al	-799
▁laptop	-800
▁end	-801
▁ple	-802
▁getting	-803
▁&	-804
ier	-805
▁sy	-806
▁att	-807
▁less	-808
▁days	-809
▁TH	-810
ical	-811
get	-812
ark	-813
▁cover	-814
▁8	-815
▁10	-816
ious	-817
ction	-818
ghter	-819
▁seems	-820
▁side	-821
▁US	-822
▁being	-823
▁hour	-824
▁stand	-825
▁large	-826
▁7	-827
ensive	-828
ors	-829
ix	-830
▁second	-831
ged	-832
▁open	-833
▁always	-834
ten	-835
▁easily	-836
riend	-837
be	-838
▁plug	-839
▁table	-840
▁both	-841
▁times	-842
▁brand	-843
▁cost	-844
▁received	-845
ffe	-846
oint	-847
--	-848
▁store	-849
llent	-850
▁bad	-851
form	-852
▁feature	-853
▁gu	-854
▁simp	-855
ately	-856
▁stra	-857
▁actually	-858
ible	-859
▁device	-860
▁shipp	-861
▁quite	-862
▁ever	-863
▁problems	-864
▁&#34;	-865
▁dur	-866
▁And	-867
▁expected	-868
ont	-869
▁plastic	-870
▁sw	-871
ular	-872
ruct	-873
ption	-874
▁come	-875
▁reason	-876
gin	-877
ets	-878
veral	-879
▁exact	-880
most	-881
ments	-882
▁disapp	-883
▁pie	-884
▁definitely	-885
▁several	-886
ople	-887
tern	-888
ash	-889
),	-890
▁working	-891
▁button	-892
▁having	-893
▁gif	-894
▁When	-895
▁everything	-896
▁said	-897
....	-898
▁full	-899
▁arri	-900
day	-901
▁support	-902
irt	-903
ement	-904
▁sn	-905
▁port	-906
▁fast	-907
▁wa	-908
ffee	-909
edi	-910
aut	-911
▁reg	-912
lain	-913
▁took	-914
ised	-915
lt	-916
ked	-917
▁things	-918
oy	-919
stem	-920
▁weight	-921
ided	-922
▁gr	-923
pped	-924
▁rem	-925
▁shoe	-926
▁There	-927
xt	-928
▁vide	-929
▁people	-930
▁feet	-931
ging	-932
owever	-933
ush	-934
▁ty	-935
▁sty	-936
ves	-937
▁anything	-938
pr	-939
▁those	-940
▁el	-941
▁HD	-942
▁away	-943
▁sle	-944
▁job	-945
▁After	-946
▁No	-947
▁real	-948
▁ra	-949
▁cons	-950
uff	-951
sol	-952
ead	-953
▁bre	-954
erial	-955
row	-956
▁sol	-957
▁sk	-958
▁coffee	-959
▁fin	-960
▁home	-961
▁lens	-962
▁system	-963
ory	-964
tom	-965
▁buying	-966
▁kind	-967
▁heav	-968
▁almost	-969
ife	-970
▁gift	-971
▁cut	-972
sing	-973
autif	-974
son	-975
▁cr	-976
▁wire	-977
els	-978
▁comes	-979
▁short	-980
▁wal	-981
aughter	-982
▁extra	-983
cks	-984
▁anyone	-985
▁yet	-986
▁For	-987
▁keyboard	-988
▁phone	-989
▁str	-990
og	-991
phones	-992
ater	-993
▁friend	-994
▁complain	-995
bably	-996
▁couple	-997
OT	-998
lud	-999
▁ste	-1000
bs	-1001
▁once	-1002
▁material	-1003
▁USB	-1004
▁exactly	-1005
▁fact	-1006
▁tra	-1007
▁However	-1008
ib	-1009
▁disappoint	-1010
ied	-1011
▁deal	-1012
lect	-1013
▁Ch	-1014
▁excellent	-1015
▁z	-1016
any	-1017
just	-1018
ings	-1019
▁low	-1020
ations	-1021
cri	-1022
▁arrived	-1023
ues	-1024
ouch	-1025
▁mus	-1026
not	-1027
▁place	-1028
band	-1029
itc	-1030
ence	-1031
ility	-1032
▁As	-1033
▁quickly	-1034
▁hours	-1035
let	-1036
▁super	-1037
▁went	-1038
ces	-1039
ume	-1040
▁week	-1041
▁St	-1042
ild	-1043
▁clear	-1044
▁cor	-1045
▁longer	-1046
cess	-1047
▁mach	-1048
▁here	-1049
▁beautif	-1050
ustom	-1051
▁remo	-1052
its	-1053
ooth	-1054
ary	-1055
ms	-1056
▁stars	-1057
▁expensive	-1058
▁probably	-1059
▁cord	-1060
king	-1061
!!!	-1062
▁might	-1063
▁es	-1064
▁He	-1065
AT	-1066
▁pleased	-1067
▁cool	-1068
ote	-1069
▁weeks	-1070
utes	-1071
nce	-1072
tc	-1073
uck	-1074
ric	-1075
ons	-1076
ert	-1077
▁highly	-1078
▁includ	-1079
▁list	-1080
▁phot	-1081
▁won	-1082
▁his	-1083
▁contro	-1084
fer	-1085
▁replacement	-1086
iced	-1087
▁charge	-1088
com	-1089
▁hot	-1090
▁cap	-1091
▁tight	-1092
ically	-1093
▁black	-1094
▁stur	-1095
▁bed	-1096
▁Wor	-1097
ither	-1098
▁products	-1099
▁daughter	-1100
▁comple	-1101
▁cook	-1102
▁Re	-1103
▁video	-1104
▁inside	-1105
▁stre	-1106
▁heavy	-1107
▁issue	-1108
▁minutes	-1109
ides	-1110
ative	-1111
gg	-1112
▁loves	-1113
ider	-1114
▁Also	-1115
▁sell	-1116
▁bottom	-1117
▁amaz	-1118
▁Love	-1119
▁wish	-1120
▁20	-1121
▁setting	-1122
▁warm	-1123
▁glass	-1124
▁free	-1125
▁ago	-1126
▁.	-1127
▁batteries	-1128
ient	-1129
▁point	-1130
▁ori	-1131
IN	-1132
▁three	-1133
▁shipping	-1134
the	-1135
▁care	-1136
▁pay	-1137
▁night	-1138
cially	-1139
▁pain	-1140
▁im	-1141
▁such	-1142
▁call	-1143
10	-1144
▁ones	-1145
iv	-1146
de	-1147
It	-1148
▁av	-1149
gr	-1150
▁fil	-1151
ame	-1152
▁Just	-1153
▁headphones	-1154
▁service	-1155
ices	-1156
▁disappointed	-1157
▁machine	-1158
▁cute	-1159
▁bel	-1160
▁isn	-1161
▁experi	-1162
▁sturdy	-1163
vious	-1164
▁player	-1165
▁others	-1166
▁custom	-1167
pecially	-1168
▁music	-1169
▁issues	-1170
▁else	-1171
vert	-1172
ntil	-1173
▁prov	-1174
▁etc	-1175
ew	-1176
ell	-1177
▁tell	-1178
usband	-1179
▁fan	-1180
ner	-1181
▁each	-1182
fic	-1183
onder	-1184
▁sto	-1185
▁thin	-1186
▁origin	-1187
▁met	-1188
▁smaller	-1189
ange	-1190
▁house	-1191
ract	-1192
▁decided	-1193
though	-1194
▁piece	-1195
▁son	-1196
ready	-1197
▁descri	-1198
▁husband	-1199
▁speakers	-1200
▁half	-1201
▁mount	-1202
▁person	-1203
▁9	-1204
▁vac	-1205
▁adjust	-1206
▁adap	-1207
▁cha	-1208
▁Be	-1209
▁complete	-1210
ches	-1211
▁beautiful	-1212
▁model	-1213
itch	-1214
reme	-1215
▁next	-1216
▁ref	-1217
esome	-1218
ters	-1219
▁started	-1220
▁THE	-1221
ial	-1222
▁however	-1223
20	-1224
▁least	-1225
▁already	-1226
▁pock	-1227
▁nothing	-1228
ently	-1229
ED	-1230
▁life	-1231
▁dress	-1232
▁running	-1233
▁Good	-1234
▁disc	-1235
▁carry	-1236
▁Pro	-1237
▁loved	-1238
.5	-1239
▁let	-1240
▁dro	-1241
▁looked	-1242
▁rep	-1243
▁simple	-1244
▁sign	-1245
▁ef	-1246
ween	-1247
▁siz	-1248
▁control	-1249
sh	-1250
▁That	-1251
▁dra	-1252
ex	-1253
▁ind	-1254
▁wearing	-1255
lic	-1256
▁company	-1257
▁until	-1258
▁vers	-1259
▁amazing	-1260
▁wonder	-1261
▁tablet	-1262
▁sat	-1263
▁replace	-1264
line	-1265
ids	-1266
ilt	-1267
RE	-1268
vent	-1269
ward	-1270
solute	-1271
ng	-1272
▁function	-1273
▁wasn	-1274
▁:	-1275
▁either	-1276
ron	-1277
▁trying	-1278
▁left	-1279
▁larger	-1280
▁break	-1281
▁why	-1282
▁pill	-1283
▁gave	-1284
▁stuff	-1285
▁boots	-1286
▁dire	-1287
▁colors	-1288
▁must	-1289
ia	-1290
▁between	-1291
▁bas	-1292
ON	-1293
▁taking	-1294
50	-1295
▁perform	-1296
▁foot	-1297
▁const	-1298
▁requ	-1299
▁det	-1300
▁iPad	-1301
mell	-1302
▁pa	-1303
▁close	-1304
avor	-1305
mit	-1306
ness	-1307
▁instead	-1308
udio	-1309
▁needs	-1310
▁air	-1311
mas	-1312
verall	-1313
▁thick	-1314
ully	-1315
▁pad	-1316
▁press	-1317
▁especially	-1318
ared	-1319
▁wait	-1320
ooks	-1321
▁stay	-1322
▁Can	-1323
▁remote	-1324
▁X	-1325
where	-1326
▁mouse	-1327
arch	-1328
▁pictures	-1329
▁ac	-1330
▁flo	-1331
▁sit	-1332
▁haven	-1333
▁instruct	-1334
▁surpr	-1335
▁trans	-1336
als	-1337
▁wife	-1338
▁NOT	-1339
ung	-1340
gether	-1341
▁stick	-1342
▁front	-1343
ax	-1344
▁strong	-1345
▁red	-1346
ND	-1347
▁norm	-1348
▁smell	-1349
ced	-1350
▁loc	-1351
▁pan	-1352
ates	-1353
solutely	-1354
led	-1355
▁She	-1356
▁done	-1357
▁pos	-1358
▁fall	-1359
▁show	-1360
ny	-1361
▁making	-1362
iet	-1363
▁touch	-1364
▁tast	-1365
▁DV	-1366
▁dry	-1367
ouble	-1368
▁couldn	-1369
aw	-1370
▁val	-1371
▁test	-1372
ne	-1373
▁extreme	-1374
▁itself	-1375
▁gets	-1376
rist	-1377
▁num	-1378
▁slight	-1379
isf	-1380
▁Than	-1381
▁takes	-1382
LL	-1383
▁band	-1384
▁handle	-1385
▁space	-1386
ges	-1387
▁awesome	-1388
▁cur	-1389
▁vol	-1390
ener	-1391
▁together	-1392
ention	-1393
ired	-1394
▁diffic	-1395
▁'	-1396
▁cup	-1397
▁feels	-1398
atch	-1399
▁myself	-1400
ling	-1401
igure	-1402
▁wouldn	-1403
indows	-1404
▁result	-1405
▁Wh	-1406
▁charger	-1407
▁speed	-1408
▁software	-1409
▁original	-1410
▁regular	-1411
▁sub	-1412
▁cho	-1413
ize	-1414
▁access	-1415
▁fre	-1416
▁direct	-1417
▁pick	-1418
ath	-1419
VE	-1420
▁wrong	-1421
ristmas	-1422
ky	-1423
▁mic	-1424
▁ok	-1425
adio	-1426
▁mis	-1427
▁shirt	-1428
▁sleep	-1429
▁All	-1430
ony	-1431
joy	-1432
▁leather	-1433
▁mem	-1434
▁type	-1435
asy	-1436
ized	-1437
ieve	-1438
ics	-1439
▁pull	-1440
aster	-1441
▁Bl	-1442
play	-1443
▁white	-1444
▁monit	-1445
pping	-1446
imes	-1447
part	-1448
▁12	-1449
ams	-1450
▁extremely	-1451
This	-1452
▁satisf	-1453
▁line	-1454
to	-1455
antly	-1456
▁impress	-1457
uum	-1458
▁adapter	-1459
▁true	-1460
▁ring	-1461
▁ed	-1462
▁Now	-1463
▁mine	-1464
▁scr	-1465
▁style	-1466
▁absolutely	-1467
▁hu	-1468
itchen	-1469
▁difference	-1470
▁consider	-1471
▁features	-1472
OR	-1473
▁past	-1474
▁advert	-1475
▁Works	-1476
▁hair	-1477
▁change	-1478
▁travel	-1479
gs	-1480
ital	-1481
put	-1482
wor	-1483
oud	-1484
▁main	-1485
▁rel	-1486
▁skin	-1487
rant	-1488
▁customer	-1489
date	-1490
▁ins	-1491
▁says	-1492
▁fli	-1493
▁Ex	-1494
▁value	-1495
▁move	-1496
▁effect	-1497
▁bottle	-1498
▁completely	-1499
▁send	-1500
▁rest	-1501
itive	-1502
▁Do	-1503
▁Pl	-1504
no	-1505
▁avail	-1506
iny	-1507
▁One	-1508
▁difficult	-1509
way	-1510
▁wireless	-1511
reen	-1512
▁wall	-1513
ats	-1514
▁instructions	-1515
▁reading	-1516
▁solid	-1517
▁recommended	-1518
▁Kind	-1519
▁ter	-1520
▁usually	-1521
▁liked	-1522
gra	-1523
▁swe	-1524
▁Christmas	-1525
▁enjoy	-1526
▁--	-1527
▁rou	-1528
▁dr	-1529
▁rub	-1530
▁fra	-1531
OU	-1532
▁vacuum	-1533
▁amount	-1534
▁glad	-1535
AS	-1536
▁guess	-1537
▁fab	-1538
ution	-1539
▁deli	-1540
▁plan	-1541
▁easier	-1542
erg	-1543
ys	-1544
▁$1	-1545
▁packag	-1546
osed	-1547
▁cannot	-1548
▁figure	-1549
▁smooth	-1550
▁,	-1551
▁built	-1552
▁experience	-1553
set	-1554
pod	-1555
▁What	-1556
▁during	-1557
▁goes	-1558
▁aut	-1559
▁near	-1560
▁whole	-1561
▁area	-1562
bed	-1563
phone	-1564
wh	-1565
▁leave	-1566
▁cas	-1567
▁record	-1568
▁fix	-1569
▁due	-1570
▁radio	-1571
llow	-1572
▁sent	-1573
▁broke	-1574
▁screw	-1575
▁IT	-1576
▁gri	-1577
▁within	-1578
▁rather	-1579
▁inter	-1580
▁neck	-1581
▁ve	-1582
▁De	-1583
▁cra	-1584
▁addition	-1585
▁opt	-1586
▁fair	-1587
▁someone	-1588
▁strap	-1589
rect	-1590
▁durable	-1591
▁ide	-1592
▁switch	-1593
▁With	-1594
▁wide	-1595
fully	-1596
ime	-1597
ES	-1598
▁spend	-1599
▁dig	-1600
▁em	-1601
▁Would	-1602
gle	-1603
cer	-1604
room	-1605
wise	-1606
▁bul	-1607
▁shar	-1608
▁net	-1609
▁hands	-1610
▁available	-1611
▁doing	-1612
stand	-1613
▁star	-1614
▁appear	-1615
▁tech	-1616
▁30	-1617
▁online	-1618
PS	-1619
▁mov	-1620
▁plus	-1621
▁noise	-1622
ds	-1623
ee	-1624
▁elect	-1625
▁favor	-1626
▁Un	-1627
▁volume	-1628
▁fam	-1629
▁check	-1630
▁cli	-1631
▁paid	-1632
▁Bought	-1633
▁mark	-1634
▁Kindle	-1635
▁kitchen	-1636
▁previous	-1637
▁items	-1638
ins	-1639
▁believe	-1640
▁cond	-1641
▁DVD	-1642
▁hope	-1643
▁form	-1644
▁pot	-1645
▁soon	-1646
gth	-1647
▁notice	-1648
▁listen	-1649
▁1/	-1650
load	-1651
▁exc	-1652
▁monitor	-1653
▁router	-1654
▁audio	-1655
▁finally	-1656
face	-1657
▁Other	-1658
▁intern	-1659
▁PC	-1660
▁level	-1661
▁sim	-1662
▁bigger	-1663
iles	-1664
ross	-1665
▁hop	-1666
▁bright	-1667
▁medi	-1668
▁conf	-1669
▁proper	-1670
▁food	-1671
co	-1672
▁speaker	-1673
▁gener	-1674
▁blue	-1675
▁process	-1676
ted	-1677
▁him	-1678
▁seller	-1679
▁nicely	-1680
▁plac	-1681
▁tot	-1682
ned	-1683
arm	-1684
IS	-1685
▁LO	-1686
pper	-1687
▁poor	-1688
▁Sony	-1689
▁length	-1690
▁maybe	-1691
▁gam	-1692
▁hear	-1693
▁display	-1694
▁package	-1695
▁typ	-1696
▁keeps	-1697
▁non	-1698
▁100	-1699
ents	-1700
vices	-1701
▁noticed	-1702
cy	-1703
▁resp	-1704
▁often	-1705
▁App	-1706
acks	-1707
▁version	-1708
ank	-1709
▁dist	-1710
▁Mac	-1711
▁later	-1712
unately	-1713
▁satisfied	-1714
▁Com	-1715
ched	-1716
fact	-1717
ants	-1718
▁Easy	-1719
▁memory	-1720
▁seen	-1721
▁metal	-1722
ific	-1723
▁lin	-1724
book	-1725
▁pocket	-1726
ilar	-1727
aper	-1728
▁15	-1729
ls	-1730
▁correct	-1731
▁cold	-1732
ject	-1733
▁wonderful	-1734
▁apart	-1735
▁holds	-1736
▁gra	-1737
▁Well	-1738
▁prom	-1739
▁fabric	-1740
▁slightly	-1741
▁owned	-1742
▁saw	-1743
▁face	-1744
like	-1745
▁outside	-1746
▁range	-1747
▁fill	-1748
▁imm	-1749
▁allow	-1750
▁cheaper	-1751
▁heat	-1752
▁returned	-1753
▁advertised	-1754
▁dam	-1755
ING	-1756
ability	-1757
ufact	-1758
▁impro	-1759
▁boot	-1760
▁mult	-1761
▁cables	-1762
▁worn	-1763
▁Q	-1764
▁mix	-1765
▁flash	-1766
▁ent	-1767
▁buttons	-1768
▁sugg	-1769
▁tem	-1770
▁mess	-1771
▁lost	-1772
MI	-1773
▁suggest	-1774
irm	-1775
ertain	-1776
ding	-1777
▁desk	-1778
▁Th	-1779
▁body	-1780
▁included	-1781
▁mention	-1782
▁hook	-1783
▁sharp	-1784
▁felt	-1785
▁loud	-1786
▁sil	-1787
▁pres	-1788
na	-1789
▁view	-1790
▁fing	-1791
▁ey	-1792
▁cour	-1793
▁cleaning	-1794
▁Its	-1795
ike	-1796
▁sometimes	-1797
▁burn	-1798
▁overall	-1799
pad	-1800
▁hig	-1801
ird	-1802
▁ri	-1803
▁whe	-1804
▁flat	-1805
▁sca	-1806
of	-1807
▁progra	-1808
▁uses	-1809
▁connection	-1810
mmer	-1811
▁similar	-1812
▁contin	-1813
▁At	-1814
▁Per	-1815
▁stor	-1816
▁manufact	-1817
ssible	-1818
▁fail	-1819
▁loose	-1820
▁Sh	-1821
▁simply	-1822
AN	-1823
▁kids	-1824
▁four	-1825
▁mid	-1826
IT	-1827
▁installed	-1828
but	-1829
work	-1830
▁Se	-1831
▁remove	-1832
▁turned	-1833
▁var	-1834
▁Nice	-1835
▁warrant	-1836
▁dark	-1837
ik	-1838
ken	-1839
▁results	-1840
▁mag	-1841
▁decent	-1842
80	-1843
▁family	-1844
▁Windows	-1845
mb	-1846
▁AND	-1847
▁standard	-1848
dd	-1849
▁bar	-1850
▁accur	-1851
▁tv	-1852
30	-1853
▁certain	-1854
▁taste	-1855
▁ble	-1856
▁rese	-1857
▁Overall	-1858
▁jack	-1859
▁Z	-1860
ups	-1861
▁slee	-1862
▁devices	-1863
ried	-1864
▁live	-1865
▁sens	-1866
▁compli	-1867
▁friends	-1868
▁da	-1869
ost	-1870
old	-1871
▁bass	-1872
gan	-1873
▁draw	-1874
▁socks	-1875
▁contact	-1876
▁class	-1877
▁upgr	-1878
▁helps	-1879
▁wash	-1880
▁contain	-1881
▁normal	-1882
▁huge	-1883
▁waste	-1884
▁course	-1885
inter	-1886
▁ann	-1887
fortunately	-1888
▁filter	-1889
▁pri	-1890
▁happen	-1891
▁along	-1892
▁told	-1893
▁immedi	-1894
.)	-1895
▁ob	-1896
par	-1897
▁settings	-1898
▁stop	-1899
AR	-1900
▁Even	-1901
▁stain	-1902
▁number	-1903
und	-1904
amsung	-1905
rible	-1906
▁HDMI	-1907
▁iPod	-1908
▁impressed	-1909
▁supposed	-1910
▁favorite	-1911
▁idea	-1912
▁follow	-1913
▁setup	-1914
▁compared	-1915
▁although	-1916
▁sand	-1917
▁slow	-1918
▁styl	-1919
▁spr	-1920
▁warranty	-1921
▁mind	-1922
▁trouble	-1923
▁High	-1924
weight	-1925
▁surprised	-1926
▁TO	-1927
for	-1928
▁manual	-1929
▁:)	-1930
▁equ	-1931
▁Don	-1932
antastic	-1933
ional	-1934
▁mor	-1935
▁glasses	-1936
If	-1937
iving	-1938
▁gives	-1939
▁signal	-1940
▁bra	-1941
▁clot	-1942
ERY	-1943
!!!!	-1944
▁daily	-1945
12	-1946
▁shape	-1947
▁given	-1948
▁multi	-1949
▁oil	-1950
▁lid	-1951
▁manufacture	-1952
▁partic	-1953
60	-1954
▁seemed	-1955
▁floor	-1956
▁plugged	-1957
▁purp	-1958
▁performance	-1959
▁kept	-1960
▁spec	-1961
▁pop	-1962
▁secure	-1963
ages	-1964
rent	-1965
▁oper	-1966
▁option	-1967
▁build	-1968
▁import	-1969
ited	-1970
▁cal	-1971
▁digital	-1972
▁require	-1973
▁morning	-1974
rap	-1975
▁load	-1976
ream	-1977
unch	-1978
which	-1979
US	-1980
▁sing	-1981
▁fold	-1982
OM	-1983
▁prefer	-1984
▁broken	-1985
▁construct	-1986
▁wind	-1987
▁stopped	-1988
oom	-1989
▁tap	-1990
▁occ	-1991
▁everyone	-1992
▁purchasing	-1993
▁storage	-1994
▁ordering	-1995
▁immediately	-1996
▁raz	-1997
UT	-1998
ef	-1999
ump	-2000
pro	-2001
▁fairly	-2002
uet	-2003
▁older	-2004
.-	-2005
▁lots	-2006
▁zipp	-2007
▁entire	-2008
▁roll	-2009
net	-2010
ator	-2011
▁pants	-2012
▁replaced	-2013
asure	-2014
nter	-2015
▁complaint	-2016
exp	-2017
iness	-2018
LE	-2019
000	-2020
▁inch	-2021
▁Every	-2022
▁photos	-2023
▁higher	-2024
aking	-2025
▁matter	-2026
▁chann	-2027
▁IS	-2028
▁Apple	-2029
▁pieces	-2030
▁shipped	-2031
▁annoy	-2032
cept	-2033
▁gir	-2034
▁designed	-2035
▁base	-2036
dle	-2037
cial	-2038
▁firm	-2039
▁scale	-2040
▁mode	-2041
▁prof	-2042
fortable	-2043
▁ass	-2044
▁paper	-2045
kes	-2046
▁local	-2047
▁useful	-2048
▁amazon	-2049
▁comm	-2050
▁twice	-2051
▁described	-2052
uetooth	-2053
ished	-2054
▁lower	-2055
▁fantastic	-2056
**	-2057
▁snug	-2058
2.	-2059
▁je	-2060
▁protection	-2061
▁update	-2062
▁conven	-2063
ock	-2064
▁unless	-2065
▁Samsung	-2066
▁compliments	-2067
▁doll	-2068
mber	-2069
▁single	-2070
▁protector	-2071
▁charging	-2072
▁concer	-2073
▁Then	-2074
du	-2075
My	-2076
▁description	-2077
ached	-2078
▁dish	-2079
pend	-2080
lex	-2081
▁properly	-2082
▁ju	-2083
▁drink	-2084
▁flaw	-2085
▁note	-2086
▁walk	-2087
▁rubber	-2088
cus	-2089
▁bags	-2090
▁match	-2091
▁today	-2092
▁means	-2093
▁wore	-2094
▁post	-2095
▁bus	-2096
▁attach	-2097
▁grand	-2098
▁di	-2099
▁lear	-2100
▁called	-2101
▁hor	-2102
1.	-2103
umb	-2104
cle	-2105
▁Canon	-2106
▁allows	-2107
uy	-2108
▁stores	-2109
▁ears	-2110
ense	-2111
▁50	-2112
▁heal	-2113
atic	-2114
hone	-2115
lenty	-2116
▁choice	-2117
▁runs	-2118
▁grind	-2119
ision	-2120
▁recently	-2121
▁market	-2122
▁download	-2123
▁connected	-2124
▁particular	-2125
atur	-2126
▁To	-2127
▁ON	-2128
▁beat	-2129
▁First	-2130
▁squ	-2131
▁Thanks	-2132
▁complaints	-2133
▁webs	-2134
▁pillow	-2135
▁seconds	-2136
unk	-2137
▁trip	-2138
▁neg	-2139
tain	-2140
▁medium	-2141
▁wrist	-2142
come	-2143
▁accurate	-2144
▁internet	-2145
▁LOVE	-2146
▁five	-2147
▁CD	-2148
▁user	-2149
▁mom	-2150
▁coming	-2151
▁fut	-2152
▁delivery	-2153
▁bow	-2154
▁quiet	-2155
aby	-2156
▁RE	-2157
▁child	-2158
▁shut	-2159
▁cards	-2160
▁sizes	-2161
▁lay	-2162
▁separ	-2163
.0	-2164
▁handy	-2165
▁anten	-2166
LY	-2167
IC	-2168
▁save	-2169
akes	-2170
lock	-2171
tress	-2172
▁packaging	-2173
pack	-2174
▁hit	-2175
▁condition	-2176
▁micro	-2177
▁name	-2178
▁thinking	-2179
▁del	-2180
▁board	-2181
back	-2182
▁ma	-2183
▁Will	-2184
▁Thank	-2185
▁tiny	-2186
▁tow	-2187
▁creat	-2188
▁detail	-2189
▁tend	-2190
▁1/2	-2191
▁mot	-2192
ube	-2193
▁walking	-2194
▁dust	-2195
▁aren	-2196
ere	-2197
▁research	-2198
▁receiver	-2199
more	-2200
▁Since	-2201
sc	-2202
So	-2203
▁everyday	-2204
▁based	-2205
▁photo	-2206
▁office	-2207
▁parts	-2208
40	-2209
▁files	-2210
▁above	-2211
▁Only	-2212
EN	-2213
▁Perfect	-2214
ister	-2215
▁Su	-2216
ips	-2217
enter	-2218
ines	-2219
▁added	-2220
▁An	-2221
▁wood	-2222
what	-2223
▁asse	-2224
▁shows	-2225
expensive	-2226
▁keys	-2227
▁putting	-2228
▁mattress	-2229
▁ended	-2230
▁x	-2231
▁bare	-2232
▁inf	-2233
ata	-2234
▁shoot	-2235
▁web	-2236
ounds	-2237
arent	-2238
▁sounds	-2239
▁rating	-2240
▁counter	-2241
▁kit	-2242
▁movies	-2243
▁except	-2244
▁rid	-2245
▁...	-2246
▁faster	-2247
▁May	-2248
▁future	-2249
▁jeans	-2250
▁green	-2251
ior	-2252
GB	-2253
▁pow	-2254
▁brush	-2255
▁razor	-2256
light	-2257
▁glo	-2258
ternal	-2259
▁dont	-2260
▁email	-2261
CT	-2262
ffic	-2263
▁While	-2264
▁holding	-2265
In	-2266
82	-2267
▁gotten	-2268
▁Qu	-2269
▁image	-2270
ously	-2271
▁plenty	-2272
▁men	-2273
▁ice	-2274
▁Highly	-2275
▁current	-2276
fy	-2277
rit	-2278
▁totally	-2279
▁search	-2280
aces	-2281
▁bath	-2282
cellent	-2283
▁manufacturer	-2284
▁gar	-2285
▁lab	-2286
▁200	-2287
▁pass	-2288
▁pen	-2289
▁opened	-2290
gy	-2291
▁print	-2292
OS	-2293
▁negative	-2294
zy	-2295
▁multiple	-2296
▁mother	-2297
port	-2298
▁spent	-2299
▁surface	-2300
▁frame	-2301
ses	-2302
▁drives	-2303
▁important	-2304
▁hang	-2305
▁pockets	-2306
▁refund	-2307
▁Ne	-2308
▁VERY	-2309
▁across	-2310
▁website	-2311
▁caus	-2312
▁held	-2313
ially	-2314
▁Ke	-2315
ades	-2316
▁hur	-2317
box	-2318
▁purpose	-2319
▁worry	-2320
▁luck	-2321
▁safe	-2322
verage	-2323
▁cameras	-2324
CD	-2325
▁lightweight	-2326
ault	-2327
aving	-2328
▁giving	-2329
man	-2330
▁antenna	-2331
▁limit	-2332
▁gone	-2333
▁iPhone	-2334
▁lasted	-2335
▁ready	-2336
▁finish	-2337
▁16	-2338
▁reli	-2339
▁earr	-2340
ren	-2341
▁straight	-2342
▁improve	-2343
ipment	-2344
min	-2345
▁hoping	-2346
▁Have	-2347
▁taken	-2348
▁careful	-2349
▁GPS	-2350
sp	-2351
br	-2352
▁options	-2353
▁bir	-2354
by	-2355
▁playing	-2356
▁brands	-2357
▁exte	-2358
▁throw	-2359
aged	-2360
▁compact	-2361
arrow	-2362
▁inexpensive	-2363
▁legs	-2364
▁understand	-2365
▁summer	-2366
rom	-2367
▁annoying	-2368
▁tea	-2369
".	-2370
▁cases	-2371
▁step	-2372
tch	-2373
▁lose	-2374
▁THIS	-2375
▁keeping	-2376
▁against	-2377
▁aff	-2378
▁position	-2379
▁knew	-2380
ident	-2381
▁event	-2382
▁forward	-2383
▁iron	-2384
was	-2385
▁measure	-2386
ang	-2387
▁leg	-2388
▁mini	-2389
▁feeling	-2390
▁ele	-2391
uly	-2392
----	-2393
▁track	-2394
▁reasonable	-2395
▁inform	-2396
AM	-2397
▁lock	-2398
▁belt	-2399
icks	-2400
▁book	-2401
▁SD	-2402
▁vis	-2403
▁door	-2404
▁convenient	-2405
iss	-2406
▁attract	-2407
▁deep	-2408
msy	-2409
▁Does	-2410
▁mean	-2411
chool	-2412
-1	-2413
▁network	-2414
▁$2	-2415
▁onto	-2416
3.	-2417
Pro	-2418
ising	-2419
▁present	-2420
▁defect	-2421
▁Was	-2422
▁provide	-2423
▁produ	-2424
▁external	-2425
▁steam	-2426
▁occas	-2427
▁stri	-2428
▁anyway	-2429
▁via	-2430
▁autom	-2431
▁clothes	-2432
▁input	-2433
▁rate	-2434
▁Some	-2435
▁baby	-2436
&#82	-2437
ustr	-2438
▁solution	-2439
▁adv	-2440
▁priced	-2441
▁cause	-2442
▁sold	-2443
OD	-2444
▁expecting	-2445
ian	-2446
▁brace	-2447
▁attached	-2448
Overall	-2449
▁er	-2450
ina	-2451
▁stock	-2452
▁cups	-2453
▁hat	-2454
aim	-2455
▁sides	-2456
OW	-2457
▁maker	-2458
▁considering	-2459
▁effective	-2460
▁portable	-2461
▁frequ	-2462
▁games	-2463
atches	-2464
▁flimsy	-2465
▁Net	-2466
▁Got	-2467
▁cooking	-2468
▁Excellent	-2469
▁drop	-2470
iting	-2471
▁compar	-2472
do	-2473
▁beh	-2474
▁focus	-2475
onest	-2476
▁count	-2477
lass	-2478
▁sheets	-2479
▁Once	-2480
▁begin	-2481
▁upgrade	-2482
uring	-2483
▁narrow	-2484
▁tal	-2485
▁wom	-2486
▁costume	-2487
▁sort	-2488
▁purse	-2489
▁heel	-2490
▁stretch	-2491
icer	-2492
▁returning	-2493
▁perio	-2494
▁shower	-2495
▁knife	-2496
orn	-2497
▁uncom	-2498
▁health	-2499
▁possible	-2500
▁anywhere	-2501
.....	-2502
▁normally	-2503
▁arm	-2504
ield	-2505
▁opin	-2506
▁nearly	-2507
▁birth	-2508
▁shave	-2509
▁resol	-2510
▁winter	-2511
▁data	-2512
sure	-2513
▁steel	-2514
rill	-2515
▁finger	-2516
▁fully	-2517
▁pressure	-2518
rew	-2519
▁carp	-2520
▁push	-2521
▁ran	-2522
▁stuck	-2523
▁brown	-2524
▁profess	-2525
▁afford	-2526
▁likes	-2527
oid	-2528
ives	-2529
▁Unfortunately	-2530
▁center	-2531
▁Although	-2532
amp	-2533
▁waist	-2534
▁holes	-2535
que	-2536
ories	-2537
▁yes	-2538
▁Pan	-2539
▁middle	-2540
ined	-2541
▁inches	-2542
▁enc	-2543
▁appears	-2544
uds	-2545
▁Buy	-2546
jor	-2547
▁wed	-2548
irts	-2549
▁indic	-2550
▁DO	-2551
▁Ar	-2552
ask	-2553
▁fell	-2554
su	-2555
▁business	-2556
▁comb	-2557
.1	-2558
my	-2559
▁pleas	-2560
ler	-2561
ibly	-2562
▁snap	-2563
ror	-2564
▁reviewers	-2565
▁certainly	-2566
▁rechar	-2567
con	-2568
▁construction	-2569
▁excited	-2570
▁bal	-2571
AD	-2572
▁helped	-2573
▁11	-2574
▁otherwise	-2575
off	-2576
▁straps	-2577
▁earrings	-2578
ser	-2579
ergy	-2580
▁stream	-2581
▁school	-2582
.00	-2583
▁charged	-2584
▁chance	-2585
▁crack	-2586
▁eye	-2587
▁lack	-2588
▁helpful	-2589
▁somewhat	-2590
▁Looks	-2591
▁behind	-2592
▁yourself	-2593
▁Best	-2594
▁mar	-2595
▁zoom	-2596
▁colle	-2597
▁average	-2598
ET	-2599
▁expectations	-2600
▁flex	-2601
▁date	-2602
▁stylish	-2603
▁opinion	-2604
▁bulky	-2605
▁pairs	-2606
▁heard	-2607
pect	-2608
▁claim	-2609
▁mentioned	-2610
▁grip	-2611
▁wet	-2612
▁program	-2613
AY	-2614
▁Tr	-2615
▁jew	-2616
▁oven	-2617
▁additional	-2618
▁stays	-2619
asonic	-2620
AL	-2621
▁pract	-2622
ities	-2623
▁supple	-2624
▁slip	-2625
▁offer	-2626
▁sized	-2627
member	-2628
GH	-2629
▁figured	-2630
▁anymore	-2631
▁init	-2632
▁directly	-2633
▁actual	-2634
▁temper	-2635
▁OK	-2636
▁chair	-2637
▁site	-2638
▁comfy	-2639
▁including	-2640
▁af	-2641
▁tool	-2642
99	-2643
▁seal	-2644
atural	-2645
▁fore	-2646
▁ben	-2647
▁med	-2648
▁project	-2649
▁jacket	-2650
chan	-2651
▁videos	-2652
▁ball	-2653
itam	-2654
▁tall	-2655
▁directions	-2656
▁double	-2657
▁attractive	-2658
isk	-2659
▁ton	-2660
▁bother	-2661
tic	-2662
▁necess	-2663
cing	-2664
▁incred	-2665
lease	-2666
▁spl	-2667
AC	-2668
▁watching	-2669
▁appro	-2670
▁24	-2671
▁lenses	-2672
▁ports	-2673
▁edge	-2674
ium	-2675
▁special	-2676
▁major	-2677
ivered	-2678
▁pink	-2679
▁LCD	-2680
▁okay	-2681
ID	-2682
▁blade	-2683
ency	-2684
▁!	-2685
▁hum	-2686
▁silver	-2687
▁useless	-2688
ikon	-2689
▁ask	-2690
ctions	-2691
▁uncomfortable	-2692
ma	-2693
▁neckl	-2694
▁Had	-2695
▁continue	-2696
inks	-2697
▁transfer	-2698
▁extend	-2699
▁watches	-2700
▁foam	-2701
▁wears	-2702
reo	-2703
▁choo	-2704
▁cream	-2705
▁IN	-2706
▁barely	-2707
▁temperature	-2708
▁AM	-2709
ret	-2710
bble	-2711
▁washing	-2712
▁bucks	-2713
▁PR	-2714
▁spot	-2715
▁birthday	-2716
▁headset	-2717
len	-2718
ux	-2719
▁basic	-2720
▁Maybe	-2721
▁covers	-2722
iff	-2723
▁washed	-2724
▁cell	-2725
▁provides	-2726
▁dropped	-2727
gain	-2728
▁Really	-2729
▁Like	-2730
▁kindle	-2731
▁third	-2732
▁dollars	-2733
▁seri	-2734
▁incre	-2735
mart	-2736
▁cush	-2737
▁write	-2738
▁click	-2739
Cons	-2740
▁prevent	-2741
▁photog	-2742
▁ipod	-2743
▁receive	-2744
over	-2745
▁40	-2746
▁boy	-2747
▁18	-2748
haps	-2749
-3	-2750
▁screws	-2751
res	-2752
▁deg	-2753
▁opening	-2754
▁jewel	-2755
▁zipper	-2756
▁clip	-2757
▁sun	-2758
▁organ	-2759
▁imag	-2760
▁ease	-2761
▁depend	-2762
▁wallet	-2763
▁angle	-2764
▁slide	-2765
▁Inst	-2766
vest	-2767
▁14	-2768
VER	-2769
▁bread	-2770
aks	-2771
▁gold	-2772
ope	-2773
As	-2774
inting	-2775
11	-2776
▁provided	-2777
▁Any	-2778
uction	-2779
washer	-2780
ok	-2781
▁asked	-2782
▁applic	-2783
ppy	-2784
▁Fits	-2785
▁cloth	-2786
hile	-2787
▁repair	-2788
▁hole	-2789
head	-2790
▁Mic	-2791
▁mil	-2792
▁Yes	-2793
▁Plus	-2794
-2	-2795
▁sitting	-2796
▁supply	-2797
▁lighter	-2798
▁compart	-2799
imp	-2800
▁scratch	-2801
erest	-2802
lves	-2803
▁backpack	-2804
▁delivered	-2805
▁toe	-2806
▁models	-2807
▁consist	-2808
▁obvious	-2809
▁mac	-2810
▁information	-2811
▁electron	-2812
▁holder	-2813
▁cleaner	-2814
▁fresh	-2815
▁constantly	-2816
▁ability	-2817
▁minor	-2818
press	-2819
▁professional	-2820
▁prompt	-2821
▁emp	-2822
ying	-2823
val	-2824
▁lights	-2825
go	-2826
▁tape	-2827
CH	-2828
▁become	-2829
gest	-2830
ah	-2831
▁SO	-2832
▁units	-2833
▁song	-2834
▁worried	-2835
70	-2836
▁wants	-2837
▁positive	-2838
▁channels	-2839
:-	-2840
▁energy	-2841
▁party	-2842
▁whatever	-2843
urcha	-2844
time	-2845
ogn	-2846
▁honest	-2847
▁weather	-2848
▁truly	-2849
▁frustr	-2850
cro	-2851
▁bedroom	-2852
order	-2853
▁mail	-2854
▁invest	-2855
▁electric	-2856
ued	-2857
▁earb	-2858
▁installation	-2859
▁mist	-2860
▁tripod	-2861
▁stainless	-2862
oot	-2863
▁minim	-2864
▁remember	-2865
▁gre	-2866
▁Pre	-2867
▁ST	-2868
oub	-2869
▁bathroom	-2870
▁uni	-2871
▁guy	-2872
▁chose	-2873
▁ir	-2874
▁trick	-2875
une	-2876
sit	-2877
▁dishwasher	-2878
▁Pr	-2879
▁functions	-2880
▁saying	-2881
▁output	-2882
itech	-2883
ppers	-2884
ining	-2885
Al	-2886
▁MP	-2887
▁Nikon	-2888
▁stated	-2889
ox	-2890
uit	-2891
▁various	-2892
▁sour	-2893
▁blades	-2894
▁listening	-2895
▁movie	-2896
roid	-2897
▁stereo	-2898
▁experien	-2899
ibr	-2900
▁Still	-2901
ipe	-2902
▁placed	-2903
▁bubble	-2904
▁desktop	-2905
REAT	-2906
▁necklace	-2907
▁suit	-2908
▁mostly	-2909
▁turns	-2910
▁Ad	-2911
▁heart	-2912
▁Panasonic	-2913
▁Le	-2914
▁25	-2915
▁FOR	-2916
▁closed	-2917
ane	-2918
iding	-2919
eth	-2920
▁intend	-2921
▁60	-2922
▁recogn	-2923
▁upd	-2924
▁eat	-2925
▁quest	-2926
▁likely	-2927
ample	-2928
▁changed	-2929
▁relative	-2930
▁sweat	-2931
▁YOU	-2932
▁ipad	-2933
▁shot	-2934
▁required	-2935
▁pin	-2936
TH	-2937
▁lasts	-2938
▁sale	-2939
▁compat	-2940
cl	-2941
▁PS	-2942
▁comment	-2943
▁moving	-2944
▁reliable	-2945
ALL	-2946
▁cab	-2947
▁carpet	-2948
▁hesit	-2949
▁13	-2950
fli	-2951
▁chain	-2952
▁Product	-2953
outh	-2954
▁brew	-2955
▁Log	-2956
▁smart	-2957
They	-2958
▁100%	-2959
▁5'	-2960
▁insert	-2961
armin	-2962
▁apply	-2963
▁dead	-2964
▁LED	-2965
otton	-2966
▁equipment	-2967
▁period	-2968
pite	-2969
ivity	-2970
▁minute	-2971
▁controls	-2972
▁filters	-2973
▁terrible	-2974
bers	-2975
▁sal	-2976
▁redu	-2977
ination	-2978
▁altern	-2979
▁Did	-2980
lier	-2981
▁appre	-2982
▁soap	-2983
▁packaged	-2984
▁cy	-2985
▁interest	-2986
▁/	-2987
der	-2988
▁happened	-2989
▁carrying	-2990
onse	-2991
▁sole	-2992
▁fur	-2993
plug	-2994
▁natural	-2995
▁removed	-2996
▁finding	-2997
▁def	-2998
▁fault	-2999
aker	-3000
▁bill	-3001
▁damage	-3002
▁sets	-3003
▁label	-3004
▁choose	-3005
raph	-3006
▁world	-3007
▁Go	-3008
▁missing	-3009
▁buck	-3010
▁AS	-3011
lling	-3012
▁cir	-3013
▁bowl	-3014
col	-3015
▁usb	-3016
▁height	-3017
asp	-3018
▁edges	-3019
▁phones	-3020
▁bracelet	-3021
▁GREAT	-3022
▁Fire	-3023
ero	-3024
idge	-3025
▁NO	-3026
▁doub	-3027
▁game	-3028
▁HP	-3029
▁six	-3030
proof	-3031
fficient	-3032
▁NE	-3033
▁BE	-3034
▁living	-3035
▁Most	-3036
▁defective	-3037
▁wedding	-3038
For	-3039
ners	-3040
cise	-3041
ience	-3042
ries	-3043
TV	-3044
▁max	-3045
▁failed	-3046
▁vo	-3047
orts	-3048
▁junk	-3049
▁fire	-3050
▁Otherwise	-3051
ict	-3052
▁Definitely	-3053
▁functional	-3054
▁hardware	-3055
▁wires	-3056
lessly	-3057
▁stiff	-3058
▁cutting	-3059
17	-3060
▁select	-3061
EM	-3062
▁OF	-3063
oke	-3064
ifi	-3065
▁died	-3066
▁below	-3067
▁dock	-3068
▁bring	-3069
mble	-3070
▁liqu	-3071
▁capac	-3072
▁total	-3073
▁shots	-3074
idth	-3075
ossible	-3076
▁32	-3077
rm	-3078
▁ut	-3079
▁hurt	-3080
▁separate	-3081
▁container	-3082
!)	-3083
body	-3084
▁hate	-3085
▁powerful	-3086
flix	-3087
fl	-3088
▁avoid	-3089
▁apps	-3090
▁appli	-3091
ems	-3092
▁windows	-3093
▁worse	-3094
▁HA	-3095
▁tested	-3096
ini	-3097
▁waiting	-3098
▁sandals	-3099
▁knives	-3100
▁firmware	-3101
▁window	-3102
▁casual	-3103
aded	-3104
.4	-3105
onnect	-3106
rown	-3107
▁fingers	-3108
▁spray	-3109
▁connector	-3110
▁block	-3111
sw	-3112
▁cotton	-3113
▁pans	-3114
▁none	-3115
13	-3116
▁concerned	-3117
▁response	-3118
pri	-3119
▁magnet	-3120
??	-3121
▁whether	-3122
▁id	-3123
logy	-3124
▁hooked	-3125
ATE	-3126
cum	-3127
▁picked	-3128
▁appreci	-3129
▁ank	-3130
▁Ph	-3131
isp	-3132
▁tooth	-3133
▁Che	-3134
▁eyes	-3135
▁sizing	-3136
▁fixed	-3137
▁shop	-3138
fit	-3139
▁Super	-3140
▁rack	-3141
▁sensitive	-3142
▁reach	-3143
▁assemb	-3144
▁Dell	-3145
SD	-3146
atically	-3147
▁effort	-3148
▁pol	-3149
▁cushion	-3150
▁shown	-3151
▁Garmin	-3152
▁limited	-3153
▁Purcha	-3154
▁rot	-3155
▁earbuds	-3156
ccess	-3157
;&#	-3158
.2	-3159
▁egg	-3160
▁BUT	-3161
erv	-3162
▁bluetooth	-3163
fet	-3164
▁workout	-3165
▁fat	-3166
▁suction	-3167
▁rough	-3168
But	-3169
▁Rec	-3170
▁everywhere	-3171
▁places	-3172
▁pills	-3173
▁ing	-3174
inner	-3175
▁impossible	-3176
▁clearly	-3177
▁charm	-3178
▁correctly	-3179
ded	-3180
ential	-3181
ading	-3182
round	-3183
▁handles	-3184
."	-3185
ped	-3186
▁falling	-3187
▁hass	-3188
ference	-3189
▁weak	-3190
▁round	-3191
▁ten	-3192
ivid	-3193
▁necessary	-3194
▁alot	-3195
▁backup	-3196
cast	-3197
▁flip	-3198
▁adjustable	-3199
▁bend	-3200
▁cant	-3201
▁motor	-3202
▁jewelry	-3203
▁forget	-3204
▁loss	-3205
▁prote	-3206
▁Te	-3207
▁treat	-3208
▁flavor	-3209
▁0	-3210
▁auto	-3211
▁contacted	-3212
gar	-3213
cent	-3214
▁IP	-3215
▁pat	-3216
▁Micro	-3217
-5	-3218
▁BU	-3219
▁cabin	-3220
▁headphone	-3221
▁Co	-3222
▁leak	-3223
UP	-3224
ified	-3225
▁thank	-3226
▁horrible	-3227
ulous	-3228
▁recharge	-3229
itions	-3230
▁juice	-3231
ptical	-3232
▁pour	-3233
ension	-3234
▁pounds	-3235
▁Bluetooth	-3236
▁areas	-3237
kin	-3238
ering	-3239
▁Logitech	-3240
▁realize	-3241
▁stud	-3242
▁han	-3243
▁milk	-3244
▁dirt	-3245
▁bri	-3246
▁teeth	-3247
▁dial	-3248
▁attem	-3249
▁accept	-3250
ym	-3251
▁dim	-3252
▁compon	-3253
▁Cle	-3254
▁shoulder	-3255
LR	-3256
▁tre	-3257
▁disp	-3258
▁computers	-3259
▁sleeve	-3260
▁remain	-3261
▁media	-3262
▁ske	-3263
used	-3264
▁books	-3265
▁shirts	-3266
▁amp	-3267
▁tele	-3268
vi	-3269
▁compare	-3270
▁affordable	-3271
this	-3272
▁bud	-3273
with	-3274
▁Fit	-3275
▁vel	-3276
▁vitam	-3277
▁Everything	-3278
▁resolution	-3279
▁floors	-3280
▁drivers	-3281
▁basically	-3282
▁alternative	-3283
▁dog	-3284
▁tun	-3285
▁eventually	-3286
▁[	-3287
osh	-3288
▁ground	-3289
▁nav	-3290
▁pictured	-3291
▁liter	-3292
irty	-3293
friend	-3294
▁recording	-3295
umin	-3296
▁ant	-3297
▁mug	-3298
▁MY	-3299
een	-3300
▁Fl	-3301
stick	-3302
▁art	-3303
▁saved	-3304
▁accident	-3305
▁protein	-3306
ifier	-3307
wards	-3308
▁slim	-3309
iety	-3310
▁defin	-3311
▁road	-3312
▁improvement	-3313
▁mass	-3314
nology	-3315
▁capacity	-3316
▁opp	-3317
ring	-3318
sor	-3319
ify	-3320
▁signific	-3321
mon	-3322
▁starting	-3323
zen	-3324
ened	-3325
100	-3326
You	-3327
▁realized	-3328
▁thanks	-3329
There	-3330
▁par	-3331
▁happier	-3332
ointing	-3333
▁images	-3334
▁$3	-3335
▁Wal	-3336
▁AN	-3337
they	-3338
▁tip	-3339
-4	-3340
▁tab	-3341
▁address	-3342
▁requires	-3343
▁breat	-3344
▁file	-3345
▁fitting	-3346
▁shaving	-3347
▁hassle	-3348
vered	-3349
▁regard	-3350
▁rout	-3351
▁plate	-3352
LD	-3353
rs	-3354
▁bur	-3355
▁exer	-3356
fered	-3357
aps	-3358
▁Col	-3359
▁alone	-3360
ugg	-3361
▁slot	-3362
▁Purchased	-3363
▁viewing	-3364
ctor	-3365
All	-3366
▁bottles	-3367
▁microw	-3368
▁elastic	-3369
orge	-3370
▁Ord	-3371
▁scratches	-3372
▁gaming	-3373
▁imagine	-3374
▁New	-3375
▁noticeable	-3376
▁fans	-3377
▁driver	-3378
▁station	-3379
▁relatively	-3380
▁shelf	-3381
▁DS	-3382
▁pus	-3383
▁pads	-3384
▁blank	-3385
▁exchan	-3386
▁width	-3387
▁graph	-3388
ises	-3389
you	-3390
cul	-3391
iece	-3392
▁seeing	-3393
▁Im	-3394
▁peel	-3395
▁surprise	-3396
▁nor	-3397
ening	-3398
▁switc	-3399
▁trust	-3400
▁personal	-3401
▁Because	-3402
▁enter	-3403
▁early	-3404
▁thicker	-3405
▁delic	-3406
▁spare	-3407
▁19	-3408
▁interface	-3409
▁eng	-3410
▁lovely	-3411
ashion	-3412
▁leaves	-3413
uch	-3414
▁covered	-3415
Pros	-3416
▁patter	-3417
▁hub	-3418
izer	-3419
ming	-3420
▁usual	-3421
▁grow	-3422
Than	-3423
▁retail	-3424
▁ship	-3425
redient	-3426
On	-3427
▁Dis	-3428
▁mechan	-3429
▁cop	-3430
▁known	-3431
▁please	-3432
cei	-3433
ellow	-3434
▁techn	-3435
▁situ	-3436
▁concern	-3437
ngth	-3438
▁bon	-3439
▁tear	-3440
▁benef	-3441
lets	-3442
▁sweet	-3443
▁spo	-3444
▁Air	-3445
▁charges	-3446
eded	-3447
▁eleg	-3448
▁blender	-3449
▁upon	-3450
▁channel	-3451
▁aware	-3452
▁damaged	-3453
▁rice	-3454
▁heads	-3455
ism	-3456
allow	-3457
▁kid	-3458
▁prim	-3459
▁sheet	-3460
▁nut	-3461
oogle	-3462
pdate	-3463
▁weigh	-3464
▁gym	-3465
▁od	-3466
▁la	-3467
▁exception	-3468
▁vend	-3469
▁answ	-3470
▁timer	-3471
▁paying	-3472
▁occasion	-3473
▁90	-3474
▁moder	-3475
ipping	-3476
ibility	-3477
▁compatible	-3478
▁automatically	-3479
▁resist	-3480
▁spring	-3481
▁intended	-3482
arently	-3483
ec	-3484
",	-3485
▁Black	-3486
uty	-3487
▁beautifully	-3488
▁lau	-3489
▁outdo	-3490
▁sister	-3491
▁materials	-3492
We	-3493
▁wheel	-3494
▁ingredient	-3495
▁pattern	-3496
even	-3497
One	-3498
▁plugs	-3499
▁repe	-3500
▁microwave	-3501
▁thread	-3502
▁wra	-3503
▁stylus	-3504
▁types	-3505
bing	-3506
Also	-3507
attery	-3508
▁children	-3509
▁rock	-3510
▁cat	-3511
▁WH	-3512
▁hasn	-3513
▁turning	-3514
▁forever	-3515
▁toes	-3516
▁Sound	-3517
▁tex	-3518
ites	-3519
▁listed	-3520
▁accom	-3521
▁cred	-3522
▁Wi	-3523
▁lbs	-3524
▁80	-3525
yond	-3526
▁moved	-3527
▁shopping	-3528
5.	-3529
▁subst	-3530
▁cry	-3531
▁format	-3532
orry	-3533
▁shorts	-3534
17;	-3535
▁rug	-3536
&#8217;	-3537
▁Or	-3538
▁crisp	-3539
▁Of	-3540
▁scent	-3541
zz	-3542
▁meant	-3543
▁boo	-3544
▁mouth	-3545
▁blend	-3546
mall	-3547
▁bump	-3548
inally	-3549
▁coat	-3550
▁liquid	-3551
▁freez	-3552
▁prior	-3553
arily	-3554
▁Somet	-3555
▁offered	-3556
▁reviewer	-3557
▁girl	-3558
▁accessories	-3559
bit	-3560
iron	-3561
▁source	-3562
▁Hope	-3563
▁regret	-3564
gn	-3565
▁hood	-3566
▁page	-3567
▁modem	-3568
▁worst	-3569
▁consum	-3570
ances	-3571
▁mold	-3572
▁words	-3573
ILL	-3574
▁syn	-3575
&#34;.	-3576
▁wine	-3577
orter	-3578
rome	-3579
▁general	-3580
▁late	-3581
After	-3582
▁China	-3583
▁sink	-3584
▁earlier	-3585
equ	-3586
▁error	-3587
▁suppose	-3588
reeze	-3589
▁originally	-3590
▁miles	-3591
▁comments	-3592
▁AC	-3593
▁weird	-3594
wo	-3595
▁magn	-3596
▁previously	-3597
▁specific	-3598
▁$20	-3599
▁flexible	-3600
500	-3601
▁tough	-3602
▁est	-3603
▁EX	-3604
▁feed	-3605
▁lat	-3606
▁doubt	-3607
ale	-3608
▁irrit	-3609
▁replacing	-3610
▁relie	-3611
▁Fe	-3612
▁Netflix	-3613
▁17	-3614
rely	-3615
▁Ab	-3616
▁SH	-3617
▁trash	-3618
▁mistake	-3619
▁Cl	-3620
overed	-3621
ball	-3622
ables	-3623
▁$100	-3624
▁heavier	-3625
▁empty	-3626
▁corner	-3627
▁attempt	-3628
▁Quality	-3629
▁silic	-3630
orgeous	-3631
▁supplement	-3632
▁Nothing	-3633
▁surround	-3634
▁spill	-3635
▁traveling	-3636
rilled	-3637
▁disk	-3638
▁protects	-3639
▁und	-3640
oes	-3641
hip	-3642
▁+	-3643
▁Oh	-3644
icing	-3645
ums	-3646
▁reception	-3647
▁AA	-3648
▁Power	-3649
▁cross	-3650
▁sect	-3651
▁checked	-3652
▁Cam	-3653
▁literally	-3654
▁season	-3655
▁transmit	-3656
▁compet	-3657
▁bunch	-3658
▁Comp	-3659
▁tired	-3660
▁sleek	-3661
▁variety	-3662
▁compartment	-3663
soft	-3664
ison	-3665
▁Both	-3666
▁sense	-3667
90	-3668
When	-3669
▁ALL	-3670
St	-3671
▁didnt	-3672
▁attention	-3673
▁bubbles	-3674
▁serious	-3675
▁AT	-3676
▁crazy	-3677
▁sock	-3678
▁breaking	-3679
▁apple	-3680
▁texture	-3681
▁arch	-3682
▁Bose	-3683
▁Sc	-3684
▁shaver	-3685
▁BUY	-3686
igital	-3687
rees	-3688
vable	-3689
▁sending	-3690
▁diam	-3691
▁GB	-3692
came	-3693
rib	-3694
GE	-3695
▁film	-3696
ME	-3697
alax	-3698
▁neat	-3699
▁women	-3700
arched	-3701
▁success	-3702
▁currently	-3703
▁pet	-3704
▁unplug	-3705
▁surf	-3706
▁fro	-3707
orable	-3708
▁buds	-3709
▁skeptical	-3710
__	-3711
▁alarm	-3712
▁began	-3713
▁*	-3714
▁offers	-3715
rive	-3716
▁fashion	-3717
▁reset	-3718
▁further	-3719
▁tag	-3720
standing	-3721
▁mp	-3722
▁snow	-3723
IGH	-3724
▁disappointing	-3725
▁distance	-3726
▁assemble	-3727
▁WAS	-3728
▁menu	-3729
▁reasonably	-3730
▁dirty	-3731
eric	-3732
▁internal	-3733
▁mir	-3734
alaxy	-3735
▁users	-3736
▁elegant	-3737
abil	-3738
▁unique	-3739
▁Play	-3740
▁functionality	-3741
izing	-3742
▁tray	-3743
▁factory	-3744
▁Sp	-3745
▁humid	-3746
▁mounted	-3747
ray	-3748
▁collection	-3749
▁technology	-3750
▁leaving	-3751
▁experienced	-3752
iring	-3753
roll	-3754
▁rain	-3755
UR	-3756
▁grill	-3757
▁Our	-3758
▁arms	-3759
▁photograph	-3760
▁costs	-3761
▁bonus	-3762
ording	-3763
▁hoped	-3764
afe	-3765
▁ahead	-3766
anced	-3767
iner	-3768
▁self	-3769
▁env	-3770
AP	-3771
▁1080	-3772
▁OS	-3773
▁temp	-3774
▁unlike	-3775
Fi	-3776
▁toast	-3777
▁adequ	-3778
▁Light	-3779
▁strength	-3780
▁happens	-3781
af	-3782
▁wrap	-3783
▁Keep	-3784
Book	-3785
▁knee	-3786
▁example	-3787
▁poss	-3788
ground	-3789
BLE	-3790
▁padding	-3791
▁miss	-3792
...]	-3793
how	-3794
▁gen	-3795
Now	-3796
▁Spe	-3797
▁flawlessly	-3798
▁appe	-3799
velop	-3800
ov	-3801
▁clock	-3802
iling	-3803
▁controll	-3804
▁writing	-3805
▁knock	-3806
▁ess	-3807
▁poorly	-3808
▁report	-3809
tt	-3810
▁showed	-3811
▁Look	-3812
▁brow	-3813
▁mounting	-3814
▁hi	-3815
▁yellow	-3816
▁tank	-3817
ese	-3818
▁pulled	-3819
9.	-3820
▁decor	-3821
▁word	-3822
▁towel	-3823
DATE	-3824
14	-3825
▁comfortably	-3826
▁WOR	-3827
▁moist	-3828
▁stable	-3829
▁sus	-3830
▁ru	-3831
▁Simp	-3832
▁velcro	-3833
▁bask	-3834
▁starts	-3835
▁$10	-3836
att	-3837
▁promised	-3838
▁searching	-3839
▁grinder	-3840
▁shooting	-3841
▁newer	-3842
▁Medi	-3843
▁dep	-3844
▁shorter	-3845
▁Is	-3846
xy	-3847
▁ends	-3848
▁effects	-3849
▁thrilled	-3850
▁cro	-3851
▁corners	-3852
aches	-3853
▁drops	-3854
▁Pri	-3855
▁spending	-3856
ITH	-3857
▁credit	-3858
▁became	-3859
▁fac	-3860
▁seat	-3861
▁split	-3862
▁cooler	-3863
▁incredibly	-3864
▁songs	-3865
▁despite	-3866
▁gloves	-3867
▁typing	-3868
▁lift	-3869
▁series	-3870
lid	-3871
▁gorgeous	-3872
▁toaster	-3873
▁ult	-3874
▁sleeping	-3875
CA	-3876
▁learn	-3877
▁purple	-3878
kward	-3879
▁rings	-3880
▁stations	-3881
▁cords	-3882
▁rated	-3883
GA	-3884
▁shr	-3885
TER	-3886
▁promptly	-3887
▁becom	-3888
▁waterproof	-3889
lasses	-3890
▁hanging	-3891
▁diet	-3892
▁outlet	-3893
▁Has	-3894
▁suppli	-3895
▁improved	-3896
iba	-3897
▁agree	-3898
▁protected	-3899
▁include	-3900
▁lunch	-3901
airs	-3902
▁degrees	-3903
selves	-3904
▁Set	-3905
uis	-3906
▁operate	-3907
ulty	-3908
▁perhaps	-3909
▁biggest	-3910
▁wont	-3911
▁obviously	-3912
200	-3913
colate	-3914
eed	-3915
ipes	-3916
▁Blu	-3917
▁smells	-3918
==	-3919
stal	-3920
▁gifts	-3921
▁sticks	-3922
urb	-3923
▁brus	-3924
▁Could	-3925
And	-3926
▁GO	-3927
▁tablets	-3928
▁processor	-3929
▁Too	-3930
uro	-3931
▁towels	-3932
neath	-3933
▁brought	-3934
▁doctor	-3935
▁prep	-3936
▁numbers	-3937
▁butter	-3938
▁nose	-3939
▁dv	-3940
alled	-3941
eak	-3942
oop	-3943
▁streaming	-3944
▁prices	-3945
▁plain	-3946
che	-3947
▁wifi	-3948
▁grab	-3949
▁Get	-3950
ideo	-3951
▁Fr	-3952
UST	-3953
▁furn	-3954
PU	-3955
oor	-3956
▁boxes	-3957
Great	-3958
raid	-3959
▁duty	-3960
▁versat	-3961
▁cance	-3962
▁constructed	-3963
▁panel	-3964
▁ident	-3965
▁voice	-3966
▁downside	-3967
itional	-3968
ipped	-3969
land	-3970
▁underneath	-3971
▁powder	-3972
▁boyfriend	-3973
▁exist	-3974
▁extended	-3975
iber	-3976
ster	-3977
These	-3978
ALLY	-3979
▁honestly	-3980
▁durability	-3981
▁inv	-3982
▁Why	-3983
▁swim	-3984
▁cleaned	-3985
▁trips	-3986
▁changes	-3987
▁WITH	-3988
▁combination	-3989
▁cart	-3990
▁frequently	-3991
▁adding	-3992
oofer	-3993
OK	-3994
▁Seems	-3995
▁orange	-3996
▁adorable	-3997
▁3.0	-3998
▁clar	-3999
▁ingredients	-4000
▁awkward	-4001
▁cabinet	-4002
▁odd	-4003
▁Des	-4004
ads	-4005
▁packed	-4006
▁bars	-4007
▁Aw	-4008
▁surprising	-4009
▁cake	-4010
ino	-4011
▁rear	-4012
▁discovered	-4013
nel	-4014
hable	-4015
▁admit	-4016
▁breeze	-4017
▁stove	-4018
▁cheaply	-4019
▁ankle	-4020
▁beyond	-4021
▁common	-4022
▁speeds	-4023
acy	-4024
▁reasons	-4025
iture	-4026
▁respons	-4027
era	-4028
usion	-4029
▁installing	-4030
▁thus	-4031
▁WE	-4032
▁ket	-4033
▁points	-4034
▁levels	-4035
arge	-4036
▁reader	-4037
▁shiny	-4038
▁detect	-4039
▁Wish	-4040
▁vendor	-4041
▁afraid	-4042
▁powered	-4043
--------	-4044
wear	-4045
▁chem	-4046
.*	-4047
▁clothing	-4048
▁develop	-4049
ga	-4050
▁learned	-4051
▁tools	-4052
▁pricey	-4053
▁link	-4054
▁electronics	-4055
▁tub	-4056
oku	-4057
ils	-4058
▁cre	-4059
▁caused	-4060
▁tie	-4061
▁sits	-4062
▁70	-4063
▁slippers	-4064
▁application	-4065
▁earphones	-4066
▁selling	-4067
▁respond	-4068
ops	-4069
▁chest	-4070
CE	-4071
▁Recei	-4072
▁navig	-4073
▁weren	-4074
▁guys	-4075
▁drawer	-4076
▁wider	-4077
that	-4078
▁securely	-4079
▁outfit	-4080
▁tastes	-4081
▁unfortunately	-4082
▁FM	-4083
▁blood	-4084
▁following	-4085
ru	-4086
▁changing	-4087
▁lad	-4088
▁bulk	-4089
▁appreciate	-4090
▁stands	-4091
▁minimal	-4092
adget	-4093
▁amazed	-4094
inst	-4095
action	-4096
▁cleans	-4097
urity	-4098
▁initially	-4099
▁Ser	-4100
▁spots	-4101
▁removing	-4102
▁kinda	-4103
▁Time	-4104
▁hy	-4105
▁depending	-4106
▁By	-4107
Update	-4108
▁saving	-4109
▁gro	-4110
▁Digital	-4111
▁brack	-4112
key	-4113
▁played	-4114
atched	-4115
itching	-4116
▁usage	-4117
▁Ordered	-4118
▁HAVE	-4119
▁followed	-4120
▁gear	-4121
▁upper	-4122
made	-4123
▁5-	-4124
▁dishes	-4125
▁movement	-4126
presso	-4127
IR	-4128
▁phys	-4129
oshiba	-4130
▁players	-4131
SE	-4132
▁awhile	-4133
▁catch	-4134
vision	-4135
daughter	-4136
▁adds	-4137
▁wanting	-4138
.,	-4139
lon	-4140
▁individ	-4141
bu	-4142
▁ban	-4143
▁sad	-4144
▁manage	-4145
▁friendly	-4146
▁cooker	-4147
ley	-4148
▁tips	-4149
bage	-4150
▁info	-4151
▁particularly	-4152
▁absor	-4153
▁2.	-4154
▁Another	-4155
▁initial	-4156
lored	-4157
▁..	-4158
ointed	-4159
▁stom	-4160
bl	-4161
▁crap	-4162
▁stone	-4163
▁coll	-4164
▁diss	-4165
▁suggested	-4166
▁Worked	-4167
esides	-4168
▁lines	-4169
▁connections	-4170
▁release	-4171
▁question	-4172
oup	-4173
▁protective	-4174
▁therm	-4175
▁pump	-4176
▁driving	-4177
▁#	-4178
▁adult	-4179
▁filled	-4180
▁investment	-4181
▁activ	-4182
▁Sometimes	-4183
▁Bel	-4184
▁RAM	-4185
/2	-4186
▁Never	-4187
▁ways	-4188
▁sleeves	-4189
No	-4190
▁hardly	-4191
▁wake	-4192
▁spark	-4193
▁Car	-4194
▁attachment	-4195
▁vacation	-4196
▁doesnt	-4197
Very	-4198
▁log	-4199
▁tur	-4200
▁fish	-4201
▁flow	-4202
cs	-4203
KE	-4204
aven	-4205
▁generally	-4206
▁poster	-4207
▁hund	-4208
Not	-4209
ION	-4210
▁woman	-4211
▁MacBook	-4212
▁Having	-4213
bel	-4214
▁Finally	-4215
▁Lo	-4216
▁bell	-4217
▁SSD	-4218
▁gadget	-4219
IF	-4220
sole	-4221
ST	-4222
▁receiving	-4223
▁meet	-4224
isy	-4225
ECT	-4226
▁environ	-4227
▁cracked	-4228
▁blo	-4229
des	-4230
▁Sw	-4231
****	-4232
▁projector	-4233
▁create	-4234
▁vibr	-4235
mi	-4236
▁static	-4237
▁adequate	-4238
▁dent	-4239
▁dryer	-4240
▁odor	-4241
▁Ext	-4242
▁Toshiba	-4243
▁hundred	-4244
▁basket	-4245
▁explain	-4246
▁furniture	-4247
▁silicone	-4248
▁heating	-4249
eter	-4250
▁nicer	-4251
▁Price	-4252
▁suck	-4253
▁comparison	-4254
▁background	-4255
▁pillows	-4256
ENT	-4257
wood	-4258
▁sugar	-4259
▁produce	-4260
▁calls	-4261
▁land	-4262
▁exchange	-4263
▁Used	-4264
▁ill	-4265
▁$4	-4266
▁Recommend	-4267
▁Ste	-4268
▁jump	-4269
▁toy	-4270
▁moment	-4271
▁location	-4272
▁outstanding	-4273
▁THAT	-4274
▁superior	-4275
▁rust	-4276
ache	-4277
ieved	-4278
▁heels	-4279
night	-4280
kend	-4281
▁disappointment	-4282
print	-4283
▁balance	-4284
▁finished	-4285
▁tube	-4286
▁thumb	-4287
uminum	-4288
▁docum	-4289
▁laptops	-4290
▁sensor	-4291
▁eating	-4292
▁Awesome	-4293
▁graphics	-4294
▁trad	-4295
▁closet	-4296
▁elsewhere	-4297
terday	-4298
▁age	-4299
autiful	-4300
15	-4301
▁writ	-4302
▁pleasantly	-4303
inder	-4304
ager	-4305
▁suff	-4306
▁unable	-4307
▁talking	-4308
.3	-4309
▁typical	-4310
▁efficient	-4311
▁kettle	-4312
ICE	-4313
▁Bra	-4314
▁falls	-4315
▁Roku	-4316
▁Use	-4317
▁Fast	-4318
▁throughout	-4319
▁somewhere	-4320
ili	-4321
ATA	-4322
acute	-4323
▁affect	-4324
▁themselves	-4325
▁stomach	-4326
▁squee	-4327
andy	-4328
▁Battery	-4329
▁scar	-4330
▁budget	-4331
▁maintain	-4332
▁gel	-4333
▁mainly	-4334
▁scrub	-4335
rived	-4336
▁content	-4337
▁chal	-4338
▁appearance	-4339
cam	-4340
▁exercise	-4341
▁II	-4342
▁fruit	-4343
.2.	-4344
▁thru	-4345
ker	-4346
▁dollar	-4347
▁config	-4348
etter	-4349
▁enclo	-4350
▁optical	-4351
▁state	-4352
gly	-4353
▁hose	-4354
▁sports	-4355
▁ang	-4356
▁bargain	-4357
▁systems	-4358
▁$50	-4359
▁Gl	-4360
▁brother	-4361
▁incredible	-4362
▁relief	-4363
▁MB	-4364
▁shock	-4365
▁weekend	-4366
▁glove	-4367
shirt	-4368
▁dual	-4369
▁tit	-4370
▁laund	-4371
Other	-4372
▁chocolate	-4373
lfriend	-4374
ano	-4375
▁Touch	-4376
unction	-4377
▁rin	-4378
▁glue	-4379
▁fancy	-4380
▁chemical	-4381
▁meat	-4382
▁showing	-4383
▁strip	-4384
▁portion	-4385
▁account	-4386
lection	-4387
▁advice	-4388
▁pend	-4389
▁ridic	-4390
▁Sec	-4391
1)	-4392
▁penny	-4393
▁Much	-4394
▁sung	-4395
▁camc	-4396
▁skirt	-4397
However	-4398
▁Galaxy	-4399
▁capsu	-4400
▁programs	-4401
▁500	-4402
▁clarity	-4403
▁extension	-4404
▁Hard	-4405
▁soo	-4406
▁personally	-4407
gers	-4408
▁Mini	-4409
using	-4410
hest	-4411
AZ	-4412
▁fol	-4413
▁ideal	-4414
▁losing	-4415
▁(2	-4416
free	-4417
ift	-4418
mes	-4419
▁security	-4420
▁From	-4421
ifically	-4422
▁arrive	-4423
▁carefully	-4424
▁awful	-4425
▁ONE	-4426
▁seam	-4427
mer	-4428
▁zero	-4429
limin	-4430
▁Int	-4431
▁medic	-4432
▁mask	-4433
▁XP	-4434
▁frustrating	-4435
▁engine	-4436
ands	-4437
▁talk	-4438
▁harder	-4439
▁Note	-4440
amic	-4441
▁details	-4442
▁increase	-4443
......	-4444
med	-4445
▁clips	-4446
▁contr	-4447
tr	-4448
▁HDTV	-4449
▁How	-4450
▁assembly	-4451
▁compan	-4452
look	-4453
▁garbage	-4454
▁fem	-4455
▁Android	-4456
▁answer	-4457
▁lip	-4458
rific	-4459
▁cuts	-4460
cles	-4461
▁factor	-4462
▁guest	-4463
down	-4464
hers	-4465
lip	-4466
aching	-4467
random	-4468
▁lighting	-4469
▁baking	-4470
What	-4471
▁connecting	-4472
arn	-4473
▁active	-4474
▁OR	-4475
▁girlfriend	-4476
char	-4477
IG	-4478
▁DE	-4479
▁Ok	-4480
▁clasp	-4481
▁impressive	-4482
▁customers	-4483
UPDATE	-4484
fety	-4485
▁$30	-4486
▁dinner	-4487
▁thats	-4488
▁pouch	-4489
▁latest	-4490
▁terms	-4491
oses	-4492
▁thinner	-4493
▁Up	-4494
▁aud	-4495
ught	-4496
thernet	-4497
▁beginning	-4498
▁healthy	-4499
imately	-4500
ottom	-4501
▁espresso	-4502
▁Americ	-4503
ras	-4504
▁collect	-4505
ORE	-4506
▁distort	-4507
▁crit	-4508
▁vert	-4509
▁wired	-4510
apped	-4511
▁standing	-4512
▁quit	-4513
▁blow	-4514
▁rich	-4515
▁section	-4516
▁closer	-4517
bar	-4518
▁enjoyed	-4519
▁XL	-4520
berry	-4521
▁protectors	-4522
▁twist	-4523
▁apartment	-4524
alm	-4525
▁random	-4526
istle	-4527
▁willing	-4528
▁motherboard	-4529
▁timely	-4530
▁unus	-4531
▁plays	-4532
▁CH	-4533
▁Beautiful	-4534
▁noisy	-4535
got	-4536
▁operation	-4537
ora	-4538
▁comfor	-4539
▁SE	-4540
▁Char	-4541
ping	-4542
woofer	-4543
▁anti	-4544
▁EV	-4545
atell	-4546
▁Sha	-4547
▁sunglasses	-4548
▁HE	-4549
▁:-	-4550
aste	-4551
leep	-4552
▁Google	-4553
▁adjustment	-4554
▁pulling	-4555
▁kick	-4556
▁Ult	-4557
▁square	-4558
▁decide	-4559
▁sticky	-4560
▁college	-4561
▁vs	-4562
▁lets	-4563
▁classic	-4564
▁knob	-4565
▁microphone	-4566
ishing	-4567
▁slots	-4568
▁sore	-4569
▁yesterday	-4570
▁pant	-4571
▁classy	-4572
▁blanket	-4573
:1.	-4574
mming	-4575
▁zip	-4576
iest	-4577
▁brief	-4578
▁folks	-4579
▁beach	-4580
omend	-4581
gb	-4582
▁lining	-4583
arget	-4584
alog	-4585
▁Makes	-4586
▁elimin	-4587
▁Case	-4588
▁LG	-4589
▁knowing	-4590
▁printer	-4591
▁knows	-4592
▁Del	-4593
▁allowed	-4594
▁warning	-4595
▁cooling	-4596
▁=	-4597
▁gain	-4598
▁aluminum	-4599
▁toss	-4600
▁Sy	-4601
▁automatic	-4602
▁cycle	-4603
ONE	-4604
▁conver	-4605
▁laundry	-4606
▁drawback	-4607
▁crystal	-4608
▁stitching	-4609
▁granddaughter	-4610
▁share	-4611
▁2.0	-4612
▁Received	-4613
▁3.5	-4614
ude	-4615
▁performs	-4616
▁conditions	-4617
▁practical	-4618
▁shouldn	-4619
▁wrink	-4620
▁numer	-4621
▁wonderfully	-4622
▁request	-4623
▁hearing	-4624
ometer	-4625
▁environment	-4626
▁television	-4627
▁Two	-4628
▁grandson	-4629
esh	-4630
ula	-4631
year	-4632
ization	-4633
▁apparently	-4634
mans	-4635
▁versatile	-4636
appy	-4637
▁recomend	-4638
▁bent	-4639
▁drain	-4640
▁message	-4641
▁fal	-4642
ills	-4643
▁Cont	-4644
▁tops	-4645
▁direction	-4646
▁needing	-4647
▁Again	-4648
▁Arrived	-4649
▁heater	-4650
▁decision	-4651
KS	-4652
▁eggs	-4653
▁Me	-4654
▁noted	-4655
ases	-4656
▁shell	-4657
▁hd	-4658
▁Con	-4659
▁Nex	-4660
▁Pe	-4661
▁Microsoft	-4662
600	-4663
▁toothbr	-4664
▁veget	-4665
▁plates	-4666
▁Need	-4667
▁layer	-4668
▁adapters	-4669
▁accidentally	-4670
▁sexy	-4671
▁pics	-4672
▁mop	-4673
ees	-4674
▁whenever	-4675
▁compress	-4676
▁young	-4677
aked	-4678
▁components	-4679
▁claims	-4680
ral	-4681
▁spin	-4682
inart	-4683
UCT	-4684
▁sorry	-4685
hod	-4686
▁traditional	-4687
▁padded	-4688
idd	-4689
▁pc	-4690
▁ANY	-4691
▁Out	-4692
▁boost	-4693
▁juicer	-4694
azing	-4695
▁Rep	-4696
▁Using	-4697
▁Tom	-4698
▁COM	-4699
▁burned	-4700
▁Ret	-4701
screen	-4702
▁connectors	-4703
oh	-4704
▁threw	-4705
▁motion	-4706
ape	-4707
▁specifically	-4708
▁regularly	-4709
▁stress	-4710
▁action	-4711
▁45	-4712
izz	-4713
▁USA	-4714
oun	-4715
▁64	-4716
▁120	-4717
▁copy	-4718
▁Mine	-4719
▁shake	-4720
▁mixer	-4721
▁Blue	-4722
OL	-4723
75	-4724
▁written	-4725
▁fly	-4726
▁scroll	-4727
met	-4728
▁oz	-4729
antage	-4730
ures	-4731
▁loaded	-4732
actly	-4733
▁OEM	-4734
▁Rem	-4735
▁Clean	-4736
▁allerg	-4737
▁35	-4738
▁photography	-4739
ireless	-4740
▁Intern	-4741
▁scratched	-4742
▁monitors	-4743
▁dest	-4744
▁according	-4745
▁purposes	-4746
▁safety	-4747
▁stayed	-4748
▁cast	-4749
icture	-4750
▁learning	-4751
lish	-4752
OULD	-4753
▁$5	-4754
MP	-4755
▁lol	-4756
aging	-4757
▁Cal	-4758
▁burning	-4759
▁hung	-4760
▁machines	-4761
▁upgraded	-4762
Be	-4763
▁camcorder	-4764
▁iphone	-4765
▁sticking	-4766
egr	-4767
▁transmitter	-4768
illet	-4769
▁;	-4770
▁wig	-4771
▁electronic	-4772
▁disconnect	-4773
▁tad	-4774
▁occasionally	-4775
manship	-4776
▁blur	-4777
▁switched	-4778
▁Asus	-4779
clud	-4780
▁fa	-4781
sized	-4782
▁2-3	-4783
▁Prime	-4784
▁stains	-4785
▁darker	-4786
▁risk	-4787
▁dvd	-4788
uisinart	-4789
▁smoothly	-4790
▁:(	-4791
▁wax	-4792
fast	-4793
bon	-4794
▁assum	-4795
uc	-4796
iant	-4797
▁DSLR	-4798
▁solved	-4799
4.	-4800
▁constant	-4801
▁Dr	-4802
▁lif	-4803
ails	-4804
▁visible	-4805
▁pleasant	-4806
▁configur	-4807
▁More	-4808
▁surprisingly	-4809
cription	-4810
▁coating	-4811
MB	-4812
EST	-4813
▁AL	-4814
▁tons	-4815
erm	-4816
▁curtain	-4817
▁Cons	-4818
▁matches	-4819
▁updates	-4820
▁vitamins	-4821
▁En	-4822
▁mixed	-4823
unning	-4824
▁300	-4825
▁interested	-4826
Good	-4827
▁causing	-4828
▁photograp	-4829
lee	-4830
RI	-4831
▁method	-4832
▁recent	-4833
▁grey	-4834
▁WD	-4835
▁marks	-4836
▁comforter	-4837
▁serving	-4838
log	-4839
▁outer	-4840
▁lids	-4841
AST	-4842
▁hiking	-4843
inch	-4844
▁AMAZ	-4845
!!!!!	-4846
▁theater	-4847
▁1.	-4848
▁Man	-4849
▁Small	-4850
erts	-4851
well	-4852
boot	-4853
imum	-4854
▁states	-4855
▁outdoor	-4856
▁planning	-4857
▁manually	-4858
▁gig	-4859
▁lag	-4860
ERF	-4861
▁therefore	-4862
now	-4863
▁Before	-4864
▁strips	-4865
ashes	-4866
▁paint	-4867
imate	-4868
▁mechanism	-4869
▁carafe	-4870
16	-4871
▁situation	-4872
▁Over	-4873
▁waited	-4874
ama	-4875
▁drag	-4876
▁waff	-4877
▁wipe	-4878
▁whatso	-4879
▁craft	-4880
▁inner	-4881
▁includes	-4882
aly	-4883
priced	-4884
rell	-4885
▁girls	-4886
▁flap	-4887
▁UP	-4888
▁interior	-4889
▁Please	-4890
▁sounded	-4891
▁Worth	-4892
▁proof	-4893
▁performed	-4894
uitive	-4895
▁Audio	-4896
▁seriously	-4897
▁salt	-4898
▁whatsoever	-4899
▁stretc	-4900
▁contrast	-4901
▁ARE	-4902
▁numerous	-4903
▁substant	-4904
▁Read	-4905
▁dash	-4906
▁Pretty	-4907
▁Hallow	-4908
▁stat	-4909
▁field	-4910
▁Tech	-4911
▁individual	-4912
▁appropri	-4913
▁instruction	-4914
▁caught	-4915
▁containers	-4916
▁WILL	-4917
▁rarely	-4918
▁acceptable	-4919
Sh	-4920
▁force	-4921
▁pendant	-4922
▁consistent	-4923
▁CPU	-4924
istic	-4925
▁Make	-4926
▁aspect	-4927
▁serve	-4928
▁delicate	-4929
▁Halloween	-4930
▁pix	-4931
▁shrink	-4932
▁possibly	-4933
▁Shar	-4934
▁supplements	-4935
▁slides	-4936
ta	-4937
▁approx	-4938
▁Nexus	-4939
▁Here	-4940
mmed	-4941
▁2012	-4942
▁strange	-4943
▁evenly	-4944
▁modern	-4945
▁ver	-4946
▁screens	-4947
▁gray	-4948
▁mesh	-4949
▁inputs	-4950
▁drinks	-4951
vil	-4952
▁stops	-4953
▁puts	-4954
▁sick	-4955
▁fu	-4956
ana	-4957
▁dan	-4958
▁Color	-4959
▁hopefully	-4960
enn	-4961
▁text	-4962
▁accessory	-4963
▁rechargeable	-4964
300	-4965
▁Took	-4966
▁ripped	-4967
▁Doesn	-4968
▁becomes	-4969
/4	-4970
▁drinking	-4971
▁hous	-4972
▁Big	-4973
▁fitted	-4974
▁Item	-4975
▁steps	-4976
▁flu	-4977
▁rig	-4978
▁pure	-4979
▁highest	-4980
▁subs	-4981
oe	-4982
▁server	-4983
▁logo	-4984
▁significant	-4985
eah	-4986
▁PROD	-4987
onge	-4988
▁rip	-4989
case	-4990
▁pitc	-4991
▁ampl	-4992
▁basis	-4993
▁story	-4994
▁Let	-4995
hold	-4996
▁cent	-4997
▁upload	-4998
uss	-4999
▁Exactly	-5000
▁magnetic	-5001
▁sandal	-5002
hy	-5003
quot	-5004
▁AV	-5005
▁teen	-5006
ured	-5007
▁chick	-5008
▁discs	-5009
ANT	-5010
rical	-5011
▁jar	-5012
▁Sur	-5013
▁suspect	-5014
OME	-5015
aced	-5016
▁specs	-5017
▁tan	-5018
▁asking	-5019
sidered	-5020
▁testing	-5021
▁parent	-5022
▁supports	-5023
▁colored	-5024
▁Internet	-5025
▁reduce	-5026
Re	-5027
▁har	-5028
aid	-5029
▁updated	-5030
▁netbook	-5031
▁tends	-5032
▁slowly	-5033
▁degree	-5034
▁Add	-5035
▁benefit	-5036
▁controller	-5037
▁combo	-5038
corn	-5039
▁rele	-5040
▁bracket	-5041
▁Made	-5042
▁upset	-5043
▁responsive	-5044
▁Cable	-5045
▁trimmer	-5046
▁PRODUCT	-5047
▁washes	-5048
ilet	-5049
▁bands	-5050
entation	-5051
▁sync	-5052
▁applications	-5053
▁stones	-5054
▁terrific	-5055
ittle	-5056
▁delight	-5057
iot	-5058
▁generation	-5059
ury	-5060
ista	-5061
▁Gu	-5062
▁cheese	-5063
ado	-5064
▁causes	-5065
▁Euro	-5066
▁hesitate	-5067
▁MU	-5068
▁mill	-5069
▁kill	-5070
That	-5071
▁heats	-5072
▁matching	-5073
orough	-5074
▁Shipping	-5075
▁superb	-5076
▁packs	-5077
lbs	-5078
▁adapt	-5079
size	-5080
▁meas	-5081
▁companies	-5082
▁object	-5083
▁ce	-5084
▁default	-5085
▁purchases	-5086
▁expand	-5087
▁rat	-5088
▁blu	-5089
▁wrapped	-5090
▁painful	-5091
▁Ipod	-5092
PP	-5093
▁considered	-5094
▁sooner	-5095
ensions	-5096
▁dough	-5097
▁recognize	-5098
▁deliver	-5099
▁frozen	-5100
▁stronger	-5101
cal	-5102
ule	-5103
eds	-5104
▁overnight	-5105
▁capability	-5106
▁town	-5107
IGHT	-5108
▁ONLY	-5109
!).	-5110
▁pots	-5111
▁breaks	-5112
▁sweater	-5113
▁relax	-5114
▁kinds	-5115
▁removable	-5116
▁thickness	-5117
▁San	-5118
▁Dy	-5119
▁hing	-5120
▁skinny	-5121
▁diamond	-5122
law	-5123
▁Cuisinart	-5124
▁Who	-5125
▁virt	-5126
▁typically	-5127
▁wasted	-5128
▁indeed	-5129
▁lamp	-5130
▁chip	-5131
▁toothbrush	-5132
▁reflect	-5133
unes	-5134
▁loop	-5135
lest	-5136
▁360	-5137
▁meal	-5138
▁2.5	-5139
▁~	-5140
8.	-5141
▁Didn	-5142
▁broad	-5143
▁map	-5144
mium	-5145
6.	-5146
▁manner	-5147
▁operating	-5148
▁identical	-5149
▁soles	-5150
▁flatter	-5151
▁Save	-5152
▁stack	-5153
alent	-5154
800	-5155
arant	-5156
▁Br	-5157
▁vent	-5158
▁thorough	-5159
▁Tried	-5160
▁instantly	-5161
cre	-5162
▁THEY	-5163
▁continu	-5164
▁sneak	-5165
▁hooks	-5166
7.	-5167
Thanks	-5168
▁subwoofer	-5169
▁notebook	-5170
▁surger	-5171
unky	-5172
▁REALLY	-5173
▁shipment	-5174
▁Home	-5175
▁links	-5176
UL	-5177
▁Simple	-5178
▁1/4	-5179
▁packing	-5180
▁Mag	-5181
▁Anyway	-5182
▁forth	-5183
ored	-5184
▁yog	-5185
▁pregn	-5186
▁searched	-5187
▁tilt	-5188
mark	-5189
hand	-5190
ica	-5191
▁convers	-5192
▁sudd	-5193
▁adjusted	-5194
▁switching	-5195
▁essential	-5196
uggage	-5197
HD	-5198
▁straw	-5199
▁pool	-5200
▁sliding	-5201
▁shoulders	-5202
▁Macbook	-5203
▁excess	-5204
▁commun	-5205
some	-5206
gear	-5207
icle	-5208
▁Many	-5209
▁subject	-5210
isters	-5211
▁sudden	-5212
▁polic	-5213
▁wise	-5214
▁holid	-5215
▁evening	-5216
▁Luck	-5217
▁compartments	-5218
▁comparable	-5219
,000	-5220
▁Supp	-5221
▁dogs	-5222
▁walls	-5223
▁loos	-5224
umbs	-5225
▁attachments	-5226
onna	-5227
osite	-5228
▁Smart	-5229
▁sucks	-5230
▁vib	-5231
.3.	-5232
▁UPS	-5233
▁insul	-5234
▁challen	-5235
65	-5236
▁[...]	-5237
▁tom	-5238
▁GOOD	-5239
▁entertain	-5240
▁capture	-5241
vy	-5242
▁questions	-5243
▁depart	-5244
avy	-5245
)-	-5246
▁selection	-5247
▁Perhaps	-5248
▁dad	-5249
ighb	-5250
▁forgot	-5251
▁Instead	-5252
▁desired	-5253
▁intuitive	-5254
▁brightness	-5255
▁LI	-5256
▁rinse	-5257
▁DVDs	-5258
▁3-	-5259
▁mob	-5260
▁allowing	-5261
enc	-5262
▁Comfortable	-5263
lus	-5264
▁ride	-5265
entle	-5266
rop	-5267
▁bulb	-5268
▁roomy	-5269
▁DVR	-5270
▁Second	-5271
▁steal	-5272
▁cooked	-5273
;&#10	-5274
asma	-5275
▁Camera	-5276
▁convenience	-5277
▁advantage	-5278
▁AW	-5279
▁Win	-5280
ashed	-5281
ears	-5282
MA	-5283
▁significantly	-5284
▁enjoying	-5285
▁Cost	-5286
▁Better	-5287
assed	-5288
edic	-5289
▁bowls	-5290
▁1.5	-5291
range	-5292
iser	-5293
▁technical	-5294
▁complained	-5295
▁difficulty	-5296
▁$40	-5297
▁RCA	-5298
▁guide	-5299
▁remind	-5300
fo	-5301
▁recognized	-5302
▁neighb	-5303
▁Pros	-5304
▁ft	-5305
illy	-5306
▁profile	-5307
▁Wireless	-5308
atellite	-5309
▁measuring	-5310
yle	-5311
ato	-5312
▁versions	-5313
▁beans	-5314
▁surfaces	-5315
▁luggage	-5316
entially	-5317
ards	-5318
▁beware	-5319
▁Ro	-5320
▁$200	-5321
▁por	-5322
ene	-5323
&#34;,	-5324
▁resid	-5325
▁du	-5326
▁shutter	-5327
▁TI	-5328
First	-5329
upid	-5330
▁choices	-5331
▁incon	-5332
ustomer	-5333
inksys	-5334
▁oh	-5335
▁Absolutely	-5336
........	-5337
▁fabulous	-5338
Com	-5339
▁ach	-5340
▁Hopefully	-5341
25	-5342
▁couch	-5343
▁knees	-5344
▁Though	-5345
▁Everyone	-5346
▁mild	-5347
▁Fo	-5348
viously	-5349
▁iT	-5350
▁appeared	-5351
▁sufficient	-5352
▁nur	-5353
▁Ind	-5354
▁trim	-5355
▁analog	-5356
▁muff	-5357
▁ugly	-5358
▁resistant	-5359
---	-5360
▁tells	-5361
700	-5362
▁shelves	-5363
▁4-	-5364
▁refurb	-5365
▁hesitant	-5366
▁SATA	-5367
▁bras	-5368
▁frag	-5369
otes	-5370
ontin	-5371
▁till	-5372
▁SP	-5373
▁antic	-5374
▁pul	-5375
▁country	-5376
▁recieved	-5377
▁toilet	-5378
ively	-5379
▁enclosure	-5380
Thank	-5381
▁Came	-5382
itor	-5383
books	-5384
word	-5385
tage	-5386
▁downloaded	-5387
po	-5388
than	-5389
iliar	-5390
An	-5391
▁bust	-5392
▁cd	-5393
▁convert	-5394
▁ASUS	-5395
Bl	-5396
▁win	-5397
▁ME	-5398
erson	-5399
▁equal	-5400
▁LOT	-5401
▁joint	-5402
mail	-5403
good	-5404
▁integr	-5405
UN	-5406
▁vitamin	-5407
▁discount	-5408
/20	-5409
Just	-5410
▁Glad	-5411
▁Last	-5412
▁opener	-5413
▁assume	-5414
▁anticip	-5415
ye	-5416
▁WiFi	-5417
-10	-5418
▁missed	-5419
▁upright	-5420
▁pizz	-5421
gings	-5422
illa	-5423
▁softer	-5424
oto	-5425
▁applied	-5426
she	-5427
▁conv	-5428
versal	-5429
iled	-5430
▁code	-5431
▁CAN	-5432
To	-5433
▁daughters	-5434
ka	-5435
▁MUCH	-5436
▁funny	-5437
▁colour	-5438
▁chicken	-5439
▁gas	-5440
▁serves	-5441
▁Gr	-5442
sha	-5443
▁Cool	-5444
imal	-5445
?)	-5446
▁MS	-5447
▁Europe	-5448
▁yr	-5449
▁Happy	-5450
▁surgery	-5451
▁component	-5452
▁Star	-5453
▁2013	-5454
▁Kitchen	-5455
▁Being	-5456
eer	-5457
▁freezer	-5458
▁)	-5459
▁bat	-5460
▁(3	-5461
▁Haven	-5462
▁breast	-5463
▁Act	-5464
▁Pol	-5465
▁policy	-5466
▁route	-5467
▁vibrant	-5468
▁moves	-5469
▁cuff	-5470
ERE	-5471
igned	-5472
▁fake	-5473
▁appropriate	-5474
uary	-5475
ba	-5476
▁todd	-5477
▁feedback	-5478
▁dull	-5479
▁neither	-5480
▁glare	-5481
▁seams	-5482
agate	-5483
Am	-5484
▁fool	-5485
▁Class	-5486
▁sneakers	-5487
Un	-5488
▁scan	-5489
▁vegg	-5490
▁mer	-5491
▁veh	-5492
▁lucky	-5493
▁supplied	-5494
otect	-5495
▁FR	-5496
istles	-5497
▁Son	-5498
aybe	-5499
▁bike	-5500
▁substantial	-5501
▁Eng	-5502
▁handling	-5503
▁primarily	-5504
gress	-5505
umps	-5506
PC	-5507
omen	-5508
▁somehow	-5509
▁Video	-5510
▁mirror	-5511
ames	-5512
▁Ipad	-5513
▁flav	-5514
▁reboot	-5515
anted	-5516
▁stored	-5517
▁configuration	-5518
▁filling	-5519
▁Bo	-5520
PR	-5521
▁garage	-5522
▁produces	-5523
▁laces	-5524
CON	-5525
whe	-5526
cut	-5527
idence	-5528
▁department	-5529
▁perman	-5530
▁strongly	-5531
▁moisture	-5532
▁inconven	-5533
▁rooms	-5534
▁Day	-5535
▁nights	-5536
▁depth	-5537
star	-5538
▁swive	-5539
vet	-5540
▁PL	-5541
▁hadn	-5542
▁capsules	-5543
▁gentle	-5544
▁PERF	-5545
thrit	-5546
ingly	-5547
▁Soft	-5548
▁HDD	-5549
Hz	-5550
▁occur	-5551
▁Belkin	-5552
▁3.	-5553
▁36	-5554
▁generic	-5555
▁hopes	-5556
gl	-5557
▁scarf	-5558
▁practice	-5559
▁appet	-5560
▁lifet	-5561
▁itch	-5562
▁tile	-5563
▁confirm	-5564
▁portra	-5565
▁measurements	-5566
▁Wow	-5567
▁picks	-5568
▁mile	-5569
▁ridiculous	-5570
hol	-5571
▁Vel	-5572
▁:-)	-5573
▁obs	-5574
▁recommendation	-5575
piece	-5576
oring	-5577
erve	-5578
▁indicator	-5579
▁wheels	-5580
uses	-5581
▁lasting	-5582
▁batch	-5583
▁chargers	-5584
▁DOES	-5585
▁pepper	-5586
▁Chrome	-5587
▁Sure	-5588
IL	-5589
▁rugged	-5590
▁picky	-5591
▁posted	-5592
water	-5593
hz	-5594
▁unre	-5595
▁title	-5596
▁highs	-5597
▁circ	-5598
▁vertical	-5599
▁tou	-5600
▁helping	-5601
▁primary	-5602
▁smo	-5603
▁melt	-5604
▁spread	-5605
rench	-5606
▁electrical	-5607
▁cub	-5608
▁tuck	-5609
▁coverage	-5610
▁fridge	-5611
tered	-5612
▁sealed	-5613
▁usable	-5614
▁lifetime	-5615
▁Plug	-5616
▁spoon	-5617
▁Extreme	-5618
▁beats	-5619
▁training	-5620
With	-5621
iop	-5622
▁entirely	-5623
▁foods	-5624
wire	-5625
▁Pack	-5626
▁complic	-5627
▁Size	-5628
▁Key	-5629
▁recorder	-5630
▁configure	-5631
▁tightly	-5632
3,	-5633
▁gonna	-5634
▁EVERY	-5635
▁delay	-5636
▁locally	-5637
▁hairs	-5638
▁ID	-5639
▁horiz	-5640
▁prepared	-5641
▁closure	-5642
95	-5643
ification	-5644
▁stupid	-5645
▁pops	-5646
▁rob	-5647
▁Hold	-5648
▁Back	-5649
▁Linksys	-5650
comfort	-5651
▁Walmart	-5652
▁Tot	-5653
▁located	-5654
▁dried	-5655
andora	-5656
oover	-5657
▁Mot	-5658
▁HU	-5659
▁van	-5660
▁grad	-5661
duction	-5662
▁recipe	-5663
▁dispos	-5664
▁cookware	-5665
▁caps	-5666
▁ur	-5667
▁folded	-5668
▁potential	-5669
▁Try	-5670
▁shaped	-5671
▁Amazing	-5672
▁Len	-5673
▁father	-5674
▁Which	-5675
▁washer	-5676
▁pub	-5677
▁fragile	-5678
▁wrote	-5679
▁popcorn	-5680
EL	-5681
▁traffic	-5682
▁!!	-5683
▁accommo	-5684
▁plugging	-5685
▁Quick	-5686
▁2-	-5687
▁dropping	-5688
▁warmer	-5689
▁maps	-5690
▁dresses	-5691
▁HT	-5692
soles	-5693
▁pushing	-5694
▁physical	-5695
▁connects	-5696
onom	-5697
▁Head	-5698
can	-5699
▁ensure	-5700
▁Picture	-5701
▁flight	-5702
▁interesting	-5703
▁news	-5704
▁ther	-5705
.(	-5706
.&#34;	-5707
da	-5708
▁consistently	-5709
after	-5710
▁plat	-5711
▁sport	-5712
odor	-5713
▁preferred	-5714
▁7.	-5715
bag	-5716
▁calibr	-5717
▁8.	-5718
▁chew	-5719
▁stead	-5720
fill	-5721
▁styles	-5722
▁leggings	-5723
urned	-5724
▁benefits	-5725
▁sched	-5726
▁concept	-5727
abilities	-5728
lymp	-5729
▁printed	-5730
▁picking	-5731
▁tong	-5732
ummy	-5733
▁sau	-5734
▁PERFECT	-5735
▁zippers	-5736
▁Sil	-5737
▁detailed	-5738
▁absorb	-5739
▁sites	-5740
orrow	-5741
▁NEVER	-5742
▁notes	-5743
▁telling	-5744
aur	-5745
▁separately	-5746
great	-5747
ACK	-5748
AND	-5749
▁saves	-5750
▁shine	-5751
▁Large	-5752
aling	-5753
▁truck	-5754
ational	-5755
▁ev	-5756
apping	-5757
umes	-5758
TA	-5759
▁drying	-5760
ney	-5761
Mac	-5762
▁capable	-5763
▁boys	-5764
rest	-5765
rum	-5766
▁slipping	-5767
▁pound	-5768
▁cardboard	-5769
▁popped	-5770
▁louder	-5771
▁3-4	-5772
▁parents	-5773
PA	-5774
▁managed	-5775
▁sturd	-5776
▁snugly	-5777
tter	-5778
TB	-5779
ola	-5780
▁precise	-5781
ilips	-5782
about	-5783
▁maximum	-5784
'.	-5785
▁AF	-5786
▁pins	-5787
▁oun	-5788
▁repres	-5789
▁playback	-5790
▁&#	-5791
▁chairs	-5792
orel	-5793
▁que	-5794
hetic	-5795
▁flattering	-5796
▁dimensions	-5797
▁final	-5798
▁55	-5799
▁guarant	-5800
inese	-5801
▁failure	-5802
▁slipp	-5803
▁ep	-5804
++	-5805
ONG	-5806
ribly	-5807
Th	-5808
▁manufacturers	-5809
▁1000	-5810
eramic	-5811
***	-5812
aptop	-5813
▁THEM	-5814
▁tighten	-5815
▁exceeded	-5816
▁adjustments	-5817
____	-5818
▁horizont	-5819
▁experiment	-5820
▁400	-5821
▁(1	-5822
▁street	-5823
mos	-5824
ennhe	-5825
▁6-	-5826
aired	-5827
▁die	-5828
▁photographer	-5829
▁DC	-5830
▁5.	-5831
ASE	-5832
▁dream	-5833
DV	-5834
▁pitcher	-5835
▁housing	-5836
▁macbook	-5837
▁transport	-5838
▁cans	-5839
▁Mod	-5840
▁Coffee	-5841
▁commer	-5842
bps	-5843
▁hide	-5844
▁steamer	-5845
,,	-5846
▁snaps	-5847
stairs	-5848
▁capabilities	-5849
▁Your	-5850
▁seve	-5851
▁muscle	-5852
▁scoop	-5853
▁22	-5854
▁dozen	-5855
quality	-5856
▁deterg	-5857
▁Drive	-5858
oon	-5859
▁shield	-5860
▁CO	-5861
▁basement	-5862
▁cash	-5863
▁Their	-5864
▁occasional	-5865
▁instant	-5866
▁law	-5867
▁recipes	-5868
hered	-5869
▁discontin	-5870
▁Put	-5871
▁Loved	-5872
▁IF	-5873
▁appetite	-5874
▁sew	-5875
▁Acer	-5876
oc	-5877
when	-5878
house	-5879
▁ultra	-5880
▁tick	-5881
▁Radio	-5882
▁refill	-5883
▁converter	-5884
▁8.5	-5885
▁tin	-5886
▁dispens	-5887
▁periods	-5888
Any	-5889
▁Cheap	-5890
▁pressed	-5891
▁saver	-5892
▁reserv	-5893
▁existing	-5894
High	-5895
only	-5896
verse	-5897
list	-5898
IE	-5899
▁building	-5900
▁beep	-5901
▁Table	-5902
▁amazingly	-5903
▁Dyson	-5904
▁overly	-5905
bow	-5906
▁RA	-5907
▁buckle	-5908
▁beaut	-5909
ida	-5910
▁Vista	-5911
▁canister	-5912
power	-5913
▁misle	-5914
▁towards	-5915
▁frequency	-5916
abled	-5917
urt	-5918
▁adjusting	-5919
▁greatly	-5920
▁shame	-5921
▁tabs	-5922
▁Mon	-5923
▁Bas	-5924
▁SI	-5925
▁assist	-5926
▁keyboards	-5927
Ray	-5928
▁Install	-5929
Ex	-5930
▁Probably	-5931
▁arthrit	-5932
▁MA	-5933
▁adhes	-5934
▁watched	-5935
▁folds	-5936
▁brushes	-5937
▁term	-5938
▁covering	-5939
Would	-5940
▁Media	-5941
white	-5942
▁Next	-5943
▁El	-5944
▁mugs	-5945
▁checking	-5946
ashing	-5947
▁34	-5948
▁paired	-5949
-20	-5950
▁exposed	-5951
▁chips	-5952
▁REC	-5953
eriz	-5954
▁delicious	-5955
▁prime	-5956
▁consumer	-5957
dr	-5958
▁Port	-5959
▁protecting	-5960
acing	-5961
▁enhan	-5962
apointed	-5963
▁Es	-5964
▁led	-5965
▁grade	-5966
▁wond	-5967
▁city	-5968
▁worthless	-5969
although	-5970
lled	-5971
▁lint	-5972
▁tricky	-5973
▁pod	-5974
▁core	-5975
▁WAY	-5976
▁....	-5977
▁razors	-5978
▁sight	-5979
▁indoor	-5980
▁leaks	-5981
▁Lots	-5982
ancy	-5983
▁Lin	-5984
▁discomfort	-5985
▁liner	-5986
▁cheapest	-5987
▁IR	-5988
place	-5989
OUGH	-5990
▁Low	-5991
rol	-5992
lympus	-5993
hor	-5994
▁drip	-5995
▁Braun	-5996
▁charact	-5997
▁meaning	-5998
dri	-5999
▁pushed	-6000
▁util	-6001
▁pear	-6002
▁Trans	-6003
▁Ear	-6004
▁Sky	-6005
▁complaining	-6006
idden	-6007
▁wiring	-6008
ESS	-6009
▁glow	-6010
▁pressing	-6011
Well	-6012
▁diff	-6013
▁remotes	-6014
atoes	-6015
▁breakfast	-6016
▁Red	-6017
?!	-6018
▁communic	-6019
▁Right	-6020
amb	-6021
▁outdoors	-6022
▁Seagate	-6023
▁chart	-6024
auge	-6025
▁refurbished	-6026
▁repeated	-6027
▁incor	-6028
▁upside	-6029
▁vary	-6030
works	-6031
▁Each	-6032
▁restart	-6033
umbers	-6034
▁overpriced	-6035
CR	-6036
uine	-6037
▁cookies	-6038
ovo	-6039
▁rolling	-6040
gger	-6041
yn	-6042
▁vegetables	-6043
▁pu	-6044
▁rolls	-6045
aver	-6046
▁pizza	-6047
▁nerv	-6048
▁Hoover	-6049
▁Think	-6050
vis	-6051
▁residue	-6052
fits	-6053
▁modes	-6054
▁sales	-6055
▁ceramic	-6056
▁grounds	-6057
▁SLR	-6058
▁expos	-6059
bal	-6060
▁Aut	-6061
▁tone	-6062
▁erg	-6063
▁QU	-6064
▁quicker	-6065
▁mm	-6066
▁squeeze	-6067
▁King	-6068
▁slower	-6069
TS	-6070
ioneer	-6071
foot	-6072
▁Customer	-6073
▁overhe	-6074
▁produced	-6075
▁mobile	-6076
▁lace	-6077
▁angles	-6078
▁meets	-6079
▁macro	-6080
Don	-6081
DR	-6082
▁increased	-6083
▁thigh	-6084
▁fear	-6085
▁Velcro	-6086
▁deodor	-6087
acle	-6088
▁reduced	-6089
▁massage	-6090
▁mixing	-6091
▁magnets	-6092
▁messy	-6093
▁nervous	-6094
▁audiop	-6095
outs	-6096
▁Jan	-6097
▁definately	-6098
▁Ed	-6099
▁lemon	-6100
▁frames	-6101
belie	-6102
uffle	-6103
aser	-6104
▁lined	-6105
▁prop	-6106
▁Watch	-6107
▁compliment	-6108
▁lacking	-6109
▁respect	-6110
▁veggies	-6111
apers	-6112
▁thermometer	-6113
▁notch	-6114
▁Mem	-6115
▁infl	-6116
▁Intel	-6117
▁Wonder	-6118
▁Luckily	-6119
▁oils	-6120
▁signals	-6121
ept	-6122
▁inserts	-6123
ented	-6124
▁flops	-6125
ridge	-6126
▁joke	-6127
▁freeze	-6128
▁sample	-6129
▁backs	-6130
▁800	-6131
▁butt	-6132
▁contains	-6133
▁organized	-6134
▁Bal	-6135
▁occasions	-6136
▁Sk	-6137
▁accuracy	-6138
▁Should	-6139
▁Tri	-6140
85	-6141
▁7.5	-6142
ech	-6143
▁drug	-6144
Wor	-6145
itivity	-6146
mbrell	-6147
▁DON	-6148
▁tuner	-6149
reg	-6150
▁American	-6151
▁distortion	-6152
▁VGA	-6153
nces	-6154
▁lowest	-6155
▁Dire	-6156
▁situations	-6157
▁($	-6158
bre	-6159
see	-6160
▁invol	-6161
▁wondering	-6162
▁created	-6163
▁JUST	-6164
▁complicated	-6165
▁Cas	-6166
▁walked	-6167
rong	-6168
▁researched	-6169
▁rad	-6170
vity	-6171
▁wooden	-6172
ede	-6173
Tube	-6174
▁arrival	-6175
▁TR	-6176
▁lead	-6177
▁hunt	-6178
▁ny	-6179
▁bund	-6180
▁sounding	-6181
▁THESE	-6182
especially	-6183
OP	-6184
▁skip	-6185
▁fiber	-6186
▁platform	-6187
▁dose	-6188
BS	-6189
====	-6190
▁hom	-6191
▁hips	-6192
▁underwear	-6193
▁beard	-6194
▁bi	-6195
▁Keeps	-6196
▁Box	-6197
urdy	-6198
▁flaws	-6199
▁task	-6200
▁suitable	-6201
erior	-6202
comend	-6203
pha	-6204
▁sticker	-6205
▁$15	-6206
▁badly	-6207
▁Ultra	-6208
▁familiar	-6209
▁thoroughly	-6210
▁browser	-6211
lit	-6212
▁toddler	-6213
iday	-6214
▁sony	-6215
▁importantly	-6216
IVE	-6217
▁calf	-6218
▁bun	-6219
▁Xbox	-6220
Con	-6221
!!!!!!!!	-6222
▁adhesive	-6223
inyl	-6224
ai	-6225
▁swallow	-6226
▁regarding	-6227
ores	-6228
▁Off	-6229
▁male	-6230
▁niece	-6231
cup	-6232
▁mounts	-6233
▁impression	-6234
▁soooo	-6235
▁opposed	-6236
shoot	-6237
▁besides	-6238
▁pleasure	-6239
▁Netgear	-6240
▁assembled	-6241
▁2011	-6242
tled	-6243
▁patient	-6244
▁aside	-6245
▁Fort	-6246
▁THAN	-6247
▁christmas	-6248
▁ram	-6249
▁password	-6250
▁retain	-6251
▁scra	-6252
▁mal	-6253
▁cooks	-6254
▁misleading	-6255
▁storing	-6256
▁balls	-6257
▁abuse	-6258
▁sells	-6259
install	-6260
asty	-6261
▁beauty	-6262
oz	-6263
???	-6264
▁TVs	-6265
▁poly	-6266
▁umbrell	-6267
▁bake	-6268
▁continues	-6269
▁isol	-6270
▁Res	-6271
▁slippery	-6272
ios	-6273
riger	-6274
▁emailed	-6275
▁balanced	-6276
▁virtually	-6277
▁burner	-6278
cons	-6279
▁WORK	-6280
▁stunning	-6281
▁Sennhe	-6282
fers	-6283
▁female	-6284
▁Mat	-6285
▁satellite	-6286
cakes	-6287
▁stretchy	-6288
▁6'	-6289
▁designs	-6290
▁War	-6291
▁BT	-6292
▁Mer	-6293
user	-6294
▁75	-6295
▁Cute	-6296
▁lives	-6297
▁delivers	-6298
fr	-6299
▁tasting	-6300
▁reput	-6301
▁yard	-6302
▁symp	-6303
▁supported	-6304
▁blown	-6305
▁gripe	-6306
▁indicated	-6307
▁Unlike	-6308
▁snapped	-6309
▁diag	-6310
▁2010	-6311
▁chrome	-6312
VED	-6313
▁readings	-6314
▁shocked	-6315
▁HUGE	-6316
▁string	-6317
▁breath	-6318
▁gloss	-6319
▁Within	-6320
pre	-6321
▁err	-6322
▁GET	-6323
▁studio	-6324
▁bang	-6325
▁42	-6326
por	-6327
Only	-6328
▁diameter	-6329
▁absolute	-6330
▁steady	-6331
from	-6332
▁backing	-6333
▁replacements	-6334
▁asleep	-6335
URE	-6336
▁belly	-6337
▁Fu	-6338
▁mas	-6339
▁lady	-6340
zel	-6341
400	-6342
HC	-6343
▁confident	-6344
▁confusing	-6345
▁Philips	-6346
▁ergonom	-6347
ators	-6348
▁tests	-6349
▁fingerprint	-6350
▁YOUR	-6351
▁passed	-6352
▁Olympus	-6353
urig	-6354
▁Couldn	-6355
▁matched	-6356
▁camping	-6357
▁smoothies	-6358
Can	-6359
▁cookie	-6360
▁greatest	-6361
▁Give	-6362
▁cats	-6363
▁bear	-6364
▁DVI	-6365
▁pinch	-6366
▁letter	-6367
[...]	-6368
inger	-6369
▁BR	-6370
At	-6371
will	-6372
▁tracking	-6373
▁ethernet	-6374
▁Target	-6375
▁hip	-6376
▁True	-6377
▁landsc	-6378
apan	-6379
▁brewing	-6380
▁rent	-6381
▁shade	-6382
▁Ray	-6383
▁eight	-6384
▁trade	-6385
plays	-6386
▁editing	-6387
there	-6388
▁switches	-6389
Some	-6390
lete	-6391
▁wob	-6392
▁!!!	-6393
▁owner	-6394
▁detergent	-6395
▁stairs	-6396
▁vehicle	-6397
▁workouts	-6398
▁@	-6399
▁28	-6400
tube	-6401
cery	-6402
struct	-6403
▁Creat	-6404
▁YouTube	-6405
▁sandw	-6406
▁outlets	-6407
Link	-6408
▁rubb	-6409
pted	-6410
▁sensitivity	-6411
sec	-6412
▁fry	-6413
▁Mar	-6414
▁placing	-6415
XL	-6416
▁4.	-6417
▁IM	-6418
▁hardwood	-6419
▁BEST	-6420
▁CON	-6421
▁Player	-6422
OTH	-6423
▁calories	-6424
ston	-6425
under	-6426
▁$$	-6427
▁refriger	-6428
odak	-6429
new	-6430
▁opens	-6431
▁developed	-6432
▁floss	-6433
▁jars	-6434
▁wrists	-6435
▁appliance	-6436
asse	-6437
▁UN	-6438
utter	-6439
▁activity	-6440
izes	-6441
▁ath	-6442
▁CR	-6443
▁Recommended	-6444
spe	-6445
▁riding	-6446
▁solve	-6447
USB	-6448
tes	-6449
ern	-6450
eriously	-6451
▁coffe	-6452
▁2,	-6453
inal	-6454
▁LIKE	-6455
▁threads	-6456
▁hell	-6457
▁leaking	-6458
▁contents	-6459
▁hundreds	-6460
pes	-6461
▁150	-6462
32	-6463
▁fight	-6464
▁roast	-6465
▁providing	-6466
▁ties	-6467
▁extender	-6468
▁Especially	-6469
He	-6470
▁Adap	-6471
▁throwing	-6472
▁meals	-6473
atisf	-6474
ada	-6475
▁fee	-6476
▁advise	-6477
▁Pandora	-6478
▁Card	-6479
▁park	-6480
▁rocks	-6481
▁Cap	-6482
function	-6483
tend	-6484
▁WOULD	-6485
happy	-6486
rough	-6487
▁Water	-6488
▁delighted	-6489
▁placement	-6490
▁hidden	-6491
▁BIG	-6492
▁navigate	-6493
▁stabil	-6494
rig	-6495
▁minimum	-6496
▁boom	-6497
▁tighter	-6498
▁allergies	-6499
▁tread	-6500
▁pointed	-6501
▁stretched	-6502
▁WOW	-6503
▁popular	-6504
▁frustrated	-6505
uits	-6506
▁Mom	-6507
▁carried	-6508
▁utens	-6509
▁alb	-6510
▁approximately	-6511
▁$300	-6512
▁ware	-6513
clock	-6514
▁clog	-6515
▁slick	-6516
▁swivel	-6517
▁SM	-6518
▁among	-6519
▁Chinese	-6520
▁boat	-6521
▁impact	-6522
low	-6523
ledge	-6524
▁720	-6525
▁PRO	-6526
▁calves	-6527
▁suddenly	-6528
▁nature	-6529
▁unusable	-6530
▁Min	-6531
▁connectivity	-6532
looking	-6533
▁Ant	-6534
▁OUT	-6535
resh	-6536
pan	-6537
▁repeat	-6538
▁row	-6539
▁grocery	-6540
iable	-6541
▁toler	-6542
▁Us	-6543
▁reccomend	-6544
point	-6545
clusion	-6546
▁vinyl	-6547
De	-6548
▁inj	-6549
▁goo	-6550
terior	-6551
loy	-6552
▁android	-6553
itter	-6554
▁anybody	-6555
Bottom	-6556
▁trays	-6557
▁supportive	-6558
conom	-6559
▁cordless	-6560
▁flexibility	-6561
.4.	-6562
CK	-6563
▁plane	-6564
▁convin	-6565
▁Connect	-6566
▁fluff	-6567
▁busy	-6568
▁beads	-6569
IP	-6570
▁curve	-6571
▁exceptional	-6572
VC	-6573
▁brick	-6574
/5	-6575
itis	-6576
▁candy	-6577
lts	-6578
▁trail	-6579
▁dem	-6580
Amazon	-6581
iddle	-6582
▁summ	-6583
▁grease	-6584
▁bin	-6585
▁magic	-6586
▁doors	-6587
▁interference	-6588
▁soup	-6589
▁dedic	-6590
▁describe	-6591
▁People	-6592
▁audiophile	-6593
▁student	-6594
▁fraction	-6595
-200	-6596
▁dump	-6597
35	-6598
▁ankles	-6599
▁pages	-6600
▁plasma	-6601
▁served	-6602
▁Green	-6603
▁robe	-6604
▁fails	-6605
▁entertainment	-6606
▁household	-6607
▁destro	-6608
▁surge	-6609
▁pasta	-6610
▁Repl	-6611
▁disks	-6612
▁Zune	-6613
oura	-6614
▁Grand	-6615
▁shift	-6616
▁jam	-6617
▁subtle	-6618
▁thrown	-6619
▁hdmi	-6620
▁discontinued	-6621
▁AAA	-6622
▁owners	-6623
▁CDs	-6624
▁uns	-6625
▁den	-6626
▁Motor	-6627
▁accommodate	-6628
▁nylon	-6629
ivery	-6630
▁spect	-6631
izio	-6632
▁regardless	-6633
▁comparing	-6634
:1)	-6635
have	-6636
▁marked	-6637
▁recorded	-6638
9.99	-6639
udge	-6640
▁lean	-6641
▁quant	-6642
▁ped	-6643
arer	-6644
lips	-6645
▁trigger	-6646
▁bottoms	-6647
▁About	-6648
itamin	-6649
▁reported	-6650
▁genuine	-6651
▁50%	-6652
▁colorful	-6653
▁spout	-6654
▁makers	-6655
▁Reg	-6656
▁CA	-6657
▁$25	-6658
▁selected	-6659
Disk	-6660
▁visit	-6661
nis	-6662
▁qual	-6663
▁symptom	-6664
▁cramp	-6665
▁Linux	-6666
▁iTunes	-6667
cur	-6668
▁10.	-6669
▁chemicals	-6670
▁fort	-6671
▁Keyboard	-6672
▁Tra	-6673
▁adaptor	-6674
▁receipt	-6675
▁universal	-6676
▁loving	-6677
▁crappy	-6678
▁public	-6679
▁Tab	-6680
▁programming	-6681
▁portrait	-6682
----------------	-6683
fi	-6684
▁rap	-6685
▁aid	-6686
Easy	-6687
estern	-6688
▁practically	-6689
ette	-6690
▁smoke	-6691
▁rotate	-6692
▁gap	-6693
▁wow	-6694
asing	-6695
▁vision	-6696
▁gauge	-6697
▁premium	-6698
▁socket	-6699
▁plant	-6700
▁amplifier	-6701
▁measured	-6702
▁USE	-6703
▁menus	-6704
▁sin	-6705
▁displays	-6706
umbersome	-6707
▁cass	-6708
ester	-6709
▁pouring	-6710
▁LOOK	-6711
▁heck	-6712
▁collar	-6713
arks	-6714
▁nuts	-6715
▁pros	-6716
▁exerc	-6717
▁headache	-6718
▁researching	-6719
▁buzz	-6720
▁Cha	-6721
Note	-6722
▁bumps	-6723
▁cig	-6724
▁(4	-6725
▁Unless	-6726
▁Those	-6727
encies	-6728
▁sess	-6729
▁opposite	-6730
▁Turn	-6731
hew	-6732
ikes	-6733
Highly	-6734
▁fau	-6735
▁suitc	-6736
▁expl	-6737
▁sweep	-6738
ause	-6739
▁youtube	-6740
▁inserted	-6741
▁matte	-6742
▁Rock	-6743
▁decre	-6744
▁wool	-6745
▁5.1	-6746
▁ISO	-6747
▁compression	-6748
gu	-6749
▁displayed	-6750
rate	-6751
▁continued	-6752
▁thous	-6753
charge	-6754
▁extensive	-6755
▁guests	-6756
aff	-6757
▁AD	-6758
▁boil	-6759
ulate	-6760
▁arthritis	-6761
▁signs	-6762
▁deck	-6763
het	-6764
link	-6765
▁Fortunately	-6766
▁wand	-6767
▁members	-6768
▁Nook	-6769
maybe	-6770
▁Actually	-6771
▁silent	-6772
▁staying	-6773
▁grinding	-6774
62	-6775
▁cumbersome	-6776
▁gall	-6777
▁Men	-6778
utral	-6779
▁Ob	-6780
kyo	-6781
icy	-6782
▁manufacturing	-6783
▁accessible	-6784
▁mice	-6785
ARD	-6786
▁recom	-6787
▁broadcast	-6788
full	-6789
beat	-6790
▁libr	-6791
▁Acc	-6792
cious	-6793
rigin	-6794
▁Lenovo	-6795
▁confidence	-6796
2)	-6797
▁airport	-6798
▁Clear	-6799
▁buyers	-6800
▁MORE	-6801
BO	-6802
▁div	-6803
ortun	-6804
▁letting	-6805
▁taller	-6806
▁Bre	-6807
▁Laptop	-6808
▁cubes	-6809
▁mins	-6810
vas	-6811
▁27	-6812
▁AMAZON	-6813
▁closing	-6814
▁punch	-6815
▁Same	-6816
▁iMac	-6817
▁register	-6818
▁Sennheiser	-6819
itionally	-6820
▁rib	-6821
.2)	-6822
itary	-6823
IM	-6824
▁Service	-6825
plete	-6826
▁nasty	-6827
flow	-6828
▁retract	-6829
▁lips	-6830
▁tiss	-6831
▁econom	-6832
▁emails	-6833
via	-6834
▁Sand	-6835
▁Japan	-6836
▁Keurig	-6837
▁thinks	-6838
▁suffer	-6839
▁docking	-6840
▁stir	-6841
▁cutter	-6842
▁21	-6843
▁ups	-6844
▁routine	-6845
hot	-6846
▁reviewed	-6847
▁disposable	-6848
▁Room	-6849
onster	-6850
▁dos	-6851
Another	-6852
fiber	-6853
▁applying	-6854
▁Mount	-6855
TE	-6856
yes	-6857
held	-6858
▁reliability	-6859
▁cloud	-6860
ITY	-6861
▁boiling	-6862
▁ceiling	-6863
ERS	-6864
▁foil	-6865
▁stability	-6866
▁spat	-6867
▁letters	-6868
▁faulty	-6869
utions	-6870
▁Screen	-6871
▁brings	-6872
▁Despite	-6873
▁swimming	-6874
▁insoles	-6875
rel	-6876
▁quart	-6877
/3	-6878
▁group	-6879
▁tries	-6880
▁Squ	-6881
▁brighter	-6882
▁frustration	-6883
▁buyer	-6884
,"	-6885
▁Cro	-6886
▁workmanship	-6887
▁flawless	-6888
▁radios	-6889
▁related	-6890
.5.	-6891
includ	-6892
▁tail	-6893
▁;)	-6894
mg	-6895
▁Way	-6896
▁cu	-6897
▁danger	-6898
aturally	-6899
▁twe	-6900
▁pou	-6901
▁waffle	-6902
▁humidifier	-6903
ateg	-6904
▁ironing	-6905
▁dong	-6906
istent	-6907
▁holders	-6908
eria	-6909
▁DID	-6910
▁cru	-6911
▁strugg	-6912
unt	-6913
inary	-6914
gen	-6915
▁king	-6916
▁unif	-6917
cr	-6918
▁Met	-6919
▁tor	-6920
▁HIGH	-6921
long	-6922
▁suggestion	-6923
▁unw	-6924
Since	-6925
▁remains	-6926
▁severe	-6927
▁voltage	-6928
▁emerg	-6929
▁brill	-6930
▁3/4	-6931
while	-6932
▁dedicated	-6933
▁locks	-6934
▁Bu	-6935
▁yogurt	-6936
oors	-6937
▁buff	-6938
▁TW	-6939
▁prints	-6940
▁mud	-6941
lim	-6942
▁firmly	-6943
:)	-6944
▁opportun	-6945
appointed	-6946
▁labeled	-6947
▁locking	-6948
▁toys	-6949
▁Needed	-6950
▁System	-6951
▁Kodak	-6952
▁muscles	-6953
cember	-6954
▁deter	-6955
▁semi	-6956
▁bezel	-6957
▁garlic	-6958
amboo	-6959
rodu	-6960
▁smal	-6961
▁chron	-6962
▁flavors	-6963
▁umbrella	-6964
▁loading	-6965
iance	-6966
▁exterior	-6967
AV	-6968
▁artic	-6969
vol	-6970
ulously	-6971
▁extract	-6972
oops	-6973
isco	-6974
▁processing	-6975
▁Sharp	-6976
▁petite	-6977
high	-6978
▁Comcast	-6979
sell	-6980
whel	-6981
▁Elect	-6982
▁activities	-6983
▁returns	-6984
▁tennis	-6985
bay	-6986
▁progress	-6987
▁golf	-6988
▁Flash	-6989
▁frequent	-6990
▁weighs	-6991
▁prob	-6992
▁guard	-6993
▁indust	-6994
▁backlight	-6995
▁symptoms	-6996
▁casing	-6997
▁fallen	-6998
▁Harm	-6999
▁calling	-7000
▁hrs	-7001
cher	-7002
akers	-7003
▁landscape	-7004
▁combined	-7005
▁bean	-7006
▁console	-7007
:*	-7008
puter	-7009
▁crus	-7010
▁spoons	-7011
▁Pioneer	-7012
▁hits	-7013
▁laying	-7014
▁Sad	-7015
▁hey	-7016
▁Sturdy	-7017
▁loosen	-7018
▁expense	-7019
actory	-7020
▁bab	-7021
▁Dur	-7022
▁joy	-7023
-12	-7024
▁Bar	-7025
▁express	-7026
noon	-7027
▁sewn	-7028
▁raised	-7029
▁whit	-7030
Tom	-7031
▁dealing	-7032
▁WR	-7033
aint	-7034
▁skillet	-7035
▁estim	-7036
onestly	-7037
▁meter	-7038
▁lived	-7039
uvi	-7040
▁Po	-7041
live	-7042
▁tho	-7043
▁percent	-7044
▁watts	-7045
▁unbelie	-7046
▁winner	-7047
▁Holds	-7048
▁forced	-7049
▁supplies	-7050
usic	-7051
ounce	-7052
▁FROM	-7053
▁polar	-7054
ek	-7055
▁anticipated	-7056
▁seven	-7057
▁harm	-7058
▁ruined	-7059
▁patch	-7060
cho	-7061
▁Ter	-7062
▁Sty	-7063
▁pregnant	-7064
▁snag	-7065
▁suits	-7066
▁cushioning	-7067
mega	-7068
ext	-7069
▁English	-7070
▁cars	-7071
▁tracks	-7072
▁wi	-7073
▁tower	-7074
▁(5	-7075
▁dressy	-7076
▁acid	-7077
eu	-7078
overy	-7079
▁ray	-7080
/10	-7081
ivalent	-7082
finder	-7083
▁humidity	-7084
also	-7085
▁slice	-7086
▁cand	-7087
▁DL	-7088
arms	-7089
▁Wonderful	-7090
▁darn	-7091
urance	-7092
▁handled	-7093
▁tongue	-7094
ishes	-7095
▁pulls	-7096
▁sauce	-7097
▁member	-7098
▁entry	-7099
mate	-7100
▁hangs	-7101
▁commercial	-7102
▁smallest	-7103
ongs	-7104
▁COMP	-7105
▁canon	-7106
▁folder	-7107
▁raw	-7108
▁Adapter	-7109
▁locked	-7110
▁Been	-7111
▁Needless	-7112
▁shuts	-7113
▁SUP	-7114
▁SL	-7115
▁creates	-7116
▁false	-7117
▁unhappy	-7118
▁tax	-7119
love	-7120
▁loads	-7121
▁$60	-7122
▁Protect	-7123
▁Either	-7124
▁deodorant	-7125
▁Bro	-7126
▁Solid	-7127
▁warned	-7128
▁suede	-7129
▁browsing	-7130
▁TIME	-7131
▁routers	-7132
Qu	-7133
aves	-7134
▁rare	-7135
▁zippered	-7136
uns	-7137
ivo	-7138
▁ps	-7139
▁hotel	-7140
▁library	-7141
▁heft	-7142
▁Ethernet	-7143
▁Stand	-7144
▁treble	-7145
▁caution	-7146
▁justice	-7147
▁athlet	-7148
▁recy	-7149
▁headsets	-7150
▁cow	-7151
▁aest	-7152
▁challenge	-7153
▁medical	-7154
ville	-7155
▁element	-7156
▁sources	-7157
▁dispenser	-7158
▁safely	-7159
▁therap	-7160
around	-7161
▁utility	-7162
▁advanced	-7163
▁listened	-7164
▁250	-7165
▁removal	-7166
ulation	-7167
rier	-7168
▁Tablet	-7169
▁Max	-7170
21	-7171
▁gum	-7172
▁freezing	-7173
▁Vizio	-7174
▁easiest	-7175
▁anyways	-7176
oir	-7177
▁glued	-7178
▁liking	-7179
▁worries	-7180
Ah	-7181
▁touchpad	-7182
▁HAD	-7183
▁assumed	-7184
otch	-7185
▁concerns	-7186
▁afternoon	-7187
▁deb	-7188
▁Her	-7189
▁rubbing	-7190
▁indoors	-7191
aming	-7192
Pl	-7193
▁complet	-7194
▁tree	-7195
▁drawers	-7196
▁unsc	-7197
▁hinge	-7198
▁Balance	-7199
▁BO	-7200
▁BL	-7201
▁None	-7202
▁2)	-7203
▁warmth	-7204
utch	-7205
eez	-7206
icta	-7207
▁boards	-7208
MEND	-7209
▁webcam	-7210
▁Comes	-7211
▁Extremely	-7212
▁horizontal	-7213
▁600	-7214
▁clicking	-7215
▁ster	-7216
▁banana	-7217
▁Take	-7218
▁growing	-7219
▁silly	-7220
ien	-7221
leece	-7222
BL	-7223
▁moderate	-7224
▁slips	-7225
▁uneven	-7226
▁Long	-7227
easy	-7228
▁blisters	-7229
▁Motorola	-7230
rated	-7231
▁topper	-7232
▁tang	-7233
ionally	-7234
▁guarantee	-7235
MC	-7236
▁flour	-7237
▁Monster	-7238
▁cozy	-7239
▁Speed	-7240
▁uniform	-7241
▁scrap	-7242
▁infect	-7243
▁plun	-7244
robe	-7245
▁Chan	-7246
▁fuss	-7247
▁greater	-7248
▁Mo	-7249
▁trial	-7250
▁align	-7251
EE	-7252
chers	-7253
▁ladies	-7254
▁manufactured	-7255
▁tights	-7256
▁amounts	-7257
▁claimed	-7258
ected	-7259
▁nic	-7260
▁corn	-7261
▁suitcase	-7262
ho	-7263
▁hosp	-7264
non	-7265
▁master	-7266
▁Feels	-7267
▁owning	-7268
▁essentially	-7269
ique	-7270
▁sky	-7271
▁thumbs	-7272
▁appreciated	-7273
fess	-7274
AYS	-7275
▁prevents	-7276
▁nail	-7277
▁Costco	-7278
▁sons	-7279
▁bits	-7280
▁popping	-7281
▁sparkle	-7282
▁38	-7283
OMMEND	-7284
▁rely	-7285
▁remark	-7286
▁Besides	-7287
▁Apparently	-7288
idering	-7289
▁repaired	-7290
▁Bad	-7291
nam	-7292
2,	-7293
▁White	-7294
▁anytime	-7295
▁&#82	-7296
▁roller	-7297
▁convinced	-7298
▁Upon	-7299
▁Looking	-7300
▁Support	-7301
▁irritation	-7302
coming	-7303
don	-7304
pm	-7305
▁salad	-7306
▁latch	-7307
▁restaur	-7308
//	-7309
▁MAC	-7310
While	-7311
▁clunky	-7312
▁neutral	-7313
ACT	-7314
market	-7315
▁PUR	-7316
▁Ive	-7317
▁Casio	-7318
Here	-7319
▁hubby	-7320
▁FL	-7321
▁hated	-7322
car	-7323
▁$7	-7324
▁holiday	-7325
▁preference	-7326
▁Cover	-7327
▁yrs	-7328
yal	-7329
▁Op	-7330
▁Nor	-7331
▁French	-7332
▁Ac	-7333
▁wipes	-7334
ggy	-7335
ITE	-7336
itude	-7337
▁NAS	-7338
▁mg	-7339
▁December	-7340
▁ast	-7341
▁PD	-7342
▁Thought	-7343
▁Cr	-7344
▁google	-7345
ork	-7346
▁hitting	-7347
oma	-7348
▁remaining	-7349
▁prin	-7350
▁Inv	-7351
▁production	-7352
phew	-7353
▁palm	-7354
▁Friday	-7355
▁outfits	-7356
cohol	-7357
ribut	-7358
▁events	-7359
-8	-7360
▁chat	-7361
▁Gave	-7362
▁flush	-7363
inine	-7364
▁commented	-7365
zzy	-7366
▁equivalent	-7367
giving	-7368
orelco	-7369
▁48	-7370
▁shakes	-7371
▁digest	-7372
▁inspect	-7373
▁peeling	-7374
▁Gold	-7375
▁$6	-7376
▁bench	-7377
▁incorrect	-7378
arter	-7379
▁clos	-7380
▁sturdier	-7381
▁embar	-7382
shield	-7383
▁neighbor	-7384
▁Creative	-7385
▁becoming	-7386
▁positions	-7387
NT	-7388
▁champ	-7389
▁BD	-7390
▁unne	-7391
Do	-7392
▁dance	-7393
▁tapes	-7394
▁mechanical	-7395
▁Obviously	-7396
▁dentist	-7397
SO	-7398
▁Takes	-7399
▁terribly	-7400
iction	-7401
▁lux	-7402
▁nephew	-7403
ington	-7404
stone	-7405
▁Without	-7406
▁settled	-7407
▁ign	-7408
▁stool	-7409
OUT	-7410
NOT	-7411
▁blocks	-7412
Oh	-7413
▁unders	-7414
▁noises	-7415
▁faded	-7416
▁earring	-7417
▁Mr	-7418
▁effectively	-7419
▁opportunity	-7420
▁damp	-7421
OUND	-7422
▁drill	-7423
▁sponge	-7424
inding	-7425
▁Seriously	-7426
▁dongle	-7427
▁sellers	-7428
mond	-7429
uted	-7430
azy	-7431
▁strain	-7432
▁nano	-7433
▁Onkyo	-7434
spect	-7435
▁LOVES	-7436
▁torn	-7437
▁smelled	-7438
▁roughly	-7439
▁Check	-7440
CONS	-7441
▁offering	-7442
▁Sorry	-7443
▁SanDisk	-7444
▁Simply	-7445
▁knowledge	-7446
▁scen	-7447
▁snack	-7448
▁screwed	-7449
▁yeah	-7450
▁Hand	-7451
▁released	-7452
lope	-7453
ius	-7454
▁fragr	-7455
▁reference	-7456
▁Food	-7457
▁26	-7458
▁navigation	-7459
▁treatment	-7460
umer	-7461
emaker	-7462
INE	-7463
▁layout	-7464
▁listing	-7465
illette	-7466
▁bino	-7467
Buy	-7468
/8	-7469
▁Always	-7470
▁Opt	-7471
pril	-7472
▁loaf	-7473
▁Totally	-7474
rolling	-7475
▁organic	-7476
mits	-7477
▁Norelco	-7478
▁quieter	-7479
ARS	-7480
▁categ	-7481
▁functioning	-7482
lend	-7483
▁July	-7484
▁unf	-7485
▁closely	-7486
▁heated	-7487
▁upgrading	-7488
▁requirements	-7489
▁flashes	-7490
▁creating	-7491
HS	-7492
▁accurately	-7493
▁EAS	-7494
▁happening	-7495
▁GT	-7496
alth	-7497
▁advertising	-7498
wall	-7499
▁Nano	-7500
▁expert	-7501
▁ratings	-7502
▁NY	-7503
▁folding	-7504
▁crafts	-7505
▁RECOMMEND	-7506
▁opted	-7507
▁documentation	-7508
▁nails	-7509
asks	-7510
▁bleed	-7511
▁rolled	-7512
▁target	-7513
cin	-7514
lined	-7515
-6	-7516
▁Mouse	-7517
▁Delivery	-7518
▁Mother	-7519
▁peace	-7520
uth	-7521
▁downloading	-7522
▁bugs	-7523
IOS	-7524
▁everytime	-7525
▁scratching	-7526
▁determ	-7527
ref	-7528
▁equally	-7529
▁$150	-7530
▁matters	-7531
▁permanent	-7532
▁PRICE	-7533
-$	-7534
▁discover	-7535
▁Bag	-7536
▁feather	-7537
▁fray	-7538
▁resolved	-7539
▁reads	-7540
▁hats	-7541
▁rod	-7542
▁queen	-7543
▁sunlight	-7544
▁facing	-7545
▁thermal	-7546
▁recovery	-7547
rid	-7548
ankly	-7549
▁unt	-7550
▁tote	-7551
▁201	-7552
▁nap	-7553
▁exposure	-7554
oday	-7555
drive	-7556
▁conversation	-7557
▁touching	-7558
▁fingerprints	-7559
▁God	-7560
▁wrinkles	-7561
▁ratio	-7562
ESOME	-7563
▁offic	-7564
▁1)	-7565
▁Otter	-7566
eacute	-7567
▁potatoes	-7568
fall	-7569
▁vacuuming	-7570
AME	-7571
ilton	-7572
▁Phot	-7573
ARE	-7574
▁harsh	-7575
cloth	-7576
▁circul	-7577
▁versus	-7578
▁Hi	-7579
▁9.5	-7580
driver	-7581
IDE	-7582
DVD	-7583
then	-7584
▁slept	-7585
▁Installation	-7586
▁gard	-7587
OST	-7588
▁insole	-7589
ifying	-7590
▁starter	-7591
▁Dec	-7592
amaha	-7593
▁2014	-7594
▁bothered	-7595
▁fills	-7596
rip	-7597
▁destroy	-7598
▁beer	-7599
▁cran	-7600
▁WHAT	-7601
▁toward	-7602
▁names	-7603
▁train	-7604
▁refrigerator	-7605
▁Fuj	-7606
▁FE	-7607
icky	-7608
▁sd	-7609
uts	-7610
▁flats	-7611
Then	-7612
▁6.5	-7613
▁comprom	-7614
▁Person	-7615
▁bug	-7616
lio	-7617
▁guessing	-7618
▁deeper	-7619
▁breaker	-7620
▁CL	-7621
▁experiences	-7622
▁overwhel	-7623
▁fruits	-7624
30;	-7625
▁wished	-7626
▁Oct	-7627
▁circuit	-7628
▁vibration	-7629
▁WELL	-7630
▁7,	-7631
DER	-7632
▁tack	-7633
▁crank	-7634
▁indicate	-7635
MS	-7636
▁wip	-7637
vo	-7638
▁records	-7639
▁noticeably	-7640
perture	-7641
▁aux	-7642
raft	-7643
▁formula	-7644
▁Usually	-7645
▁January	-7646
because	-7647
▁carpets	-7648
▁headband	-7649
▁dissapointed	-7650
lder	-7651
lor	-7652
atisfied	-7653
▁ounces	-7654
▁unplugged	-7655
amps	-7656
▁lug	-7657
▁gently	-7658
-7	-7659
▁randomly	-7660
▁rapid	-7661
▁fleece	-7662
othing	-7663
▁Free	-7664
fessional	-7665
▁LE	-7666
▁services	-7667
▁hospital	-7668
▁rigid	-7669
▁studs	-7670
▁extras	-7671
▁irritating	-7672
comp	-7673
▁amb	-7674
ration	-7675
gia	-7676
Love	-7677
▁TOO	-7678
ita	-7679
▁errors	-7680
▁tempor	-7681
▁NOW	-7682
▁complex	-7683
▁eliminate	-7684
.6	-7685
▁emergency	-7686
cling	-7687
▁feminine	-7688
▁Ty	-7689
▁Ge	-7690
▁mood	-7691
kn	-7692
ulu	-7693
▁Series	-7694
▁lotion	-7695
▁Mach	-7696
▁cos	-7697
▁fif	-7698
▁leaked	-7699
▁reservoir	-7700
▁NEED	-7701
Sec	-7702
Yes	-7703
▁lacks	-7704
gus	-7705
▁cave	-7706
THING	-7707
hent	-7708
▁statement	-7709
uster	-7710
24	-7711
▁1-2	-7712
▁team	-7713
▁Palm	-7714
▁PO	-7715
▁Li	-7716
miss	-7717
▁isnt	-7718
erves	-7719
3)	-7720
REE	-7721
▁pricing	-7722
cake	-7723
▁4-5	-7724
▁distract	-7725
cision	-7726
▁labels	-7727
▁alright	-7728
▁camp	-7729
▁crad	-7730
▁slices	-7731
▁alcohol	-7732
▁appliances	-7733
small	-7734
▁bucket	-7735
▁schedule	-7736
enger	-7737
▁diamonds	-7738
UE	-7739
▁parties	-7740
thus	-7741
▁lifting	-7742
usive	-7743
▁2000	-7744
cope	-7745
▁Skype	-7746
tenance	-7747
▁Gener	-7748
orsair	-7749
▁blurry	-7750
▁La	-7751
FF	-7752
▁substit	-7753
▁microfiber	-7754
▁unnecess	-7755
ansa	-7756
▁Flor	-7757
.......	-7758
▁documents	-7759
▁Anker	-7760
▁organizer	-7761
▁muy	-7762
▁DIS	-7763
▁HOW	-7764
▁fade	-7765
▁edit	-7766
▁AR	-7767
▁maneu	-7768
▁pause	-7769
▁Oz	-7770
ronics	-7771
Its	-7772
▁management	-7773
rain	-7774
▁depends	-7775
▁June	-7776
▁rotating	-7777
▁coax	-7778
▁wonders	-7779
▁PA	-7780
▁slicer	-7781
▁standards	-7782
▁portability	-7783
hentic	-7784
▁medicine	-7785
▁chef	-7786
▁vest	-7787
amin	-7788
▁Sub	-7789
▁Nike	-7790
▁refer	-7791
▁Den	-7792
▁AWESOME	-7793
▁struct	-7794
▁compatibility	-7795
▁concent	-7796
▁flying	-7797
▁navy	-7798
ists	-7799
asters	-7800
▁rugs	-7801
▁invent	-7802
▁nursing	-7803
▁inferior	-7804
▁Medium	-7805
▁Returned	-7806
.00.	-7807
▁jo	-7808
▁prescription	-7809
▁Gillette	-7810
▁attaches	-7811
edia	-7812
▁whistles	-7813
▁65	-7814
iko	-7815
▁requested	-7816
▁Almost	-7817
▁bells	-7818
▁PCI	-7819
▁Basically	-7820
▁pier	-7821
would	-7822
▁bolts	-7823
▁determine	-7824
cycle	-7825
former	-7826
▁incom	-7827
▁directed	-7828
▁beef	-7829
expected	-7830
urch	-7831
large	-7832
valu	-7833
▁Found	-7834
itar	-7835
iforn	-7836
inking	-7837
▁Start	-7838
▁reduction	-7839
▁critical	-7840
▁samsung	-7841
▁reve	-7842
▁blew	-7843
▁gem	-7844
▁Hel	-7845
ties	-7846
▁rounded	-7847
▁apparent	-7848
▁SA	-7849
▁Kit	-7850
▁smile	-7851
HING	-7852
▁dies	-7853
▁Ken	-7854
too	-7855
forward	-7856
itched	-7857
▁wasnt	-7858
▁scuff	-7859
fa	-7860
▁athletic	-7861
▁anx	-7862
▁Guess	-7863
iously	-7864
eared	-7865
ountered	-7866
▁Based	-7867
▁planned	-7868
ode	-7869
▁Honestly	-7870
▁sou	-7871
angle	-7872
900	-7873
▁SU	-7874
ongevity	-7875
▁burnt	-7876
ifornia	-7877
▁23	-7878
▁temperatures	-7879
▁refused	-7880
▁Arm	-7881
▁locations	-7882
▁pleasing	-7883
▁swap	-7884
▁estimated	-7885
▁pun	-7886
▁spaces	-7887
▁mountain	-7888
▁headaches	-7889
▁reality	-7890
▁Memory	-7891
▁encountered	-7892
rex	-7893
cribe	-7894
▁prone	-7895
yr	-7896
▁wasting	-7897
▁traction	-7898
▁belie	-7899
azz	-7900
▁glossy	-7901
▁unusual	-7902
▁clamp	-7903
▁FIT	-7904
uggle	-7905
▁attempts	-7906
▁TomTom	-7907
▁3,	-7908
rets	-7909
▁layers	-7910
lipsch	-7911
▁baggy	-7912
▁cloths	-7913
▁san	-7914
▁Okay	-7915
formance	-7916
▁blast	-7917
▁Invicta	-7918
alk	-7919
▁carbon	-7920
▁windshield	-7921
▁Timex	-7922
▁Bottom	-7923
perate	-7924
▁Sonic	-7925
ABLE	-7926
▁slipper	-7927
▁smartphone	-7928
▁Mult	-7929
▁solar	-7930
▁walks	-7931
▁Poor	-7932
Per	-7933
▁wound	-7934
▁$80	-7935
▁LOL	-7936
▁EVER	-7937
▁largest	-7938
▁bone	-7939
▁reply	-7940
▁tasks	-7941
▁pred	-7942
▁waffles	-7943
▁shed	-7944
▁March	-7945
▁Therefore	-7946
▁character	-7947
including	-7948
▁mint	-7949
▁carries	-7950
va	-7951
▁surv	-7952
-30	-7953
▁Whe	-7954
▁Hy	-7955
▁NEW	-7956
▁jer	-7957
64	-7958
▁utensils	-7959
1,	-7960
▁Silver	-7961
▁cracks	-7962
▁polish	-7963
▁temps	-7964
Even	-7965
creen	-7966
▁represent	-7967
dis	-7968
sk	-7969
intage	-7970
▁informed	-7971
▁mids	-7972
▁hangers	-7973
▁canvas	-7974
********	-7975
▁interfere	-7976
▁Harmony	-7977
▁warn	-7978
AG	-7979
▁confused	-7980
▁resistance	-7981
▁rect	-7982
▁upstairs	-7983
etic	-7984
▁retailer	-7985
pting	-7986
▁spills	-7987
▁jobs	-7988
▁AMAZING	-7989
ram	-7990
▁soda	-7991
▁airpl	-7992
▁sorts	-7993
▁scales	-7994
pot	-7995
▁reorder	-7996
▁Classic	-7997
ww	-7998
▁Init	-7999
-15	-8000
grade	-8001
▁robust	-8002
▁slipped	-8003
▁blows	-8004
▁99	-8005
▁UV	-8006
▁stub	-8007
▁proven	-8008
▁packages	-8009
▁longevity	-8010
▁steep	-8011
▁washable	-8012
ulated	-8013
emade	-8014
▁calcul	-8015
▁patience	-8016
▁ment	-8017
▁Fantastic	-8018
▁wild	-8019
▁$8	-8020
ORT	-8021
▁Aug	-8022
▁Setup	-8023
▁favorites	-8024
▁copper	-8025
▁lazy	-8026
▁laser	-8027
ranted	-8028
▁shaft	-8029
working	-8030
▁defe	-8031
▁tremend	-8032
▁SC	-8033
18	-8034
▁considerably	-8035
▁flashlight	-8036
somet	-8037
▁solidly	-8038
▁naturally	-8039
▁bundle	-8040
▁April	-8041
▁accompl	-8042
▁belts	-8043
▁hist	-8044
▁Went	-8045
▁spac	-8046
▁skirts	-8047
▁babies	-8048
▁Press	-8049
▁explained	-8050
▁bank	-8051
▁viewfinder	-8052
AK	-8053
tte	-8054
▁Ti	-8055
▁grate	-8056
▁reviewing	-8057
▁Origin	-8058
▁attempted	-8059
▁screwdriver	-8060
▁cabinets	-8061
▁pens	-8062
▁Top	-8063
▁deciding	-8064
angu	-8065
Anyway	-8066
▁involved	-8067
▁Gen	-8068
▁tasted	-8069
▁Florida	-8070
▁painted	-8071
tec	-8072
▁jog	-8073
▁supplier	-8074
aled	-8075
sl	-8076
▁chop	-8077
▁delete	-8078
velope	-8079
▁1/3	-8080
bra	-8081
ZE	-8082
▁dislike	-8083
://	-8084
nger	-8085
▁Di	-8086
▁Additionally	-8087
Ed	-8088
▁synt	-8089
▁vacuums	-8090
▁JVC	-8091
YI	-8092
▁bridge	-8093
nch	-8094
▁splitter	-8095
▁hurts	-8096
▁orth	-8097
▁soak	-8098
▁trend	-8099
cups	-8100
based	-8101
ttp	-8102
▁intense	-8103
▁ful	-8104
▁Bis	-8105
bly	-8106
OUGHT	-8107
▁AB	-8108
ohn	-8109
PE	-8110
mitt	-8111
unate	-8112
▁shaves	-8113
▁maneuver	-8114
▁Bir	-8115
PL	-8116
',	-8117
▁Eas	-8118
▁pulp	-8119
clean	-8120
▁integrated	-8121
▁runner	-8122
▁Life	-8123
▁reputation	-8124
▁WORKS	-8125
ico	-8126
▁lie	-8127
▁Yamaha	-8128
crete	-8129
▁fluid	-8130
▁pixels	-8131
▁110	-8132
▁aperture	-8133
▁OFF	-8134
▁overse	-8135
IO	-8136
▁Office	-8137
▁silk	-8138
▁rose	-8139
keep	-8140
▁bending	-8141
iP	-8142
▁brilliant	-8143
▁groove	-8144
▁underwater	-8145
IND	-8146
rice	-8147
▁god	-8148
▁objects	-8149
▁gadgets	-8150
Inch	-8151
Vo	-8152
▁Gar	-8153
▁fuzzy	-8154
45	-8155
▁afterwards	-8156
▁fig	-8157
▁4.5	-8158
▁grown	-8159
▁twin	-8160
▁maintenance	-8161
▁nowhere	-8162
▁unpack	-8163
▁Shipped	-8164
clo	-8165
ician	-8166
▁carr	-8167
▁flower	-8168
▁gun	-8169
▁lic	-8170
▁mit	-8171
▁china	-8172
OO	-8173
▁bay	-8174
soci	-8175
▁blame	-8176
▁folders	-8177
acon	-8178
▁talked	-8179
ormally	-8180
▁shortly	-8181
sto	-8182
AB	-8183
▁sheer	-8184
ograph	-8185
enty	-8186
ensity	-8187
▁mad	-8188
▁Polar	-8189
▁alert	-8190
parent	-8191
▁Sn	-8192
);	-8193
▁continuous	-8194
imm	-8195
▁itchy	-8196
▁cleaners	-8197
ethe	-8198
▁Might	-8199
▁phen	-8200
▁reaction	-8201
▁homemade	-8202
▁reb	-8203
Once	-8204
itches	-8205
▁crow	-8206
ige	-8207
▁apples	-8208
arse	-8209
▁younger	-8210
▁MAN	-8211
▁lub	-8212
▁burns	-8213
▁capsule	-8214
▁contacts	-8215
▁America	-8216
▁proud	-8217
▁tissue	-8218
▁rim	-8219
▁pixel	-8220
▁xbox	-8221
▁majority	-8222
&#8230;	-8223
Sound	-8224
osition	-8225
▁PURCH	-8226
▁complements	-8227
▁underst	-8228
▁holidays	-8229
▁smoother	-8230
▁Beach	-8231
itors	-8232
aspberry	-8233
Tr	-8234
▁8,	-8235
▁Zen	-8236
ALITY	-8237
▁crock	-8238
PT	-8239
▁weights	-8240
Black	-8241
▁authentic	-8242
▁watt	-8243
▁gps	-8244
eller	-8245
▁smelling	-8246
ulting	-8247
▁baked	-8248
amazon	-8249
rif	-8250
▁melted	-8251
▁playlist	-8252
▁ive	-8253
▁associ	-8254
▁demand	-8255
hood	-8256
▁regist	-8257
▁cher	-8258
▁consistency	-8259
essed	-8260
▁refunded	-8261
▁breathe	-8262
▁responded	-8263
▁grain	-8264
▁definite	-8265
▁differently	-8266
outer	-8267
▁surfing	-8268
▁Cy	-8269
▁organize	-8270
EVER	-8271
▁scrolling	-8272
▁troubleshoot	-8273
▁Sa	-8274
Will	-8275
lers	-8276
▁ours	-8277
usable	-8278
▁instance	-8279
▁EXCE	-8280
▁MUST	-8281
▁fiance	-8282
ceptable	-8283
▁struggle	-8284
▁BB	-8285
▁lever	-8286
▁Ham	-8287
▁giant	-8288
▁Leather	-8289
▁ward	-8290
▁Display	-8291
inct	-8292
▁bullet	-8293
leg	-8294
▁goodness	-8295
▁Part	-8296
▁theme	-8297
▁fas	-8298
77	-8299
▁Dual	-8300
▁recip	-8301
installed	-8302
▁everybody	-8303
backs	-8304
▁ridiculously	-8305
INK	-8306
culars	-8307
Rec	-8308
nas	-8309
▁sharpness	-8310
▁cad	-8311
ieces	-8312
▁visual	-8313
▁dram	-8314
▁California	-8315
▁envelope	-8316
▁VCR	-8317
▁focusing	-8318
▁assuming	-8319
▁meg	-8320
▁sciss	-8321
irl	-8322
▁Anyone	-8323
Mart	-8324
▁stood	-8325
bby	-8326
▁diaper	-8327
▁suited	-8328
▁IPad	-8329
▁neatly	-8330
▁satisfaction	-8331
pass	-8332
▁Installed	-8333
▁powd	-8334
.3)	-8335
zer	-8336
ART	-8337
Unfortunately	-8338
▁Update	-8339
▁successfully	-8340
▁WHEN	-8341
▁fashionable	-8342
▁determin	-8343
mitted	-8344
shirts	-8345
▁priv	-8346
born	-8347
▁overseas	-8348
▁smoothie	-8349
▁tables	-8350
▁dissol	-8351
▁convent	-8352
▁miner	-8353
achable	-8354
▁nutr	-8355
▁Beats	-8356
▁Live	-8357
▁Wii	-8358
▁EN	-8359
▁Lens	-8360
▁necessarily	-8361
del	-8362
ivers	-8363
▁achieve	-8364
ptions	-8365
▁reached	-8366
▁$500	-8367
▁See	-8368
ummer	-8369
▁websites	-8370
▁SON	-8371
▁thighs	-8372
▁wherever	-8373
▁elements	-8374
ainless	-8375
▁Imp	-8376
▁intact	-8377
▁Jack	-8378
▁status	-8379
▁album	-8380
▁encoura	-8381
reed	-8382
through	-8383
▁circum	-8384
together	-8385
▁hint	-8386
▁vanilla	-8387
▁raise	-8388
▁unexpected	-8389
▁concrete	-8390
ila	-8391
▁cit	-8392
llar	-8393
▁dangerous	-8394
▁Cur	-8395
▁Western	-8396
▁spinning	-8397
who	-8398
▁acqu	-8399
▁Roomba	-8400
▁collap	-8401
▁frequencies	-8402
▁savings	-8403
▁intermitt	-8404
▁faith	-8405
▁fragrance	-8406
▁lb	-8407
host	-8408
▁chill	-8409
▁immediate	-8410
▁advised	-8411
rite	-8412
▁regrets	-8413
▁remed	-8414
):	-8415
▁til	-8416
▁spatula	-8417
5,	-8418
ste	-8419
▁proved	-8420
▁promise	-8421
▁brackets	-8422
▁touchscreen	-8423
▁ink	-8424
▁reports	-8425
▁gross	-8426
▁measurement	-8427
reet	-8428
50.	-8429
▁craftsmanship	-8430
▁differences	-8431
commend	-8432
▁sne	-8433
ADE	-8434
▁backwards	-8435
▁messed	-8436
ffered	-8437
hard	-8438
▁stating	-8439
▁Compared	-8440
▁laid	-8441
▁restric	-8442
anes	-8443
▁Remote	-8444
ober	-8445
▁cradle	-8446
▁requiring	-8447
▁expectation	-8448
▁Fun	-8449
▁thro	-8450
▁His	-8451
ema	-8452
She	-8453
ros	-8454
▁scratchy	-8455
▁inconvenience	-8456
thusi	-8457
▁Where	-8458
▁Mond	-8459
▁slo	-8460
▁Sl	-8461
▁quantity	-8462
▁cents	-8463
▁exha	-8464
▁cigare	-8465
▁Haw	-8466
▁bamboo	-8467
illips	-8468
▁earbud	-8469
▁desire	-8470
▁46	-8471
PROS	-8472
▁West	-8473
▁RF	-8474
▁tension	-8475
▁Pent	-8476
▁Gig	-8477
▁Sansa	-8478
▁cane	-8479
▁hanger	-8480
▁bracelets	-8481
▁Sun	-8482
▁fourth	-8483
▁papers	-8484
▁cycles	-8485
▁depress	-8486
amed	-8487
Ke	-8488
▁Cook	-8489
▁grips	-8490
▁tee	-8491
▁graphic	-8492
type	-8493
▁DI	-8494
▁Exce	-8495
▁inconvenient	-8496
▁Considering	-8497
▁Sadly	-8498
▁definition	-8499
▁stem	-8500
▁View	-8501
▁adults	-8502
▁coffeemaker	-8503
▁enjoys	-8504
▁coup	-8505
▁forums	-8506
▁conclusion	-8507
▁Ve	-8508
▁Three	-8509
▁paj	-8510
▁AMD	-8511
dated	-8512
▁unnecessary	-8513
style	-8514
▁resolve	-8515
▁hence	-8516
▁heavily	-8517
Works	-8518
▁lover	-8519
▁bene	-8520
▁YE	-8521
cium	-8522
▁formal	-8523
licity	-8524
mill	-8525
▁buen	-8526
▁havent	-8527
▁netflix	-8528
▁closes	-8529
zzle	-8530
▁styling	-8531
▁Square	-8532
▁twenty	-8533
▁church	-8534
▁presentation	-8535
▁wel	-8536
Aid	-8537
Second	-8538
Hope	-8539
lly	-8540
▁quarter	-8541
▁hungry	-8542
▁Tw	-8543
▁goal	-8544
idently	-8545
▁vine	-8546
!!!!!!	-8547
▁handheld	-8548
urs	-8549
www	-8550
8,	-8551
▁Auto	-8552
▁knocked	-8553
▁sometime	-8554
▁dries	-8555
▁Klipsch	-8556
▁stro	-8557
▁slid	-8558
▁arrow	-8559
▁stink	-8560
ormal	-8561
▁Work	-8562
▁grinds	-8563
olor	-8564
▁secured	-8565
▁1-	-8566
product	-8567
▁dressed	-8568
▁Nuvi	-8569
▁tune	-8570
▁creative	-8571
month	-8572
everal	-8573
▁wedge	-8574
acular	-8575
▁negatives	-8576
▁honey	-8577
9,	-8578
▁ye	-8579
▁shif	-8580
▁unst	-8581
▁Spr	-8582
▁attaching	-8583
▁french	-8584
▁scared	-8585
orer	-8586
▁lightly	-8587
▁CF	-8588
▁joints	-8589
▁Granted	-8590
brand	-8591
▁QUALITY	-8592
▁HIGHLY	-8593
▁polished	-8594
ONEY	-8595
plic	-8596
▁Little	-8597
▁shred	-8598
acceptable	-8599
▁refres	-8600
▁ES	-8601
watch	-8602
▁Breville	-8603
▁hon	-8604
▁satisfactory	-8605
▁elbow	-8606
▁countertop	-8607
▁damn	-8608
▁whose	-8609
ague	-8610
▁Given	-8611
pu	-8612
▁generous	-8613
rene	-8614
▁instrum	-8615
▁competition	-8616
▁wo	-8617
▁accent	-8618
▁SS	-8619
owered	-8620
▁motorcycle	-8621
▁crown	-8622
▁gums	-8623
acher	-8624
▁laugh	-8625
▁unscrew	-8626
umm	-8627
nes	-8628
▁couldnt	-8629
▁thermos	-8630
▁hoodie	-8631
▁icon	-8632
▁1,	-8633
▁exclus	-8634
▁shuffle	-8635
ovember	-8636
▁Av	-8637
last	-8638
▁particles	-8639
▁toothp	-8640
iffer	-8641
▁flick	-8642
these	-8643
▁recordings	-8644
PM	-8645
pir	-8646
ordered	-8647
▁incons	-8648
▁death	-8649
▁exhaust	-8650
▁Tivo	-8651
video	-8652
▁inde	-8653
▁Less	-8654
▁Store	-8655
▁stage	-8656
burn	-8657
tech	-8658
▁vivid	-8659
gas	-8660
▁Mark	-8661
cheap	-8662
▁keeper	-8663
▁separated	-8664
▁LOVED	-8665
XO	-8666
▁Seiko	-8667
▁binoculars	-8668
▁dining	-8669
▁enthusi	-8670
▁reminds	-8671
▁DR	-8672
▁prett	-8673
▁lather	-8674
▁vintage	-8675
▁sac	-8676
tw	-8677
▁author	-8678
▁Har	-8679
▁surely	-8680
hum	-8681
▁locate	-8682
ICK	-8683
▁jacks	-8684
▁Omega	-8685
▁human	-8686
▁measures	-8687
▁cleanup	-8688
▁sadly	-8689
sey	-8690
▁180	-8691
▁tubes	-8692
oooo	-8693
▁Music	-8694
ilter	-8695
)...	-8696
▁posts	-8697
unks	-8698
▁lil	-8699
▁recipient	-8700
stop	-8701
▁wouldnt	-8702
▁liquids	-8703
oust	-8704
▁Down	-8705
Box	-8706
▁hurting	-8707
▁ORDER	-8708
!"	-8709
allic	-8710
▁EQ	-8711
▁miracle	-8712
dro	-8713
▁Under	-8714
▁mixes	-8715
▁waking	-8716
TR	-8717
▁sex	-8718
▁trave	-8719
▁annoyance	-8720
station	-8721
▁loses	-8722
▁performing	-8723
cont	-8724
▁expired	-8725
▁washings	-8726
▁react	-8727
▁clicks	-8728
▁Enjoy	-8729
▁MONEY	-8730
ait	-8731
▁TB	-8732
acement	-8733
GAIN	-8734
▁q	-8735
▁cakes	-8736
▁turnt	-8737
change	-8738
▁handbag	-8739
▁overclock	-8740
▁85	-8741
▁HAS	-8742
▁antennas	-8743
▁unbelievable	-8744
urther	-8745
▁compens	-8746
▁Monday	-8747
Finally	-8748
OUS	-8749
▁allergic	-8750
▁footprint	-8751
▁BIOS	-8752
▁magaz	-8753
▁tossed	-8754
boy	-8755
connect	-8756
Like	-8757
▁strainer	-8758
▁happily	-8759
▁crust	-8760
▁partially	-8761
▁olive	-8762
idel	-8763
▁termin	-8764
umble	-8765
▁lightning	-8766
▁sofa	-8767
▁bristles	-8768
▁$400	-8769
4,	-8770
▁Inc	-8771
▁tendency	-8772
▁stretching	-8773
▁Bass	-8774
▁Such	-8775
▁silky	-8776
▁truth	-8777
▁brushing	-8778
▁RMA	-8779
▁2.4	-8780
▁Order	-8781
▁fluffy	-8782
▁introdu	-8783
▁ergonomic	-8784
▁garment	-8785
▁clearer	-8786
erized	-8787
▁realistic	-8788
App	-8789
▁justify	-8790
▁End	-8791
▁Must	-8792
▁Center	-8793
▁military	-8794
Nice	-8795
▁blends	-8796
▁elev	-8797
cd	-8798
▁shallow	-8799
▁Vac	-8800
▁travels	-8801
▁choosing	-8802
▁lying	-8803
▁Direct	-8804
▁transaction	-8805
▁grams	-8806
asket	-8807
▁tact	-8808
▁dev	-8809
▁projects	-8810
etary	-8811
▁zone	-8812
▁postage	-8813
EX	-8814
▁allergy	-8815
.1.	-8816
lement	-8817
▁blowing	-8818
▁Sam	-8819
sequ	-8820
▁brain	-8821
bb	-8822
hydr	-8823
▁scissors	-8824
▁August	-8825
▁brushed	-8826
▁cares	-8827
▁gradu	-8828
▁whereas	-8829
▁critic	-8830
▁cushions	-8831
aneously	-8832
▁transferring	-8833
")	-8834
friendly	-8835
asant	-8836
▁Plenty	-8837
▁breathable	-8838
buy	-8839
▁caffe	-8840
▁Today	-8841
▁recover	-8842
▁rein	-8843
▁massive	-8844
▁stocking	-8845
▁95	-8846
▁tags	-8847
▁Material	-8848
▁Tur	-8849
▁experiencing	-8850
▁closest	-8851
▁stamp	-8852
SS	-8853
▁pregnancy	-8854
atory	-8855
▁rash	-8856
▁exercising	-8857
▁category	-8858
▁synthetic	-8859
mount	-8860
▁sequ	-8861
▁repro	-8862
▁tomorrow	-8863
▁medication	-8864
▁amate	-8865
VEN	-8866
▁wardrobe	-8867
▁Sept	-8868
▁marketing	-8869
!),	-8870
atteries	-8871
does	-8872
▁aesthet	-8873
orted	-8874
▁Recently	-8875
▁simplicity	-8876
▁pets	-8877
▁obtain	-8878
▁supposedly	-8879
icted	-8880
▁EASY	-8881
umbled	-8882
▁render	-8883
▁Magic	-8884
▁Initially	-8885
vived	-8886
▁CHE	-8887
mare	-8888
▁duvet	-8889
ubber	-8890
cap	-8891
perfect	-8892
▁During	-8893
▁WAT	-8894
▁enhance	-8895
▁tasty	-8896
▁Complete	-8897
▁moistur	-8898
▁Face	-8899
▁Vitamin	-8900
▁consideration	-8901
▁sections	-8902
▁spices	-8903
▁nonstick	-8904
▁ec	-8905
▁coated	-8906
▁frying	-8907
▁Rel	-8908
▁Vol	-8909
▁10.1	-8910
▁sterling	-8911
▁boun	-8912
gie	-8913
▁electricity	-8914
etween	-8915
▁crash	-8916
▁pile	-8917
▁pairing	-8918
▁improvements	-8919
black	-8920
lb	-8921
▁figuring	-8922
▁199	-8923
▁cert	-8924
▁ample	-8925
ours	-8926
▁III	-8927
▁spoke	-8928
▁blind	-8929
▁earphone	-8930
▁November	-8931
Although	-8932
▁tied	-8933
▁retro	-8934
▁Bissell	-8935
Che	-8936
ris	-8937
▁160	-8938
OSE	-8939
▁Personally	-8940
▁TWO	-8941
▁langu	-8942
▁Slim	-8943
ilities	-8944
craft	-8945
wl	-8946
▁hunting	-8947
▁mel	-8948
▁insulated	-8949
▁Yeah	-8950
▁hooking	-8951
▁gamer	-8952
▁SMALL	-8953
oice	-8954
▁tox	-8955
▁official	-8956
▁borrow	-8957
▁panels	-8958
▁ultimately	-8959
▁thousands	-8960
▁printing	-8961
▁cassette	-8962
▁formats	-8963
teen	-8964
▁mall	-8965
pur	-8966
▁Real	-8967
▁fond	-8968
▁LONG	-8969
▁hug	-8970
▁Ha	-8971
▁stickers	-8972
▁Going	-8973
▁phenomen	-8974
▁dang	-8975
▁spectacular	-8976
▁Bul	-8977
▁fav	-8978
▁Non	-8979
-9	-8980
▁squeez	-8981
▁clums	-8982
▁vinegar	-8983
...)	-8984
▁Lum	-8985
▁juicing	-8986
▁minus	-8987
kins	-8988
▁hurry	-8989
________	-8990
▁para	-8991
▁sweaty	-8992
pic	-8993
▁study	-8994
▁cancer	-8995
▁enjoyable	-8996
▁shat	-8997
▁dosage	-8998
▁repeatedly	-8999
▁Seller	-9000
▁wrapping	-9001
except	-9002
▁drawing	-9003
▁Something	-9004
harm	-9005
Every	-9006
.25	-9007
cker	-9008
▁proced	-9009
▁appealing	-9010
▁fatig	-9011
▁injury	-9012
▁serial	-9013
finity	-9014
▁yoga	-9015
llan	-9016
▁vari	-9017
▁Full	-9018
Set	-9019
suit	-9020
UM	-9021
▁restaurant	-9022
▁prepar	-9023
▁sandwich	-9024
▁Sport	-9025
▁teles	-9026
▁weekly	-9027
▁economical	-9028
▁slicing	-9029
▁PSU	-9030
▁Raz	-9031
▁Surface	-9032
▁neighbors	-9033
▁polyester	-9034
▁Plan	-9035
▁airplane	-9036
▁perfection	-9037
▁cough	-9038
hens	-9039
▁Heavy	-9040
▁suffered	-9041
▁slightest	-9042
▁tucked	-9043
▁cin	-9044
▁leads	-9045
THE	-9046
▁Iron	-9047
▁Are	-9048
▁gallon	-9049
▁disappear	-9050
Cle	-9051
▁quilt	-9052
▁Shoes	-9053
▁substitute	-9054
▁spice	-9055
icked	-9056
▁Tim	-9057
▁designer	-9058
etheless	-9059
▁diab	-9060
10.	-9061
ires	-9062
▁resulting	-9063
Spe	-9064
lls	-9065
▁outs	-9066
▁enabled	-9067
▁lubric	-9068
▁swing	-9069
▁Shark	-9070
bro	-9071
▁anch	-9072
▁plush	-9073
pending	-9074
▁cancel	-9075
every	-9076
mooth	-9077
loaded	-9078
▁imagined	-9079
▁Thus	-9080
iotics	-9081
▁provider	-9082
▁Problem	-9083
▁loops	-9084
▁Disney	-9085
photo	-9086
▁5,	-9087
▁Rebel	-9088
ocus	-9089
▁flowers	-9090
etc	-9091
▁AGAIN	-9092
26	-9093
▁reverse	-9094
IA	-9095
▁Cob	-9096
▁sooo	-9097
▁openings	-9098
▁exceptionally	-9099
▁TiVo	-9100
▁ge	-9101
▁UPDATE	-9102
''	-9103
lar	-9104
raw	-9105
▁BET	-9106
▁RAID	-9107
▁Lightweight	-9108
▁failing	-9109
ocket	-9110
▁4,	-9111
▁racks	-9112
▁enclosed	-9113
▁beg	-9114
format	-9115
▁shades	-9116
▁thoughts	-9117
▁history	-9118
▁Cru	-9119
▁Looked	-9120
▁?	-9121
▁bacon	-9122
anna	-9123
▁rubbed	-9124
▁October	-9125
▁controlled	-9126
▁intention	-9127
▁rise	-9128
▁animal	-9129
anium	-9130
▁curved	-9131
mission	-9132
▁37	-9133
▁52	-9134
;=	-9135
▁gran	-9136
avender	-9137
▁PLE	-9138
▁Until	-9139
▁KN	-9140
▁mig	-9141
▁monster	-9142
II	-9143
▁nightmare	-9144
bris	-9145
▁Fab	-9146
!.	-9147
amas	-9148
▁malfunction	-9149
▁sparkly	-9150
▁contained	-9151
ighed	-9152
conut	-9153
▁ambient	-9154
▁bod	-9155
▁exchanged	-9156
▁contacting	-9157
▁withstand	-9158
child	-9159
▁limitations	-9160
▁clients	-9161
▁Je	-9162
▁grainy	-9163
/7	-9164
▁caffeine	-9165
▁Ni	-9166
▁(6	-9167
▁garden	-9168
▁armband	-9169
cale	-9170
▁Att	-9171
▁transl	-9172
▁Disappointed	-9173
▁speaking	-9174
cu	-9175
prietary	-9176
▁$70	-9177
inc	-9178
▁SW	-9179
▁unacceptable	-9180
▁tore	-9181
▁abs	-9182
)!	-9183
▁unple	-9184
-300	-9185
▁Fuji	-9186
▁cere	-9187
▁physically	-9188
▁club	-9189
▁balm	-9190
store	-9191
▁indicates	-9192
▁suggestions	-9193
ago	-9194
▁outputs	-9195
▁cancelling	-9196
ament	-9197
▁STILL	-9198
▁quir	-9199
agellan	-9200
▁circle	-9201
▁pine	-9202
did	-9203
Tech	-9204
▁SB	-9205
heat	-9206
▁cupcakes	-9207
▁hesitation	-9208
▁Waste	-9209
▁sneaker	-9210
▁Beware	-9211
▁Compact	-9212
▁Flip	-9213
apix	-9214
real	-9215
oprene	-9216
▁decorative	-9217
otic	-9218
▁worrying	-9219
▁walker	-9220
▁Amp	-9221
▁Corsair	-9222
▁harness	-9223
▁cork	-9224
▁passes	-9225
▁turntable	-9226
▁Image	-9227
▁horse	-9228
▁90%	-9229
▁cracking	-9230
▁briefs	-9231
▁Pat	-9232
▁10.5	-9233
Go	-9234
▁MX	-9235
▁backups	-9236
gust	-9237
▁hers	-9238
udd	-9239
▁Paper	-9240
▁gotta	-9241
▁triple	-9242
▁cartridge	-9243
Does	-9244
▁advance	-9245
▁batches	-9246
▁activate	-9247
▁individually	-9248
Dis	-9249
omb	-9250
▁SUPER	-9251
▁Stainless	-9252
▁positioned	-9253
▁Swiss	-9254
▁competitive	-9255
▁Hulu	-9256
Still	-9257
▁limits	-9258
▁NICE	-9259
ooked	-9260
▁artist	-9261
▁employ	-9262
▁faux	-9263
▁cube	-9264
▁permanently	-9265
▁Bed	-9266
▁freezes	-9267
▁ya	-9268
▁hem	-9269
AA	-9270
▁RO	-9271
▁bik	-9272
home	-9273
ithium	-9274
▁patterns	-9275
▁Several	-9276
▁XS	-9277
▁Review	-9278
▁disappeared	-9279
/13	-9280
▁Hot	-9281
▁consuming	-9282
▁judge	-9283
fly	-9284
overs	-9285
▁flop	-9286
▁pods	-9287
▁healthier	-9288
▁sav	-9289
/12	-9290
▁overwhelming	-9291
▁booklet	-9292
▁excessive	-9293
▁costly	-9294
DS	-9295
rup	-9296
warm	-9297
▁updating	-9298
▁rides	-9299
▁dealer	-9300
▁SIZE	-9301
▁galaxy	-9302
phis	-9303
▁earth	-9304
▁Dad	-9305
anta	-9306
cet	-9307
known	-9308
Inst	-9309
▁unfort	-9310
▁OTH	-9311
ja	-9312
▁20%	-9313
▁GoPro	-9314
INT	-9315
Su	-9316
mother	-9317
▁debris	-9318
▁climb	-9319
rag	-9320
▁Cisco	-9321
▁OXO	-9322
▁overpower	-9323
▁reme	-9324
▁blocking	-9325
▁host	-9326
▁tinny	-9327
▁rates	-9328
-0	-9329
▁HR	-9330
▁scene	-9331
USE	-9332
▁Ver	-9333
▁orders	-9334
▁BACK	-9335
▁dependable	-9336
▁nine	-9337
▁silicon	-9338
▁Boy	-9339
▁anim	-9340
▁arrives	-9341
FOR	-9342
▁moon	-9343
▁Kingston	-9344
▁elder	-9345
▁lesson	-9346
▁NB	-9347
▁sucked	-9348
▁recommending	-9349
▁amateur	-9350
▁Zoom	-9351
rie	-9352
▁penc	-9353
▁Ener	-9354
ounter	-9355
▁Sandisk	-9356
▁throat	-9357
▁bead	-9358
theless	-9359
▁unsure	-9360
ateway	-9361
▁yours	-9362
bucks	-9363
▁ruin	-9364
▁molds	-9365
▁glance	-9366
▁insulation	-9367
▁tangled	-9368
▁calibration	-9369
igma	-9370
eters	-9371
▁Crocs	-9372
▁handed	-9373
▁sewing	-9374
ravel	-9375
▁gather	-9376
▁reinfor	-9377
▁helmet	-9378
▁aim	-9379
thanks	-9380
▁skull	-9381
▁1/8	-9382
▁reduces	-9383
▁goods	-9384
▁partner	-9385
▁chipped	-9386
▁artific	-9387
▁128	-9388
▁spir	-9389
▁friction	-9390
lied	-9391
▁hype	-9392
▁deserves	-9393
▁stuffed	-9394
▁wiggle	-9395
▁alternatives	-9396
▁ot	-9397
ara	-9398
iocre	-9399
ifiers	-9400
▁recall	-9401
▁completed	-9402
▁intake	-9403
bur	-9404
BT	-9405
nice	-9406
Otherwise	-9407
▁powers	-9408
▁classes	-9409
▁moments	-9410
▁curious	-9411
▁smud	-9412
▁fried	-9413
▁SHO	-9414
both	-9415
atin	-9416
▁2009	-9417
▁---	-9418
▁pains	-9419
wash	-9420
built	-9421
▁chees	-9422
▁Getting	-9423
▁SDHC	-9424
▁sinus	-9425
bes	-9426
▁faint	-9427
▁tweez	-9428
▁beds	-9429
▁ribbon	-9430
▁Hell	-9431
iency	-9432
▁camper	-9433
▁bold	-9434
▁reconnect	-9435
▁Due	-9436
▁nook	-9437
Up	-9438
▁breasts	-9439
▁Cor	-9440
▁simult	-9441
-40	-9442
▁World	-9443
mbo	-9444
▁survived	-9445
onic	-9446
green	-9447
▁modest	-9448
▁vertically	-9449
▁epil	-9450
▁Design	-9451
▁herbs	-9452
▁versatility	-9453
▁Tex	-9454
uled	-9455
ole	-9456
▁newest	-9457
since	-9458
▁AFTER	-9459
WH	-9460
icking	-9461
▁continuously	-9462
▁Thankfully	-9463
supp	-9464
▁million	-9465
▁9.	-9466
▁eject	-9467
▁disconnected	-9468
▁33	-9469
▁clippers	-9470
▁Nav	-9471
▁metallic	-9472
rups	-9473
▁clumsy	-9474
▁trackpad	-9475
nov	-9476
▁soy	-9477
▁wrinkle	-9478
▁cells	-9479
▁cruise	-9480
/0	-9481
▁oversized	-9482
▁finds	-9483
test	-9484
▁jackets	-9485
▁beating	-9486
▁Wind	-9487
EDIT	-9488
▁strings	-9489
▁bounce	-9490
▁altogether	-9491
▁valu	-9492
pled	-9493
▁prepare	-9494
▁frankly	-9495
▁funky	-9496
la	-9497
▁heaven	-9498
aken	-9499
amine	-9500
▁shoots	-9501
▁stolen	-9502
iter	-9503
▁Ever	-9504
▁clogs	-9505
▁client	-9506
▁Web	-9507
▁Turns	-9508
.).	-9509
accur	-9510
cribed	-9511
▁scrubbing	-9512
▁trackball	-9513
▁Oil	-9514
▁DD	-9515
▁suppress	-9516
▁novel	-9517
rial	-9518
▁avid	-9519
▁pearls	-9520
▁Cord	-9521
▁Sent	-9522
▁touched	-9523
▁FA	-9524
-55	-9525
▁teap	-9526
▁necklaces	-9527
▁volumes	-9528
▁pra	-9529
bruary	-9530
▁conventional	-9531
▁Follow	-9532
▁Sounds	-9533
medi	-9534
▁hike	-9535
▁ordinary	-9536
▁precision	-9537
▁seals	-9538
55	-9539
▁Af	-9540
▁Sonicare	-9541
▁exec	-9542
▁Denon	-9543
▁dying	-9544
name	-9545
22	-9546
alt	-9547
▁upcoming	-9548
▁CLE	-9549
▁plantar	-9550
▁messages	-9551
▁configured	-9552
ctors	-9553
▁corre	-9554
▁students	-9555
▁bringing	-9556
▁border	-9557
▁facial	-9558
▁himself	-9559
▁diffuser	-9560
▁cushioned	-9561
plus	-9562
▁woke	-9563
▁summary	-9564
▁Master	-9565
▁tint	-9566
▁grass	-9567
▁distrib	-9568
ventually	-9569
eek	-9570
oping	-9571
liable	-9572
▁lately	-9573
▁damaging	-9574
▁Machine	-9575
▁chopping	-9576
▁paste	-9577
▁dorm	-9578
▁coarse	-9579
spective	-9580
▁monthly	-9581
▁Nut	-9582
berries	-9583
step	-9584
▁Multi	-9585
▁sweating	-9586
▁stained	-9587
▁lifes	-9588
▁sharper	-9589
ructions	-9590
▁HAPP	-9591
CL	-9592
rands	-9593
▁settle	-9594
▁habit	-9595
▁hinges	-9596
▁root	-9597
▁agreed	-9598
▁recharging	-9599
mbly	-9600
▁$$$	-9601
▁Normally	-9602
▁VHS	-9603
▁disgust	-9604
dry	-9605
▁fastest	-9606
▁deals	-9607
has	-9608
▁din	-9609
▁conj	-9610
erting	-9611
▁Quite	-9612
▁clearance	-9613
▁Sund	-9614
▁unpleasant	-9615
▁John	-9616
▁mute	-9617
ordin	-9618
▁Charger	-9619
icles	-9620
▁cous	-9621
▁evalu	-9622
▁destination	-9623
▁LAN	-9624
▁pole	-9625
▁enable	-9626
1000	-9627
Battery	-9628
▁margin	-9629
ferent	-9630
▁Pentax	-9631
▁Unit	-9632
ipher	-9633
OUR	-9634
99.	-9635
pat	-9636
▁subscription	-9637
▁motiv	-9638
▁tears	-9639
▁PCs	-9640
▁dyn	-9641
▁beha	-9642
▁beginner	-9643
thank	-9644
▁transferred	-9645
still	-9646
wind	-9647
FT	-9648
19	-9649
▁roof	-9650
amm	-9651
almost	-9652
▁tug	-9653
▁Return	-9654
mpoo	-9655
▁solutions	-9656
▁700	-9657
anut	-9658
2.8	-9659
▁Magellan	-9660
▁independ	-9661
▁steak	-9662
▁FAST	-9663
▁Remember	-9664
Se	-9665
▁Gri	-9666
▁storm	-9667
▁Steel	-9668
▁command	-9669
▁NOTHING	-9670
▁swear	-9671
URN	-9672
ardless	-9673
aning	-9674
without	-9675
▁flashing	-9676
▁reusable	-9677
▁almond	-9678
▁molded	-9679
▁Du	-9680
▁optim	-9681
▁ages	-9682
▁understanding	-9683
▁bolt	-9684
pin	-9685
▁bact	-9686
elly	-9687
▁(2)	-9688
▁rememb	-9689
▁confirmed	-9690
iches	-9691
sy	-9692
▁receivers	-9693
▁amps	-9694
cular	-9695
▁sharing	-9696
▁wirelessly	-9697
▁Wear	-9698
▁treated	-9699
▁Wanted	-9700
▁WANT	-9701
▁froth	-9702
▁griddle	-9703
▁isolation	-9704
▁insurance	-9705
▁SONY	-9706
▁pearl	-9707
▁disabled	-9708
WARE	-9709
▁determined	-9710
erry	-9711
▁mediocre	-9712
filled	-9713
▁engineering	-9714
▁Portable	-9715
▁exclusively	-9716
big	-9717
▁RV	-9718
▁AP	-9719
ansion	-9720
▁industry	-9721
abit	-9722
▁shopped	-9723
▁circulation	-9724
▁overheating	-9725
really	-9726
▁proprietary	-9727
▁Further	-9728
regular	-9729
▁phenomenal	-9730
outube	-9731
phistic	-9732
vit	-9733
requ	-9734
▁KitchenAid	-9735
▁aer	-9736
▁defects	-9737
▁structure	-9738
Please	-9739
▁greasy	-9740
▁OM	-9741
fective	-9742
▁Hawai	-9743
▁Iphone	-9744
▁Dish	-9745
▁BETTER	-9746
▁Express	-9747
▁cri	-9748
▁dread	-9749
▁advertis	-9750
men	-9751
▁Strong	-9752
▁keypad	-9753
▁annoyed	-9754
stals	-9755
▁UK	-9756
▁Core	-9757
▁symbo	-9758
▁BOUGHT	-9759
▁jumped	-9760
▁grew	-9761
▁EXP	-9762
▁hall	-9763
========	-9764
▁ventil	-9765
▁optional	-9766
oise	-9767
▁illumin	-9768
HA	-9769
▁arches	-9770
ocking	-9771
▁disasse	-9772
▁reliably	-9773
▁relieve	-9774
UD	-9775
▁remotely	-9776
▁somebody	-9777
▁Decent	-9778
▁ski	-9779
▁suffering	-9780
pa	-9781
▁detachable	-9782
prising	-9783
Des	-9784
▁treadmill	-9785
anas	-9786
rame	-9787
▁pumps	-9788
rus	-9789
▁Women	-9790
▁Dep	-9791
▁DDR	-9792
▁session	-9793
loc	-9794
▁costing	-9795
▁Colors	-9796
hings	-9797
▁crushed	-9798
▁ate	-9799
▁nearby	-9800
▁faces	-9801
-50	-9802
▁chin	-9803
▁attempting	-9804
▁ITEM	-9805
Why	-9806
▁BTW	-9807
forms	-9808
cinia	-9809
add	-9810
▁growth	-9811
ember	-9812
▁apr	-9813
▁readily	-9814
▁GR	-9815
▁Pass	-9816
core	-9817
▁distinct	-9818
▁welcome	-9819
apor	-9820
▁span	-9821
▁clever	-9822
had	-9823
▁shad	-9824
▁retractable	-9825
▁stretches	-9826
▁bird	-9827
▁artificial	-9828
ULL	-9829
▁tarn	-9830
▁LEDs	-9831
▁inse	-9832
▁operated	-9833
▁clutter	-9834
▁6.	-9835
▁sees	-9836
;&#108	-9837
66	-9838
▁calcium	-9839
▁knobs	-9840
▁Monitor	-9841
care	-9842
▁safer	-9843
▁downstairs	-9844
▁HOT	-9845
▁lense	-9846
▁chronic	-9847
▁Par	-9848
▁halfway	-9849
▁ghost	-9850
▁therapy	-9851
▁programmed	-9852
▁explo	-9853
▁straightforward	-9854
▁Asics	-9855
ural	-9856
▁cigarette	-9857
▁distances	-9858
▁former	-9859
▁sling	-9860
▁carrots	-9861
▁Dri	-9862
▁haha	-9863
▁nobody	-9864
obe	-9865
▁Pow	-9866
7,	-9867
▁imper	-9868
▁Phillips	-9869
▁shavers	-9870
▁reaching	-9871
ASS	-9872
▁fooled	-9873
▁wok	-9874
▁IPOD	-9875
▁networks	-9876
▁alle	-9877
▁backed	-9878
▁FIR	-9879
▁football	-9880
▁Batteries	-9881
▁Shoe	-9882
width	-9883
▁Hamilton	-9884
▁troubleshooting	-9885
▁coats	-9886
▁prettier	-9887
▁efficiently	-9888
▁tweak	-9889
▁snacks	-9890
▁insane	-9891
▁catching	-9892
▁Satur	-9893
▁rubberized	-9894
hib	-9895
▁Stay	-9896
▁Cit	-9897
▁associated	-9898
▁travelling	-9899
▁tuning	-9900
▁gained	-9901
▁wraps	-9902
%.	-9903
▁ounce	-9904
hern	-9905
▁350	-9906
▁Five	-9907
pet	-9908
ENS	-9909
▁elderly	-9910
▁fishing	-9911
▁sophistic	-9912
▁dell	-9913
▁meds	-9914
▁weighed	-9915
▁Ze	-9916
By	-9917
▁BEF	-9918
▁temporary	-9919
▁absorbent	-9920
▁Cut	-9921
▁jeweler	-9922
▁stap	-9923
▁representative	-9924
▁caddy	-9925
▁audible	-9926
▁unc	-9927
▁Dont	-9928
ran	-9929
▁Total	-9930
4)	-9931
▁rev	-9932
▁blister	-9933
▁Control	-9934
▁Computer	-9935
▁logitech	-9936
▁barefoot	-9937
▁clue	-9938
▁transition	-9939
▁Wife	-9940
▁weighing	-9941
▁patches	-9942
▁repairs	-9943
▁MADE	-9944
▁Test	-9945
▁distribut	-9946
▁OVER	-9947
▁charms	-9948
iration	-9949
eng	-9950
rently	-9951
▁theirs	-9952
▁canceling	-9953
▁dresser	-9954
formed	-9955
▁cherry	-9956
▁Runs	-9957
fold	-9958
IEW	-9959
▁turkey	-9960
▁craving	-9961
unless	-9962
▁2.1	-9963
▁popper	-9964
weet	-9965
Last	-9966
▁FYI	-9967
▁Headphones	-9968
▁excelent	-9969
▁tort	-9970
▁healing	-9971
▁odors	-9972
powered	-9973
▁liners	-9974
Port	-9975
mbled	-9976
▁steaming	-9977
▁Yet	-9978
imeter	-9979
▁successful	-9980
?).	-9981
▁Someone	-9982
OWN	-9983
otion	-9984
▁nit	-9985
▁Dock	-9986
ifferent	-9987
▁February	-9988
iri	-9989
▁secondary	-9990
▁breathing	-9991
Is	-9992
atively	-9993
iqu	-9994
▁whisk	-9995
▁denim	-9996
iver	-9997
▁whis	-9998
▁Fry	-9999
ource	-10000
▁2008	-10001
▁10,	-10002
▁teenage	-10003
ari	-10004
▁survive	-10005
▁shaker	-10006
▁herself	-10007
▁ga	-10008
▁EXACT	-10009
▁producing	-10010
▁apo	-10011
▁neoprene	-10012
cean	-10013
eness	-10014
loss	-10015
▁Insp	-10016
▁dashboard	-10017
oss	-10018
▁bite	-10019
▁spilled	-10020
▁leaf	-10021
▁Mov	-10022
▁Spend	-10023
▁coconut	-10024
▁conditioner	-10025
▁11.	-10026
▁Stars	-10027
▁ox	-10028
▁bills	-10029
▁dressing	-10030
▁trusted	-10031
GHz	-10032
▁glitch	-10033
lay	-10034
▁beige	-10035
trusive	-10036
▁burst	-10037
▁(10	-10038
▁mornings	-10039
▁lengths	-10040
21;	-10041
Recommend	-10042
ATION	-10043
3'	-10044
▁manager	-10045
▁Pot	-10046
ousy	-10047
▁kidding	-10048
▁corrected	-10049
▁fib	-10050
▁explan	-10051
▁confortable	-10052
▁Desk	-10053
▁Ju	-10054
▁ITS	-10055
▁Val	-10056
▁sensation	-10057
▁pipe	-10058
▁Otterbox	-10059
GS	-10060
apple	-10061
▁timing	-10062
▁distracting	-10063
idia	-10064
▁readers	-10065
▁shampoo	-10066
▁fewer	-10067
▁distorted	-10068
▁floppy	-10069
Have	-10070
▁ine	-10071
▁knit	-10072
erizon	-10073
▁240	-10074
▁communication	-10075
▁aftermarket	-10076
▁trimming	-10077
▁alarms	-10078
▁reluct	-10079
▁powering	-10080
ander	-10081
▁bedding	-10082
▁togg	-10083
standard	-10084
▁Setting	-10085
coal	-10086
▁messing	-10087
ntu	-10088
▁wobble	-10089
▁Clarks	-10090
▁vast	-10091
▁flashy	-10092
▁carrier	-10093
oons	-10094
▁dot	-10095
▁contem	-10096
▁Hub	-10097
▁satin	-10098
▁European	-10099
TLE	-10100
▁vegetable	-10101
▁decrease	-10102
taste	-10103
▁pancakes	-10104
clear	-10105
kel	-10106
▁flare	-10107
▁transparent	-10108
alian	-10109
SATA	-10110
card	-10111
gre	-10112
▁muffin	-10113
▁pajamas	-10114
ffin	-10115
▁Pen	-10116
62;	-10117
orders	-10118
▁sessions	-10119
▁dil	-10120
LO	-10121
▁narrower	-10122
▁speedy	-10123
▁doz	-10124
▁Japanese	-10125
▁stabilization	-10126
▁drawbacks	-10127
▁Ma	-10128
▁reducing	-10129
▁North	-10130
Wh	-10131
▁remained	-10132
▁Slee	-10133
ifty	-10134
▁glut	-10135
▁adm	-10136
chand	-10137
▁crashed	-10138
▁perf	-10139
▁spilling	-10140
▁monop	-10141
mAh	-10142
▁bling	-10143
▁Ger	-10144
▁destroyed	-10145
????	-10146
Cl	-10147
ota	-10148
▁advertisement	-10149
▁specifications	-10150
▁acts	-10151
▁touches	-10152
▁TE	-10153
iversary	-10154
▁shapes	-10155
▁warming	-10156
▁Pad	-10157
osen	-10158
▁Stick	-10159
▁megapix	-10160
udos	-10161
ferences	-10162
▁vir	-10163
▁coo	-10164
gel	-10165
agger	-10166
buntu	-10167
▁pharm	-10168
▁teapot	-10169
WAYS	-10170
probably	-10171
▁prongs	-10172
▁$12	-10173
▁tamp	-10174
ureka	-10175
▁painting	-10176
▁Lab	-10177
▁Natural	-10178
▁commands	-10179
omed	-10180
beatable	-10181
▁Old	-10182
▁fence	-10183
aring	-10184
string	-10185
IST	-10186
▁Brit	-10187
▁OTHER	-10188
▁whim	-10189
▁Defin	-10190
~~	-10191
▁softness	-10192
▁vendors	-10193
▁rave	-10194
▁BAD	-10195
▁torso	-10196
▁Nature	-10197
▁advertise	-10198
▁shin	-10199
▁customize	-10200
?"	-10201
LLENT	-10202
▁Saturday	-10203
ACE	-10204
▁engage	-10205
▁valuable	-10206
▁worthy	-10207
▁unb	-10208
▁mats	-10209
▁detector	-10210
▁Cry	-10211
▁Chic	-10212
2.11	-10213
▁blankets	-10214
ofocus	-10215
▁Steam	-10216
▁conjunction	-10217
▁satisfying	-10218
▁cone	-10219
▁briefcase	-10220
▁crystals	-10221
▁aspects	-10222
▁PRE	-10223
▁Far	-10224
▁freak	-10225
▁tones	-10226
OTHER	-10227
▁shines	-10228
▁cure	-10229
▁Hor	-10230
&#8221;	-10231
▁transfers	-10232
▁Professional	-10233
▁peeler	-10234
▁sweatshirt	-10235
▁29	-10236
▁dumb	-10237
▁focal	-10238
▁compromise	-10239
alle	-10240
▁sche	-10241
▁fres	-10242
▁soften	-10243
▁engineer	-10244
▁unreliable	-10245
▁rubbery	-10246
▁Band	-10247
▁presents	-10248
▁1600	-10249
▁satur	-10250
▁complement	-10251
▁simultaneously	-10252
TRE	-10253
▁unfortunate	-10254
▁lesser	-10255
▁cupboard	-10256
▁gasket	-10257
▁fork	-10258
▁alter	-10259
▁warehouse	-10260
▁answered	-10261
▁overpowering	-10262
▁dehydr	-10263
▁ships	-10264
Bay	-10265
icro	-10266
▁packets	-10267
▁crocs	-10268
▁handsome	-10269
rep	-10270
▁monitoring	-10271
▁downfall	-10272
▁effic	-10273
▁Ice	-10274
▁1500	-10275
▁Easily	-10276
cell	-10277
▁removes	-10278
uous	-10279
▁ticket	-10280
▁gb	-10281
▁rebate	-10282
33	-10283
▁wid	-10284
click	-10285
▁nex	-10286
ilot	-10287
▁conve	-10288
▁cuz	-10289
Best	-10290
▁potato	-10291
much	-10292
▁fidd	-10293
▁sq	-10294
▁aches	-10295
▁conce	-10296
▁rattle	-10297
▁secret	-10298
hh	-10299
oshop	-10300
▁Network	-10301
▁rend	-10302
▁undone	-10303
▁FO	-10304
▁pit	-10305
▁equalizer	-10306
▁whey	-10307
▁notic	-10308
▁nurse	-10309
▁RAW	-10310
▁irritated	-10311
▁sensors	-10312
▁BEFORE	-10313
▁path	-10314
▁walmart	-10315
▁NEX	-10316
▁wobbly	-10317
▁Consumer	-10318
▁Speaker	-10319
▁Sunday	-10320
▁cors	-10321
▁bleach	-10322
▁CS	-10323
▁stopping	-10324
▁effectiveness	-10325
▁slacks	-10326
▁loun	-10327
grav	-10328
▁8-	-10329
▁GOT	-10330
▁crafted	-10331
▁waistband	-10332
▁HOWEVER	-10333
amel	-10334
angular	-10335
Bas	-10336
:1	-10337
Add	-10338
resso	-10339
▁dozens	-10340
▁soaked	-10341
▁daylight	-10342
▁backlit	-10343
cover	-10344
button	-10345
ainty	-10346
illed	-10347
▁dimin	-10348
▁tearing	-10349
pix	-10350
▁10-	-10351
▁7.1	-10352
▁Ho	-10353
▁Polk	-10354
▁Fair	-10355
▁Verizon	-10356
stro	-10357
▁IMO	-10358
▁recommends	-10359
▁lube	-10360
▁chances	-10361
▁recie	-10362
▁SX	-10363
kal	-10364
▁Word	-10365
estyle	-10366
▁catches	-10367
▁simpler	-10368
▁haz	-10369
▁Comfort	-10370
accurate	-10371
▁aggrav	-10372
▁detected	-10373
▁quad	-10374
▁degr	-10375
▁labor	-10376
▁Studio	-10377
▁Youtube	-10378
▁grandchild	-10379
▁dece	-10380
▁bless	-10381
▁cursor	-10382
▁WAR	-10383
▁Exp	-10384
▁WON	-10385
▁utilize	-10386
▁1200	-10387
▁mush	-10388
▁750	-10389
-100	-10390
▁beast	-10391
▁highlight	-10392
Edit	-10393
▁pron	-10394
▁fortune	-10395
▁hitch	-10396
argus	-10397
feel	-10398
oacute	-10399
NA	-10400
▁HTPC	-10401
oked	-10402
▁proce	-10403
▁fixing	-10404
▁dental	-10405
▁lows	-10406
▁hotter	-10407
days	-10408
▁license	-10409
▁luckily	-10410
▁City	-10411
ko	-10412
▁ignore	-10413
▁novice	-10414
▁score	-10415
▁DSL	-10416
ki	-10417
▁fasten	-10418
▁stepped	-10419
▁Pure	-10420
normal	-10421
ressed	-10422
▁prove	-10423
▁seeds	-10424
▁tumb	-10425
iantly	-10426
▁consumers	-10427
cert	-10428
▁cpu	-10429
▁panties	-10430
▁Mix	-10431
beit	-10432
▁poured	-10433
▁exceed	-10434
▁restore	-10435
▁fatigue	-10436
▁Buyer	-10437
▁Sleep	-10438
oms	-10439
▁ris	-10440
▁lavender	-10441
▁IDE	-10442
hensive	-10443
▁8.1	-10444
▁podcast	-10445
cor	-10446
▁cosmet	-10447
sn	-10448
Price	-10449
▁sleeper	-10450
▁competitors	-10451
-1/2	-10452
nies	-10453
▁Plugged	-10454
▁BP	-10455
▁$35	-10456
istant	-10457
▁puppy	-10458
▁September	-10459
▁South	-10460
▁JBL	-10461
▁Lumix	-10462
▁Tre	-10463
▁fed	-10464
▁diagno	-10465
▁costumes	-10466
▁remedy	-10467
cm	-10468
▁sideways	-10469
▁curves	-10470
▁According	-10471
CS	-10472
▁130	-10473
▁peripher	-10474
▁Flex	-10475
▁specified	-10476
▁marath	-10477
▁reaches	-10478
▁codes	-10479
atly	-10480
▁Texas	-10481
▁bitter	-10482
▁strict	-10483
▁Ultimate	-10484
▁pointing	-10485
▁presses	-10486
▁requirement	-10487
▁sea	-10488
.--	-10489
ushi	-10490
▁chosen	-10491
▁manip	-10492
▁Plasma	-10493
TC	-10494
▁beverage	-10495
▁fixes	-10496
▁coupon	-10497
▁Ben	-10498
neck	-10499
▁CHEAP	-10500
▁COL	-10501
▁gimm	-10502
▁sandwiches	-10503
▁expansion	-10504
-)	-10505
▁bc	-10506
▁Mil	-10507
cessor	-10508
▁specially	-10509
▁Oster	-10510
▁Zipp	-10511
▁language	-10512
rass	-10513
▁ALWAYS	-10514
▁caveat	-10515
▁affected	-10516
▁supporting	-10517
▁massager	-10518
BUT	-10519
▁invis	-10520
▁focused	-10521
▁muddy	-10522
cool	-10523
izers	-10524
▁bage	-10525
▁ABOUT	-10526
▁froze	-10527
▁Om	-10528
▁merchand	-10529
ARGE	-10530
▁Eventually	-10531
iotic	-10532
VIEW	-10533
▁husbands	-10534
▁Photoshop	-10535
MM	-10536
better	-10537
▁tummy	-10538
▁5-6	-10539
▁Travel	-10540
▁Sigma	-10541
▁Seem	-10542
150	-10543
▁ripping	-10544
▁pace	-10545
▁sophisticated	-10546
idad	-10547
ccas	-10548
rupt	-10549
such	-10550
▁procedure	-10551
▁LIT	-10552
▁Bath	-10553
ucc	-10554
▁inserting	-10555
UTE	-10556
54	-10557
however	-10558
▁Called	-10559
▁needle	-10560
▁flights	-10561
ASED	-10562
▁module	-10563
120	-10564
▁gown	-10565
▁Med	-10566
phalon	-10567
▁infection	-10568
▁Hello	-10569
humid	-10570
▁Wouldn	-10571
antages	-10572
▁pee	-10573
▁wanna	-10574
▁wave	-10575
▁decades	-10576
▁operates	-10577
▁XXL	-10578
▁SR	-10579
izard	-10580
▁Body	-10581
umn	-10582
▁glowing	-10583
▁hun	-10584
▁sag	-10585
▁bulbs	-10586
▁resulted	-10587
▁roads	-10588
▁struggling	-10589
▁140	-10590
▁unplugging	-10591
ints	-10592
▁relaxing	-10593
▁ebay	-10594
▁wiped	-10595
iers	-10596
▁soothing	-10597
▁Beyond	-10598
cient	-10599
▁assistance	-10600
obile	-10601
alo	-10602
▁partition	-10603
two	-10604
▁movements	-10605
▁Oral	-10606
uge	-10607
▁dise	-10608
▁litter	-10609
▁doctors	-10610
▁trunk	-10611
▁unstable	-10612
▁kits	-10613
-60	-10614
erved	-10615
▁homework	-10616
▁Others	-10617
▁EXCELLENT	-10618
▁lighted	-10619
▁802.11	-10620
▁Short	-10621
▁poo	-10622
▁bacteria	-10623
▁painless	-10624
▁TX	-10625
▁regards	-10626
izen	-10627
mmable	-10628
enta	-10629
isted	-10630
▁Ess	-10631
▁rush	-10632
looks	-10633
▁disable	-10634
▁irritate	-10635
▁approach	-10636
▁noticing	-10637
▁rotation	-10638
▁ALSO	-10639
▁formatted	-10640
▁stopper	-10641
▁characters	-10642
chain	-10643
▁Decker	-10644
▁networking	-10645
Excellent	-10646
▁Aside	-10647
▁decently	-10648
▁guitar	-10649
▁EVEN	-10650
▁makeup	-10651
ief	-10652
prisingly	-10653
▁dye	-10654
▁SOME	-10655
▁blah	-10656
▁savvy	-10657
▁conversion	-10658
▁teacher	-10659
▁HAPPY	-10660
▁assured	-10661
▁Van	-10662
▁clogged	-10663
sel	-10664
ridges	-10665
▁Canada	-10666
packs	-10667
▁nozzle	-10668
▁document	-10669
▁begins	-10670
▁buzzing	-10671
▁sen	-10672
level	-10673
▁Ske	-10674
▁Book	-10675
▁Main	-10676
▁Router	-10677
bbit	-10678
cend	-10679
eps	-10680
▁Cannot	-10681
▁refuse	-10682
▁Four	-10683
▁bikini	-10684
▁MANY	-10685
▁scope	-10686
igan	-10687
▁pal	-10688
▁volt	-10689
▁unob	-10690
▁jogging	-10691
▁underside	-10692
▁Italy	-10693
▁fle	-10694
▁longest	-10695
writ	-10696
▁FIRST	-10697
▁attend	-10698
▁Won	-10699
▁birds	-10700
▁ultimate	-10701
▁tightened	-10702
▁alternate	-10703
alia	-10704
-70	-10705
.50	-10706
▁unbeatable	-10707
▁ded	-10708
▁straws	-10709
▁gag	-10710
▁flan	-10711
otics	-10712
▁indication	-10713
HF	-10714
▁lcd	-10715
HO	-10716
▁Krups	-10717
xx	-10718
Power	-10719
▁meeting	-10720
▁dainty	-10721
▁pushes	-10722
struction	-10723
▁sharpener	-10724
▁Levi	-10725
▁Durable	-10726
▁Ill	-10727
▁upgrades	-10728
▁textured	-10729
▁countless	-10730
glass	-10731
▁woofer	-10732
urious	-10733
▁digit	-10734
▁GU	-10735
▁Cho	-10736
LP	-10737
▁Skin	-10738
▁refills	-10739
gable	-10740
▁central	-10741
▁Xmas	-10742
ractor	-10743
▁mattresses	-10744
kill	-10745
▁finder	-10746
▁earplug	-10747
▁grooves	-10748
protect	-10749
▁Fusion	-10750
▁fading	-10751
▁Starbucks	-10752
▁unlock	-10753
ival	-10754
▁shared	-10755
lloween	-10756
▁Premium	-10757
yl	-10758
▁haul	-10759
▁edition	-10760
▁las	-10761
quoise	-10762
▁blocked	-10763
▁Merrell	-10764
▁piv	-10765
▁grateful	-10766
6,	-10767
rills	-10768
▁angled	-10769
▁EVERYTHING	-10770
▁mort	-10771
▁overhead	-10772
▁thermost	-10773
▁finishing	-10774
▁Brand	-10775
▁512	-10776
ulas	-10777
▁Call	-10778
▁Eureka	-10779
▁rendering	-10780
68	-10781
Ch	-10782
▁cling	-10783
▁HO	-10784
▁warped	-10785
▁sliced	-10786
▁FREE	-10787
▁boring	-10788
▁recommendations	-10789
▁stumbled	-10790
ucky	-10791
llation	-10792
DD	-10793
▁article	-10794
▁Techn	-10795
▁worthwhile	-10796
ractive	-10797
Mbps	-10798
idas	-10799
▁footbed	-10800
▁cools	-10801
Maybe	-10802
IFI	-10803
▁buys	-10804
▁iPods	-10805
Video	-10806
gling	-10807
▁ven	-10808
tight	-10809
▁Mel	-10810
▁brewed	-10811
7000	-10812
▁scrape	-10813
▁relaxed	-10814
▁REAL	-10815
placed	-10816
▁sloppy	-10817
▁nause	-10818
▁professionally	-10819
▁Tem	-10820
▁circular	-10821
▁seats	-10822
▁wheat	-10823
▁toxic	-10824
▁reccommend	-10825
▁47	-10826
▁cock	-10827
▁Ple	-10828
▁Mex	-10829
▁DEF	-10830
▁groom	-10831
ifies	-10832
▁surrounding	-10833
▁Chicago	-10834
▁Em	-10835
▁rental	-10836
▁gladly	-10837
▁Warm	-10838
▁stim	-10839
▁arrange	-10840
BE	-10841
▁canal	-10842
▁MON	-10843
▁technically	-10844
▁Form	-10845
▁staff	-10846
▁composite	-10847
▁shaking	-10848
▁accustom	-10849
again	-10850
maid	-10851
▁MO	-10852
▁Optical	-10853
▁swelling	-10854
rage	-10855
ciitis	-10856
earch	-10857
break	-10858
▁sweaters	-10859
▁remarkable	-10860
▁Fine	-10861
▁properties	-10862
▁wings	-10863
72	-10864
▁shaved	-10865
▁tacky	-10866
.+	-10867
▁suggests	-10868
Of	-10869
▁crooked	-10870
DO	-10871
▁retrie	-10872
▁scheduled	-10873
▁scenes	-10874
▁tempted	-10875
▁hammer	-10876
▁vents	-10877
▁una	-10878
▁stitched	-10879
▁XM	-10880
etly	-10881
▁mi	-10882
▁blouse	-10883
▁Tam	-10884
98	-10885
▁iPh	-10886
▁GPU	-10887
▁floating	-10888
▁merchandise	-10889
▁Hawaii	-10890
++++	-10891
iversal	-10892
▁calend	-10893
▁coasters	-10894
▁jean	-10895
orie	-10896
▁cycling	-10897
orage	-10898
▁lu	-10899
▁orientation	-10900
hire	-10901
▁Dol	-10902
▁lime	-10903
▁#1	-10904
▁accum	-10905
▁leakage	-10906
▁Chromebook	-10907
hel	-10908
Sony	-10909
▁Neither	-10910
abridge	-10911
▁cutters	-10912
▁eliminated	-10913
▁aging	-10914
▁international	-10915
▁Plant	-10916
▁Mid	-10917
▁Instructions	-10918
▁IMP	-10919
▁handful	-10920
UX	-10921
.4)	-10922
▁precious	-10923
▁Shack	-10924
▁otter	-10925
▁introduced	-10926
▁preset	-10927
tion	-10928
▁chic	-10929
▁lousy	-10930
aa	-10931
terol	-10932
▁duct	-10933
▁Thanksgiving	-10934
▁anniversary	-10935
▁Tit	-10936
ulating	-10937
▁Austr	-10938
away	-10939
▁challenging	-10940
▁GTX	-10941
▁peanut	-10942
▁Fan	-10943
▁grandmother	-10944
CAUSE	-10945
▁telephoto	-10946
▁mixture	-10947
▁crotch	-10948
▁Elite	-10949
eside	-10950
▁flatten	-10951
term	-10952
▁onions	-10953
aque	-10954
▁wrinkled	-10955
rupted	-10956
touch	-10957
Two	-10958
▁fashioned	-10959
▁PROBLE	-10960
▁loyal	-10961
▁portions	-10962
GG	-10963
iva	-10964
▁Wed	-10965
▁frother	-10966
▁Aud	-10967
gee	-10968
enna	-10969
uming	-10970
ushes	-10971
▁soups	-10972
▁diapers	-10973
▁Cleaning	-10974
ona	-10975
▁chains	-10976
▁Mc	-10977
ictor	-10978
▁COLOR	-10979
▁loosely	-10980
abyte	-10981
▁smudges	-10982
▁fitness	-10983
▁blinking	-10984
▁Receiver	-10985
sis	-10986
▁transformer	-10987
▁Clip	-10988
▁eliminates	-10989
▁jumping	-10990
▁nexus	-10991
▁downloads	-10992
▁perspective	-10993
▁ding	-10994
▁verify	-10995
▁purses	-10996
Ab	-10997
▁EOS	-10998
▁continually	-10999
same	-11000
Because	-11001
▁exceeds	-11002
▁adjusts	-11003
may	-11004
▁pha	-11005
▁GE	-11006
▁wondered	-11007
▁enthusiast	-11008
▁considerable	-11009
▁Mart	-11010
▁refresh	-11011
▁extends	-11012
Most	-11013
▁lists	-11014
ford	-11015
Looks	-11016
▁dots	-11017
/14	-11018
Over	-11019
▁synch	-11020
▁cereal	-11021
▁organization	-11022
▁pulse	-11023
RIBLE	-11024
▁tour	-11025
▁Mbps	-11026
asal	-11027
▁ted	-11028
▁bleeding	-11029
▁Germ	-11030
hartt	-11031
▁Brown	-11032
▁snuggly	-11033
▁tent	-11034
▁Pur	-11035
▁chord	-11036
▁panty	-11037
▁hollow	-11038
▁Trust	-11039
▁3)	-11040
▁dancing	-11041
▁sprayed	-11042
▁IPAD	-11043
▁animals	-11044
▁spacious	-11045
lightly	-11046
▁refreshing	-11047
izable	-11048
▁trees	-11049
▁decoration	-11050
▁Fed	-11051
sound	-11052
▁India	-11053
▁bookshe	-11054
▁valve	-11055
▁REVIEW	-11056
▁THEN	-11057
▁reformat	-11058
▁mos	-11059
▁Health	-11060
▁drown	-11061
▁bananas	-11062
▁passport	-11063
▁halloween	-11064
▁(8	-11065
▁charcoal	-11066
▁supr	-11067
▁10"	-11068
▁TP	-11069
IRE	-11070
▁cousin	-11071
CC	-11072
aneous	-11073
▁cartridges	-11074
str	-11075
▁chore	-11076
▁creams	-11077
▁horribly	-11078
▁nutrition	-11079
ava	-11080
▁markings	-11081
atures	-11082
▁autofocus	-11083
▁telephone	-11084
▁900	-11085
▁THING	-11086
▁spite	-11087
▁coloring	-11088
▁replaces	-11089
▁Shure	-11090
▁oily	-11091
▁reproduction	-11092
IPP	-11093
▁bends	-11094
ceived	-11095
▁Cat	-11096
▁fighting	-11097
▁Rather	-11098
▁adequately	-11099
▁possibility	-11100
opard	-11101
▁technician	-11102
▁bind	-11103
▁viewed	-11104
hop	-11105
▁BAT	-11106
▁aqu	-11107
ptic	-11108
▁increases	-11109
▁avo	-11110
▁adj	-11111
▁crashes	-11112
blue	-11113
▁instructed	-11114
▁RIGHT	-11115
▁invisible	-11116
▁rests	-11117
▁latter	-11118
pieces	-11119
▁native	-11120
▁peeled	-11121
▁sharpen	-11122
bat	-11123
▁smoking	-11124
▁DX	-11125
umber	-11126
▁nifty	-11127
▁knot	-11128
▁TS	-11129
▁sanit	-11130
▁Keen	-11131
▁toothpaste	-11132
▁Ven	-11133
ASTIC	-11134
▁aligned	-11135
▁qualities	-11136
▁plunger	-11137
▁drips	-11138
▁complains	-11139
▁unused	-11140
▁hobby	-11141
▁velvet	-11142
▁dow	-11143
▁chunks	-11144
▁Photo	-11145
▁posting	-11146
▁satisfy	-11147
▁BECAUSE	-11148
▁iPads	-11149
▁Vis	-11150
▁theat	-11151
▁looser	-11152
Ad	-11153
▁branded	-11154
▁HTC	-11155
▁Standard	-11156
Windows	-11157
▁soundbar	-11158
▁Ox	-11159
FM	-11160
lin	-11161
heavy	-11162
verter	-11163
odge	-11164
▁doubts	-11165
▁mono	-11166
▁York	-11167
▁muffins	-11168
▁12-	-11169
ilm	-11170
lesterol	-11171
▁preventing	-11172
▁CAM	-11173
▁condens	-11174
Smart	-11175
ccer	-11176
▁potentially	-11177
▁pale	-11178
▁crumbs	-11179
▁(1)	-11180
▁occurred	-11181
ido	-11182
▁PDA	-11183
▁foll	-11184
▁2013.	-11185
▁rapidly	-11186
▁thermostat	-11187
▁Dro	-11188
▁bothers	-11189
▁fuse	-11190
▁chamber	-11191
▁inspection	-11192
▁taped	-11193
▁greens	-11194
▁reinstall	-11195
▁bones	-11196
28	-11197
▁puff	-11198
Fe	-11199
▁bumped	-11200
▁fuzz	-11201
idents	-11202
▁flame	-11203
▁horizontally	-11204
▁GL	-11205
TREME	-11206
PO	-11207
▁repeater	-11208
▁accustomed	-11209
BR	-11210
ns	-11211
▁bummer	-11212
▁flatware	-11213
▁cramps	-11214
▁patio	-11215
▁5'4	-11216
▁Bright	-11217
▁brainer	-11218
hr	-11219
▁tweezers	-11220
▁earpiece	-11221
war	-11222
▁ham	-11223
▁conduct	-11224
ounced	-11225
ailable	-11226
▁Wifi	-11227
▁leading	-11228
Fl	-11229
▁techno	-11230
▁corset	-11231
▁shutting	-11232
▁freed	-11233
▁10%	-11234
▁shall	-11235
▁USED	-11236
▁visiting	-11237
gled	-11238
▁adore	-11239
▁lamin	-11240
cials	-11241
▁inaccurate	-11242
▁beeps	-11243
▁airflow	-11244
▁tablecloth	-11245
160	-11246
▁Run	-11247
kids	-11248
▁Targus	-11249
▁encourage	-11250
▁virtual	-11251
▁consumption	-11252
▁seemingly	-11253
field	-11254
▁shrunk	-11255
antic	-11256
▁forms	-11257
▁forum	-11258
▁tweaking	-11259
▁Gel	-11260
▁messenger	-11261
▁LITTLE	-11262
How	-11263
▁dive	-11264
▁clipper	-11265
▁Boot	-11266
▁hefty	-11267
▁sharpening	-11268
Home	-11269
▁downs	-11270
Ne	-11271
▁improves	-11272
▁10-15	-11273
▁meats	-11274
Net	-11275
▁tremendous	-11276
▁lany	-11277
inations	-11278
▁Ther	-11279
TABLE	-11280
▁tut	-11281
▁Gra	-11282
▁booster	-11283
▁!!!!	-11284
LI	-11285
▁FAR	-11286
life	-11287
▁plans	-11288
▁asks	-11289
▁yeast	-11290
▁hic	-11291
▁arg	-11292
▁Fos	-11293
▁replaceable	-11294
▁counts	-11295
▁plunge	-11296
▁Wore	-11297
slip	-11298
▁sum	-11299
plastic	-11300
▁wrench	-11301
ointment	-11302
▁smoot	-11303
▁classical	-11304
▁duplic	-11305
▁legit	-11306
verages	-11307
▁allevi	-11308
▁toasty	-11309
think	-11310
Gb	-11311
▁BY	-11312
▁Inspiron	-11313
erable	-11314
pose	-11315
▁lite	-11316
▁Calphalon	-11317
▁Regardless	-11318
▁los	-11319
▁pencil	-11320
20;	-11321
thy	-11322
▁increasing	-11323
▁retailers	-11324
▁newly	-11325
▁teasp	-11326
▁Vacuum	-11327
▁estimate	-11328
▁race	-11329
▁Remington	-11330
▁Cent	-11331
▁index	-11332
▁Replaced	-11333
bought	-11334
▁companion	-11335
▁heartbeat	-11336
▁gal	-11337
▁Access	-11338
sembly	-11339
stream	-11340
adv	-11341
▁cleared	-11342
▁Armor	-11343
▁iOS	-11344
cluded	-11345
atellites	-11346
▁Ari	-11347
▁digestive	-11348
cas	-11349
▁awake	-11350
▁31	-11351
▁filtered	-11352
▁cul	-11353
▁addresses	-11354
hael	-11355
▁biking	-11356
▁12"	-11357
▁cancellation	-11358
ERI	-11359
▁packet	-11360
▁kicks	-11361
▁5.5	-11362
▁resting	-11363
glare	-11364
▁bummed	-11365
▁magazine	-11366
▁protr	-11367
ggs	-11368
▁NYC	-11369
▁2007	-11370
▁17"	-11371
▁anxiety	-11372
agen	-11373
▁Desktop	-11374
▁Paperwhite	-11375
▁256	-11376
▁Friend	-11377
▁precisely	-11378
▁Honey	-11379
▁>	-11380
stery	-11381
▁latex	-11382
reck	-11383
▁RT	-11384
/2013	-11385
FS	-11386
▁criticism	-11387
▁struggled	-11388
▁loosing	-11389
▁Model	-11390
Get	-11391
▁boiled	-11392
▁gluten	-11393
▁brewer	-11394
▁luxurious	-11395
▁antib	-11396
Pack	-11397
▁chunky	-11398
late	-11399
▁Reason	-11400
aiting	-11401
▁fryer	-11402
▁thousand	-11403
oose	-11404
▁pers	-11405
▁migra	-11406
aacute	-11407
▁thirty	-11408
▁7"	-11409
▁Chef	-11410
▁bandwidth	-11411
!-	-11412
ules	-11413
▁Ubuntu	-11414
something	-11415
▁EXTREME	-11416
▁dials	-11417
bolt	-11418
▁2012.	-11419
▁region	-11420
▁whom	-11421
▁Tea	-11422
▁footage	-11423
▁tau	-11424
▁Nort	-11425
▁optics	-11426
▁presets	-11427
Play	-11428
▁bathing	-11429
pen	-11430
▁thankful	-11431
quate	-11432
state	-11433
▁blending	-11434
ranty	-11435
▁Germany	-11436
▁DAY	-11437
▁industrial	-11438
▁58	-11439
▁Performance	-11440
pire	-11441
▁KNOW	-11442
▁ache	-11443
▁producto	-11444
▁tightening	-11445
▁digging	-11446
▁mistaken	-11447
▁Sens	-11448
ifications	-11449
bogia	-11450
▁soaking	-11451
ushed	-11452
▁differ	-11453
▁Ins	-11454
▁aids	-11455
▁Bat	-11456
▁rubs	-11457
▁uploaded	-11458
▁frost	-11459
▁flavored	-11460
▁COULD	-11461
umbia	-11462
buds	-11463
▁Navig	-11464
▁sweeper	-11465
▁MDR	-11466
ioned	-11467
▁220	-11468
▁indicating	-11469
▁gigs	-11470
▁acting	-11471
wide	-11472
plate	-11473
meal	-11474
▁purifier	-11475
▁promises	-11476
price	-11477
isc	-11478
▁Boo	-11479
▁imperfect	-11480
MH	-11481
▁Care	-11482
▁seamless	-11483
▁selecting	-11484
▁priority	-11485
▁THERE	-11486
▁observ	-11487
▁entering	-11488
▁excuse	-11489
▁medications	-11490
nox	-11491
▁sacrif	-11492
▁(20	-11493
END	-11494
▁colours	-11495
▁methods	-11496
mine	-11497
▁colder	-11498
NC	-11499
▁PURCHASE	-11500
▁toggle	-11501
▁15"	-11502
▁solves	-11503
Pre	-11504
▁syrup	-11505
▁rabbit	-11506
▁radar	-11507
▁necessity	-11508
▁SHE	-11509
▁scheme	-11510
▁implement	-11511
▁Doctor	-11512
▁Company	-11513
omatic	-11514
ouses	-11515
ividers	-11516
▁beater	-11517
NO	-11518
▁twisted	-11519
▁embarrass	-11520
IFF	-11521
▁dip	-11522
hin	-11523
▁distur	-11524
▁Extra	-11525
▁Siri	-11526
▁radi	-11527
▁SET	-11528
▁merely	-11529
▁Bod	-11530
ws	-11531
umpy	-11532
natural	-11533
▁fellow	-11534
▁problematic	-11535
Plus	-11536
ifes	-11537
▁porch	-11538
▁inconsistent	-11539
▁Garcinia	-11540
▁calendar	-11541
check	-11542
fined	-11543
▁soccer	-11544
▁angry	-11545
▁broom	-11546
▁monopod	-11547
▁72	-11548
▁dess	-11549
▁satellites	-11550
▁jour	-11551
foam	-11552
Fit	-11553
▁advent	-11554
itation	-11555
▁pitch	-11556
▁retired	-11557
▁scanner	-11558
▁Forget	-11559
▁mineral	-11560
▁accomplish	-11561
▁voila	-11562
imilar	-11563
▁Droid	-11564
ottle	-11565
▁proport	-11566
▁Night	-11567
▁standby	-11568
▁ig	-11569
▁teenager	-11570
▁appeal	-11571
drop	-11572
going	-11573
▁positioning	-11574
▁compressed	-11575
▁brews	-11576
▁Terrible	-11577
▁tunes	-11578
▁Certain	-11579
▁Packaging	-11580
fire	-11581
idescreen	-11582
▁earplugs	-11583
cled	-11584
▁moderately	-11585
▁concert	-11586
▁39	-11587
▁Reports	-11588
▁Wide	-11589
▁modify	-11590
ias	-11591
▁Expl	-11592
▁activated	-11593
bone	-11594
GO	-11595
▁STR	-11596
▁Gives	-11597
uk	-11598
▁Buying	-11599
▁ocean	-11600
▁neighborhood	-11601
▁grit	-11602
▁registered	-11603
▁DOA	-11604
▁WATCH	-11605
▁hazard	-11606
▁doubles	-11607
▁Rubber	-11608
uxe	-11609
▁Coby	-11610
▁corks	-11611
vals	-11612
▁Sal	-11613
▁Clo	-11614
▁sunny	-11615
▁posters	-11616
▁tablesp	-11617
▁shops	-11618
▁pig	-11619
▁6,	-11620
rylic	-11621
oted	-11622
▁dissip	-11623
▁plated	-11624
▁PH	-11625
▁&#8220;	-11626
hrs	-11627
static	-11628
▁apron	-11629
▁Chromecast	-11630
icers	-11631
▁remembered	-11632
Fast	-11633
ensington	-11634
▁OC	-11635
▁Device	-11636
▁$100.	-11637
▁weekends	-11638
50,	-11639
▁SAME	-11640
shaped	-11641
▁cheesy	-11642
▁themed	-11643
MO	-11644
▁Wasn	-11645
▁WERE	-11646
From	-11647
▁aftertaste	-11648
▁counting	-11649
▁Raspberry	-11650
▁optimal	-11651
▁bron	-11652
▁dynamic	-11653
▁Valent	-11654
▁eBay	-11655
▁cardio	-11656
NING	-11657
▁engra	-11658
▁clicked	-11659
▁unz	-11660
attling	-11661
acom	-11662
▁processed	-11663
ey	-11664
▁turquoise	-11665
▁disapointed	-11666
▁dissatisfied	-11667
▁baskets	-11668
TO	-11669
▁Saw	-11670
▁INST	-11671
nothing	-11672
▁dat	-11673
▁memories	-11674
rared	-11675
71	-11676
agg	-11677
▁Therm	-11678
▁Kn	-11679
▁seamlessly	-11680
▁owns	-11681
▁decade	-11682
▁climate	-11683
▁array	-11684
:(	-11685
▁faucet	-11686
▁squish	-11687
ribute	-11688
tail	-11689
▁320	-11690
▁480	-11691
VM	-11692
amond	-11693
ucks	-11694
▁quietly	-11695
▁wary	-11696
▁tunnel	-11697
▁XT	-11698
udy	-11699
▁glitter	-11700
▁married	-11701
iping	-11702
▁defeats	-11703
▁fasciitis	-11704
▁Det	-11705
▁Build	-11706
ondition	-11707
ersion	-11708
▁skipping	-11709
▁rainy	-11710
▁tonight	-11711
▁Track	-11712
vin	-11713
▁scoops	-11714
▁streaks	-11715
▁converted	-11716
▁80%	-11717
▁pointer	-11718
/1.	-11719
▁reluctant	-11720
▁24/7	-11721
▁Replacement	-11722
logist	-11723
▁interchange	-11724
namon	-11725
▁Manual	-11726
▁Walk	-11727
En	-11728
▁=)	-11729
rec	-11730
etch	-11731
▁technique	-11732
▁dividers	-11733
color	-11734
▁golden	-11735
▁canning	-11736
▁brass	-11737
▁periodically	-11738
▁theory	-11739
Definitely	-11740
▁Husband	-11741
▁cholesterol	-11742
gressive	-11743
VO	-11744
lies	-11745
).-	-11746
▁Adjust	-11747
▁programmable	-11748
PN	-11749
▁READ	-11750
▁investig	-11751
agine	-11752
▁Built	-11753
▁stockings	-11754
▁caut	-11755
▁1.4	-11756
▁dom	-11757
▁seperate	-11758
uctu	-11759
▁scal	-11760
▁DLP	-11761
▁YES	-11762
▁jig	-11763
▁dehumid	-11764
▁Dans	-11765
▁5-10	-11766
▁calorie	-11767
▁inevit	-11768
▁novelty	-11769
▁fog	-11770
▁circumst	-11771
▁Ass	-11772
▁cellphone	-11773
▁acne	-11774
▁Lastly	-11775
▁drains	-11776
▁Pocket	-11777
▁yield	-11778
▁dense	-11779
▁slender	-11780
▁Cup	-11781
Light	-11782
▁princess	-11783
▁Pay	-11784
▁drinker	-11785
▁named	-11786
▁yo	-11787
▁compares	-11788
cop	-11789
▁magnes	-11790
▁accidental	-11791
▁demon	-11792
▁PIC	-11793
▁Helps	-11794
▁deserve	-11795
focus	-11796
▁tongs	-11797
▁jet	-11798
Pad	-11799
▁curtains	-11800
▁bulkier	-11801
10,	-11802
36	-11803
WR	-11804
▁disaster	-11805
▁bookshelf	-11806
▁centered	-11807
▁beside	-11808
▁immune	-11809
▁recharged	-11810
▁slimmer	-11811
▁identify	-11812
anc	-11813
▁grandchildren	-11814
▁accordingly	-11815
unlike	-11816
arest	-11817
▁GHz	-11818
▁bodies	-11819
▁cuffs	-11820
▁recl	-11821
▁remover	-11822
▁attic	-11823
▁headboard	-11824
▁traveled	-11825
▁Generation	-11826
▁Skull	-11827
Out	-11828
▁3-5	-11829
▁POS	-11830
▁44	-11831
▁voices	-11832
▁Hit	-11833
▁Original	-11834
Having	-11835
▁70-200	-11836
▁Speakers	-11837
bits	-11838
▁spine	-11839
▁reputable	-11840
stock	-11841
▁EXACTLY	-11842
▁science	-11843
▁lanyard	-11844
▁extensively	-11845
ficial	-11846
▁fluctu	-11847
pelled	-11848
▁Adv	-11849
▁marvel	-11850
▁incident	-11851
▁basics	-11852
ISH	-11853
ERO	-11854
▁alkal	-11855
▁basketball	-11856
fing	-11857
▁communicate	-11858
▁pantry	-11859
uing	-11860
▁juices	-11861
▁Depot	-11862
▁Cooler	-11863
▁conveniently	-11864
▁microSD	-11865
Ok	-11866
▁magnesium	-11867
ulse	-11868
▁zipped	-11869
▁coordin	-11870
▁Whether	-11871
iacute	-11872
▁grape	-11873
▁admin	-11874
▁tedious	-11875
▁farther	-11876
▁WRONG	-11877
▁behold	-11878
▁partial	-11879
candy	-11880
sticks	-11881
▁albums	-11882
▁deploy	-11883
▁buckles	-11884
▁powders	-11885
uce	-11886
▁south	-11887
▁Gateway	-11888
▁skills	-11889
oster	-11890
▁cheep	-11891
▁$20.	-11892
▁glide	-11893
▁Cir	-11894
▁jaw	-11895
porate	-11896
▁onboard	-11897
elt	-11898
▁grabbed	-11899
▁magnification	-11900
bad	-11901
▁OMG	-11902
▁VR	-11903
sight	-11904
▁http	-11905
▁EXTREMELY	-11906
▁lifestyle	-11907
▁instrument	-11908
▁braces	-11909
▁tomatoes	-11910
▁Eye	-11911
▁esp	-11912
▁numb	-11913
▁luxury	-11914
,&#34;	-11915
▁Aid	-11916
note	-11917
ellig	-11918
Install	-11919
▁thankfully	-11920
▁slider	-11921
▁Software	-11922
▁streets	-11923
:00	-11924
▁Open	-11925
▁stripes	-11926
▁minimize	-11927
cue	-11928
▁encry	-11929
92	-11930
▁WORTH	-11931
▁ideas	-11932
▁drawstring	-11933
▁iced	-11934
▁Phone	-11935
▁marathon	-11936
ario	-11937
Really	-11938
sd	-11939
▁idle	-11940
▁tolerate	-11941
▁Hol	-11942
FI	-11943
speed	-11944
▁sends	-11945
▁recessed	-11946
▁shattered	-11947
▁keychain	-11948
▁killer	-11949
▁Daughter	-11950
▁Sol	-11951
▁vio	-11952
▁dramatically	-11953
▁lovers	-11954
▁unknown	-11955
MENT	-11956
▁nutri	-11957
designed	-11958
ians	-11959
▁Line	-11960
▁pineapple	-11961
unn	-11962
▁mentioning	-11963
▁intermittent	-11964
camera	-11965
table	-11966
HDMI	-11967
▁Goes	-11968
▁THANK	-11969
▁Mexico	-11970
TY	-11971
▁nasal	-11972
▁gamble	-11973
▁passing	-11974
▁expiration	-11975
NS	-11976
rem	-11977
should	-11978
.**	-11979
AUT	-11980
▁tender	-11981
hour	-11982
▁kern	-11983
▁alt	-11984
▁dusty	-11985
▁presented	-11986
▁(7	-11987
▁capp	-11988
▁portraits	-11989
▁MK	-11990
thin	-11991
▁German	-11992
▁MBP	-11993
▁candle	-11994
Gl	-11995
ERA	-11996
▁alignment	-11997
▁Ball	-11998
▁Cross	-11999
▁born	-12000
▁stellar	-12001
97	-12002
▁discuss	-12003
▁Disk	-12004
▁epis	-12005
▁suffers	-12006
▁accents	-12007
could	-12008
▁originals	-12009
▁Er	-12010
▁toasting	-12011
http	-12012
inge	-12013
▁splash	-12014
▁dud	-12015
oul	-12016
▁jerky	-12017
RW	-12018
tra	-12019
+.	-12020
medium	-12021
▁photographs	-12022
▁deterior	-12023
▁Weight	-12024
Reg	-12025
▁fluke	-12026
360	-12027
▁overflow	-12028
chair	-12029
▁trendy	-12030
sten	-12031
▁mAh	-12032
brid	-12033
AGE	-12034
▁wearable	-12035
▁Incred	-12036
▁footwear	-12037
▁stools	-12038
Made	-12039
▁Skechers	-12040
▁Spring	-12041
underbolt	-12042
tor	-12043
lle	-12044
▁tha	-12045
pany	-12046
▁Hey	-12047
▁Bodum	-12048
▁deduct	-12049
▁discolor	-12050
▁Mediabridge	-12051
▁Prior	-12052
▁recept	-12053
▁inqu	-12054
▁Cra	-12055
lol	-12056
spons	-12057
▁liver	-12058
▁citrus	-12059
▁polarized	-12060
▁5'2	-12061
▁overlook	-12062
▁WA	-12063
▁LP	-12064
▁soapy	-12065
anyo	-12066
▁compass	-12067
▁piercing	-12068
▁endless	-12069
▁nonetheless	-12070
iend	-12071
▁cupcake	-12072
▁;-)	-12073
▁sealing	-12074
▁YEARS	-12075
▁corded	-12076
boots	-12077
▁flannel	-12078
▁meetings	-12079
▁chap	-12080
60;	-12081
BOX	-12082
otto	-12083
once	-12084
▁effortlessly	-12085
▁aroma	-12086
▁drove	-12087
▁assign	-12088
▁forgotten	-12089
ingle	-12090
wal	-12091
▁stripped	-12092
bie	-12093
▁dragging	-12094
give	-12095
▁Cleans	-12096
your	-12097
▁commute	-12098
▁scary	-12099
▁exam	-12100
▁ventilation	-12101
/16	-12102
ott	-12103
▁gradually	-12104
LESS	-12105
▁pivot	-12106
▁crossed	-12107
▁stamped	-12108
▁18-55	-12109
▁maintaining	-12110
▁baseball	-12111
▁firewire	-12112
Did	-12113
VERY	-12114
▁scents	-12115
▁whistle	-12116
▁napkins	-12117
▁Quiet	-12118
▁copied	-12119
▁mailed	-12120
▁Stereo	-12121
▁Def	-12122
▁Point	-12123
▁unravel	-12124
▁revers	-12125
▁dissolve	-12126
▁similarly	-12127
▁coin	-12128
▁sme	-12129
▁hamp	-12130
▁Stre	-12131
▁entered	-12132
▁Sign	-12133
▁IPod	-12134
▁accomod	-12135
▁Kle	-12136
▁Inter	-12137
▁stacked	-12138
▁sque	-12139
oston	-12140
▁Logic	-12141
▁Fabric	-12142
▁calm	-12143
▁%	-12144
▁Noise	-12145
owed	-12146
▁lithium	-12147
▁merchan	-12148
▁cinch	-12149
▁explanation	-12150
▁cravings	-12151
ewel	-12152
▁Facebook	-12153
▁disag	-12154
▁pricy	-12155
▁defic	-12156
▁Oak	-12157
▁lun	-12158
▁1920	-12159
▁thong	-12160
Quality	-12161
.6.	-12162
▁drastic	-12163
▁icing	-12164
▁rail	-12165
▁sided	-12166
▁compensate	-12167
▁Smooth	-12168
▁EF	-12169
rying	-12170
▁brid	-12171
▁Plastic	-12172
▁grows	-12173
▁swimsuit	-12174
▁overheat	-12175
▁ED	-12176
build	-12177
▁resort	-12178
▁framed	-12179
rey	-12180
ller	-12181
▁Fin	-12182
Im	-12183
▁Ide	-12184
gram	-12185
▁pickup	-12186
▁squeak	-12187
▁waxing	-12188
▁reflective	-12189
MT	-12190
▁teach	-12191
▁Cyber	-12192
yrex	-12193
uma	-12194
▁armp	-12195
second	-12196
▁Carhartt	-12197
▁useable	-12198
why	-12199
▁telescope	-12200
ely	-12201
lla	-12202
▁affects	-12203
▁brittle	-12204
▁Anything	-12205
acles	-12206
▁oval	-12207
▁Columbia	-12208
ura	-12209
▁tanks	-12210
▁5'7	-12211
▁wiping	-12212
spond	-12213
▁Earth	-12214
▁External	-12215
gher	-12216
▁honor	-12217
▁glitches	-12218
IES	-12219
achi	-12220
▁wit	-12221
▁attest	-12222
▁Double	-12223
▁pliers	-12224
▁9,	-12225
▁Boots	-12226
▁noticable	-12227
▁RX	-12228
▁Lex	-12229
▁Link	-12230
▁disease	-12231
mod	-12232
▁feathers	-12233
tv	-12234
▁7-	-12235
▁HARD	-12236
5)	-12237
▁muffled	-12238
▁unwanted	-12239
best	-12240
▁Glass	-12241
▁prem	-12242
alf	-12243
Again	-12244
▁collecting	-12245
▁hopeful	-12246
▁DES	-12247
▁sleeps	-12248
▁Sm	-12249
upper	-12250
▁jitter	-12251
▁Feel	-12252
ustain	-12253
UNK	-12254
lery	-12255
▁varying	-12256
ongh	-12257
▁5'6	-12258
▁Smell	-12259
▁8"	-12260
Next	-12261
▁freely	-12262
▁flag	-12263
▁shel	-12264
Read	-12265
mates	-12266
▁variable	-12267
nored	-12268
▁dripping	-12269
▁experimenting	-12270
▁debating	-12271
▁32"	-12272
▁detection	-12273
iox	-12274
▁13.	-12275
▁launch	-12276
▁.....	-12277
▁newborn	-12278
▁unobtrusive	-12279
▁hack	-12280
pace	-12281
indle	-12282
▁Mode	-12283
▁weld	-12284
▁Trying	-12285
▁panasonic	-12286
▁PE	-12287
▁WIFI	-12288
abl	-12289
▁QC	-12290
▁crop	-12291
irect	-12292
orex	-12293
▁USPS	-12294
!!!!!!!	-12295
▁relieved	-12296
▁springs	-12297
Perfect	-12298
loading	-12299
▁$99	-12300
▁Completely	-12301
▁scam	-12302
▁induction	-12303
iment	-12304
▁embarras	-12305
▁classroom	-12306
▁rectangular	-12307
▁playlists	-12308
▁therapist	-12309
charged	-12310
▁browse	-12311
road	-12312
vidia	-12313
▁eats	-12314
▁bru	-12315
▁reuse	-12316
▁shipper	-12317
▁gaps	-12318
▁SHOULD	-12319
amaged	-12320
atives	-12321
▁efficiency	-12322
▁probe	-12323
▁blacks	-12324
▁ignored	-12325
▁infuser	-12326
▁3000	-12327
▁exit	-12328
▁Cole	-12329
imple	-12330
count	-12331
▁criteria	-12332
▁titanium	-12333
▁xmas	-12334
▁&#10	-12335
▁bio	-12336
tless	-12337
▁Fore	-12338
▁Secondly	-12339
owing	-12340
▁Victor	-12341
▁displaying	-12342
▁winters	-12343
yard	-12344
ady	-12345
▁brim	-12346
▁Explorer	-12347
TL	-12348
active	-12349
sur	-12350
▁trails	-12351
▁wallets	-12352
,,,	-12353
▁UI	-12354
▁Cant	-12355
scill	-12356
ormous	-12357
gp	-12358
itz	-12359
▁Direc	-12360
▁controlling	-12361
▁Cre	-12362
▁subt	-12363
▁7&#34;	-12364
AW	-12365
▁follows	-12366
▁pouches	-12367
eks	-12368
▁ER	-12369
duty	-12370
urchased	-12371
11;	-12372
▁clamps	-12373
▁Dirt	-12374
▁praise	-12375
▁tangle	-12376
arts	-12377
itly	-12378
▁restrict	-12379
turn	-12380
▁Button	-12381
FUL	-12382
▁Bon	-12383
▁begun	-12384
▁Kensington	-12385
▁minimalist	-12386
▁apolog	-12387
▁mortar	-12388
VICE	-12389
vably	-12390
▁Macs	-12391
▁jun	-12392
▁PLUS	-12393
▁recognition	-12394
▁prolong	-12395
▁BOTH	-12396
▁boss	-12397
▁vacuumed	-12398
▁grinders	-12399
▁Australia	-12400
▁CLEAN	-12401
▁iPhones	-12402
▁descriptions	-12403
▁engineered	-12404
TURN	-12405
▁flipped	-12406
▁spoiled	-12407
▁barrel	-12408
open	-12409
reek	-12410
▁WHO	-12411
▁capt	-12412
▁clin	-12413
HE	-12414
▁rods	-12415
▁responsible	-12416
▁MD	-12417
100.	-12418
oudy	-12419
▁eco	-12420
▁7200	-12421
ATED	-12422
win	-12423
▁beneath	-12424
▁Trade	-12425
▁lifted	-12426
Conclusion	-12427
▁HEPA	-12428
▁wakes	-12429
fitting	-12430
▁Adobe	-12431
▁busted	-12432
Ar	-12433
▁Jam	-12434
▁spectrum	-12435
▁loaves	-12436
▁Pill	-12437
▁Art	-12438
▁innov	-12439
.'	-12440
▁bout	-12441
aton	-12442
door	-12443
▁Anyways	-12444
kers	-12445
▁HS	-12446
asps	-12447
harp	-12448
▁reflection	-12449
▁OP	-12450
▁spong	-12451
▁exagger	-12452
▁intensity	-12453
▁5'3	-12454
wave	-12455
▁houses	-12456
▁Maker	-12457
available	-12458
▁limitation	-12459
▁podcasts	-12460
▁Lovely	-12461
▁boxed	-12462
▁highway	-12463
▁bound	-12464
▁beverages	-12465
▁98	-12466
▁Boston	-12467
▁$1000	-12468
▁Prov	-12469
ushing	-12470
▁Italian	-12471
▁HDX	-12472
▁symbol	-12473
▁backpacks	-12474
▁grater	-12475
▁fees	-12476
▁occurs	-12477
▁Brew	-12478
▁geek	-12479
▁nest	-12480
▁adhere	-12481
▁realizing	-12482
crew	-12483
stars	-12484
▁2011.	-12485
▁installs	-12486
ami	-12487
▁earned	-12488
ummary	-12489
IX	-12490
▁sparkles	-12491
▁battle	-12492
▁spit	-12493
▁outwe	-12494
▁Cream	-12495
GR	-12496
ulator	-12497
▁Id	-12498
▁SOUND	-12499
▁#2	-12500
▁Enter	-12501
▁fiddling	-12502
▁TA	-12503
lines	-12504
▁$250	-12505
Sha	-12506
oj	-12507
20.	-12508
onghi	-12509
▁analy	-12510
▁Crucial	-12511
▁troubles	-12512
Before	-12513
▁Count	-12514
▁combine	-12515
▁meters	-12516
▁TF	-12517
▁underwire	-12518
CKS	-12519
send	-12520
▁subsequ	-12521
▁impressions	-12522
Canon	-12523
▁rotates	-12524
▁muted	-12525
▁suspend	-12526
▁mand	-12527
eeze	-12528
▁12.	-12529
▁authorized	-12530
▁oat	-12531
▁assembling	-12532
▁refuses	-12533
orial	-12534
▁transmission	-12535
ungsten	-12536
▁whitening	-12537
▁scrubs	-12538
FORTABLE	-12539
▁notebooks	-12540
▁acrylic	-12541
▁visually	-12542
▁Corel	-12543
▁contract	-12544
▁coun	-12545
bell	-12546
icker	-12547
▁calibrate	-12548
▁chopper	-12549
▁tremendously	-12550
▁prescribed	-12551
▁Thinking	-12552
▁accidently	-12553
▁ANOTHER	-12554
▁Horrible	-12555
▁extent	-12556
▁diabetic	-12557
)*	-12558
▁:-(	-12559
▁Wall	-12560
▁encounter	-12561
▁Magn	-12562
fish	-12563
▁$90	-12564
▁cooled	-12565
▁Feb	-12566
▁outdated	-12567
Audio	-12568
▁controllers	-12569
abol	-12570
ixed	-12571
▁solely	-12572
▁seeking	-12573
allel	-12574
▁fries	-12575
▁flipping	-12576
lite	-12577
▁epilator	-12578
▁girly	-12579
ancing	-12580
▁readable	-12581
▁idiot	-12582
onal	-12583
▁scarves	-12584
/1	-12585
▁utter	-12586
▁substance	-12587
oral	-12588
▁obnox	-12589
sometimes	-12590
▁threaded	-12591
▁outrage	-12592
▁invested	-12593
▁softener	-12594
brow	-12595
▁SPE	-12596
▁esc	-12597
▁rag	-12598
▁Clark	-12599
▁BEAUT	-12600
▁sporty	-12601
▁patients	-12602
QU	-12603
▁swipe	-12604
▁drained	-12605
leather	-12606
▁Bio	-12607
▁WEAR	-12608
mar	-12609
▁dar	-12610
▁tatt	-12611
sleep	-12612
▁enables	-12613
▁4-6	-12614
▁CM	-12615
▁sprays	-12616
ddy	-12617
hope	-12618
adjust	-12619
▁DJ	-12620
▁accompany	-12621
AVE	-12622
▁Baby	-12623
▁climbing	-12624
▁whip	-12625
▁correspond	-12626
▁Nevertheless	-12627
▁rollers	-12628
acell	-12629
ception	-12630
▁freedom	-12631
▁Originally	-12632
9.00	-12633
▁desert	-12634
▁nicks	-12635
mat	-12636
▁RS	-12637
LC	-12638
idelity	-12639
▁Arch	-12640
▁failures	-12641
▁severely	-12642
▁Nope	-12643
▁tolerable	-12644
▁percentage	-12645
▁Liked	-12646
GER	-12647
▁disgusting	-12648
▁homes	-12649
▁factors	-12650
Let	-12651
ilde	-12652
▁pric	-12653
▁heaters	-12654
▁Contact	-12655
▁payed	-12656
▁copying	-12657
▁chi	-12658
▁Kids	-12659
▁uninstall	-12660
▁accepted	-12661
tedly	-12662
▁MAKE	-12663
▁reapp	-12664
▁cautious	-12665
▁meantime	-12666
▁creamy	-12667
▁photographers	-12668
iders	-12669
▁assort	-12670
cony	-12671
▁frayed	-12672
▁Que	-12673
▁ANYTHING	-12674
▁mitt	-12675
▁vehicles	-12676
ugs	-12677
ggers	-12678
▁eSATA	-12679
cco	-12680
▁KVM	-12681
▁tomato	-12682
▁Except	-12683
▁finer	-12684
▁midrange	-12685
▁pray	-12686
workers	-12687
Le	-12688
volution	-12689
▁warnings	-12690
▁infections	-12691
▁dvds	-12692
▁clipped	-12693
▁ergonomics	-12694
▁seg	-12695
paper	-12696
▁tuned	-12697
▁OLD	-12698
!&#34;	-12699
▁bios	-12700
▁Pop	-12701
appointing	-12702
▁sustain	-12703
TING	-12704
▁turtle	-12705
▁hates	-12706
▁dramatic	-12707
▁spins	-12708
▁startup	-12709
▁alittle	-12710
▁seated	-12711
ghz	-12712
▁whites	-12713
▁Nicely	-12714
▁embarrassed	-12715
▁prong	-12716
▁collects	-12717
▁herbal	-12718
▁instep	-12719
▁simpl	-12720
▁Tide	-12721
▁rule	-12722
beam	-12723
uset	-12724
reader	-12725
▁strictly	-12726
ilver	-12727
▁killed	-12728
▁8-10	-12729
▁Comm	-12730
pson	-12731
handed	-12732
▁congest	-12733
▁functioned	-12734
DA	-12735
▁`	-12736
▁ranges	-12737
▁Fitbit	-12738
▁dealt	-12739
▁DIFF	-12740
aq	-12741
▁ack	-12742
▁approved	-12743
pered	-12744
▁condensation	-12745
never	-12746
▁unpacked	-12747
:30	-12748
▁Volume	-12749
▁fabrics	-12750
▁Stra	-12751
▁carb	-12752
raction	-12753
offs	-12754
▁nood	-12755
&#62;	-12756
lster	-12757
▁disagree	-12758
▁England	-12759
▁EL	-12760
▁Gets	-12761
▁detach	-12762
▁nicest	-12763
urable	-12764
▁Father	-12765
OUD	-12766
▁Ware	-12767
▁drilled	-12768
▁poin	-12769
Bu	-12770
▁jud	-12771
▁buddy	-12772
▁Dolby	-12773
acity	-12774
▁ads	-12775
650	-12776
pine	-12777
▁intent	-12778
advert	-12779
front	-12780
▁cuter	-12781
▁icons	-12782
▁Furthermore	-12783
IONS	-12784
▁vegan	-12785
▁deceiving	-12786
▁trapped	-12787
▁itching	-12788
▁crunch	-12789
Case	-12790
▁educ	-12791
▁cosmetic	-12792
mint	-12793
▁separation	-12794
▁RETURN	-12795
▁DP	-12796
▁APC	-12797
▁delet	-12798
▁rinsing	-12799
▁advantages	-12800
▁25%	-12801
▁discard	-12802
▁tossing	-12803
andex	-12804
▁routes	-12805
▁attack	-12806
▁swapped	-12807
▁Mountain	-12808
▁diving	-12809
▁Whenever	-12810
▁assortment	-12811
tub	-12812
▁aesthetically	-12813
▁containing	-12814
Apple	-12815
oline	-12816
▁hardest	-12817
▁BEWARE	-12818
▁Hanes	-12819
▁cel	-12820
Man	-12821
▁snor	-12822
▁Lodge	-12823
▁float	-12824
▁ASAP	-12825
iano	-12826
▁Channel	-12827
▁stuffing	-12828
▁orthotics	-12829
▁silverware	-12830
BTW	-12831
▁Ban	-12832
▁environments	-12833
▁paperwork	-12834
▁pud	-12835
▁ov	-12836
mmers	-12837
frotto	-12838
/11	-12839
▁guaranteed	-12840
▁APP	-12841
▁Satellite	-12842
inja	-12843
▁advertized	-12844
▁circumstances	-12845
Had	-12846
uesday	-12847
structed	-12848
▁saus	-12849
oured	-12850
▁Chocolate	-12851
issed	-12852
hett	-12853
stuff	-12854
NET	-12855
▁$10.	-12856
berland	-12857
▁Avoid	-12858
▁twisting	-12859
HER	-12860
▁burr	-12861
▁carbs	-12862
▁cushy	-12863
▁clasps	-12864
▁frills	-12865
alous	-12866
▁hiss	-12867
▁albeit	-12868
▁(12	-12869
▁dre	-12870
between	-12871
write	-12872
▁54	-12873
▁30%	-12874
▁Currently	-12875
▁acce	-12876
▁pry	-12877
▁folio	-12878
▁overl	-12879
▁125	-12880
▁utensil	-12881
▁Know	-12882
▁PDF	-12883
Shot	-12884
▁graduation	-12885
wired	-12886
passed	-12887
▁cloudy	-12888
▁shoddy	-12889
▁surprises	-12890
RO	-12891
▁Delivered	-12892
▁crowd	-12893
appro	-12894
etime	-12895
▁doubled	-12896
▁ber	-12897
▁blink	-12898
lements	-12899
▁patent	-12900
▁incorrectly	-12901
▁rom	-12902
▁certified	-12903
▁rusted	-12904
hinest	-12905
▁Range	-12906
▁Mir	-12907
▁13"	-12908
▁ginger	-12909
▁Running	-12910
orous	-12911
▁addressed	-12912
Log	-12913
▁booted	-12914
▁Universal	-12915
▁awsome	-12916
▁illustr	-12917
▁Kir	-12918
Cam	-12919
▁skimp	-12920
▁BS	-12921
▁Wah	-12922
inkle	-12923
▁stinks	-12924
▁BEAUTIF	-12925
nut	-12926
ooking	-12927
TURE	-12928
▁Taking	-12929
▁Airport	-12930
elve	-12931
▁Sau	-12932
▁unbear	-12933
▁demo	-12934
▁particle	-12935
▁lem	-12936
▁garmin	-12937
▁6-8	-12938
iger	-12939
▁parking	-12940
tex	-12941
▁$14	-12942
erspir	-12943
▁alive	-12944
▁retina	-12945
▁hookup	-12946
▁marketed	-12947
▁conference	-12948
▁preparing	-12949
▁DEFIN	-12950
▁breakage	-12951
▁WASTE	-12952
▁cheapo	-12953
sponsive	-12954
▁defiantly	-12955
▁Assembly	-12956
ti	-12957
▁5'5	-12958
cases	-12959
ocks	-12960
▁detached	-12961
feet	-12962
▁Certainly	-12963
▁beneficial	-12964
▁oddly	-12965
▁2/3	-12966
▁Pink	-12967
▁melting	-12968
▁seasons	-12969
▁nightstand	-12970
Back	-12971
▁Charges	-12972
▁tactile	-12973
▁2"	-12974
▁resetting	-12975
▁kernels	-12976
▁5'8	-12977
lab	-12978
epro	-12979
▁Toy	-12980
/2012	-12981
▁biggie	-12982
▁jammed	-12983
▁issued	-12984
▁inclined	-12985
▁woods	-12986
▁glides	-12987
▁sonic	-12988
▁bagg	-12989
▁alas	-12990
▁ger	-12991
west	-12992
▁Cin	-12993
▁understood	-12994
lig	-12995
▁circles	-12996
▁splur	-12997
▁messes	-12998
▁binding	-12999
run	-13000
▁LOOKS	-13001
effective	-13002
▁agent	-13003
Samsung	-13004
▁sufficiently	-13005
▁Shame	-13006
▁kha	-13007
icular	-13008
▁Citizen	-13009
▁Sirius	-13010
▁DirecTV	-13011
▁MONTH	-13012
▁Graph	-13013
110	-13014
▁avoided	-13015
▁antique	-13016
▁subscribe	-13017
agle	-13018
▁mens	-13019
▁lame	-13020
irable	-13021
▁calibrated	-13022
▁RES	-13023
▁MOST	-13024
person	-13025
hetti	-13026
▁jazz	-13027
▁LIGHT	-13028
▁streams	-13029
79	-13030
▁redes	-13031
adays	-13032
▁Come	-13033
▁collector	-13034
▁KEE	-13035
▁desperate	-13036
bus	-13037
▁raspberry	-13038
▁DOWN	-13039
▁ISP	-13040
▁stiffness	-13041
▁manageable	-13042
▁shortcut	-13043
▁clutch	-13044
▁killing	-13045
ican	-13046
▁HAND	-13047
▁crush	-13048
▁grasp	-13049
▁Dan	-13050
Cont	-13051
▁Antenna	-13052
▁dime	-13053
▁Santa	-13054
▁RPM	-13055
▁funnel	-13056
REEN	-13057
▁Cambogia	-13058
uggish	-13059
NY	-13060
▁99%	-13061
▁boxers	-13062
▁servings	-13063
▁Inexpensive	-13064
▁Truly	-13065
▁Living	-13066
▁Da	-13067
loved	-13068
▁Sanyo	-13069
▁private	-13070
yo	-13071
▁theatre	-13072
▁gears	-13073
usually	-13074
▁Function	-13075
▁anxious	-13076
▁accidents	-13077
▁hr	-13078
▁MIN	-13079
▁transit	-13080
BM	-13081
ICS	-13082
orse	-13083
▁Lock	-13084
▁conflic	-13085
▁reminder	-13086
▁smashed	-13087
▁Thats	-13088
▁datab	-13089
▁profession	-13090
▁550	-13091
aghetti	-13092
ften	-13093
▁readout	-13094
▁fingert	-13095
▁Dress	-13096
▁chewed	-13097
▁dents	-13098
▁incompat	-13099
oned	-13100
▁Razor	-13101
▁disco	-13102
▁List	-13103
▁Bur	-13104
▁DONT	-13105
▁draining	-13106
▁weighted	-13107
undy	-13108
▁Bear	-13109
▁Decided	-13110
▁windy	-13111
▁commercials	-13112
▁compost	-13113
Me	-13114
▁outg	-13115
▁FX	-13116
▁decal	-13117
bling	-13118
▁mileage	-13119
▁believed	-13120
▁neon	-13121
Product	-13122
▁650	-13123
▁inseam	-13124
▁runners	-13125
atable	-13126
▁fps	-13127
▁TRI	-13128
ursday	-13129
▁attracted	-13130
comfortable	-13131
▁belong	-13132
▁sear	-13133
▁stiffer	-13134
▁insp	-13135
▁needless	-13136
ldom	-13137
graded	-13138
uccino	-13139
▁terrain	-13140
CI	-13141
▁NT	-13142
first	-13143
▁copies	-13144
▁Working	-13145
▁beginners	-13146
▁Hands	-13147
▁gut	-13148
▁pork	-13149
▁fuller	-13150
▁iv	-13151
arely	-13152
▁Zero	-13153
▁oatmeal	-13154
.5)	-13155
▁Nord	-13156
▁cinnamon	-13157
▁Half	-13158
▁cookers	-13159
▁overkill	-13160
▁Shirt	-13161
▁printers	-13162
adequate	-13163
▁divider	-13164
38	-13165
ni	-13166
kind	-13167
▁DSC	-13168
▁discoura	-13169
▁aesthetics	-13170
42	-13171
.***	-13172
▁sting	-13173
▁Enough	-13174
▁compete	-13175
▁&#8211;	-13176
frame	-13177
culine	-13178
▁cage	-13179
▁coil	-13180
▁assure	-13181
▁MAT	-13182
▁Whatever	-13183
▁buggy	-13184
▁bedtime	-13185
aze	-13186
ii	-13187
▁sucker	-13188
▁Park	-13189
▁genius	-13190
omer	-13191
▁Aqu	-13192
▁Sizing	-13193
▁restocking	-13194
acts	-13195
▁Crystal	-13196
▁FPS	-13197
▁applies	-13198
▁Blackberry	-13199
brainer	-13200
limit	-13201
▁decreased	-13202
▁$600	-13203
▁believer	-13204
▁PLEASE	-13205
▁vanity	-13206
▁Bean	-13207
▁ourselves	-13208
▁poke	-13209
aky	-13210
▁nuis	-13211
▁Sch	-13212
▁filtering	-13213
▁rever	-13214
urchase	-13215
▁cramped	-13216
▁fingern	-13217
▁gest	-13218
▁timepiece	-13219
▁flaps	-13220
▁creep	-13221
▁discounted	-13222
Both	-13223
▁emptying	-13224
▁stationary	-13225
gundy	-13226
▁independent	-13227
abi	-13228
EDI	-13229
▁hikes	-13230
▁CRT	-13231
▁PUT	-13232
▁seed	-13233
▁weaker	-13234
▁Inside	-13235
▁BEEN	-13236
▁lays	-13237
▁scient	-13238
▁intermittently	-13239
;&#15	-13240
▁boobs	-13241
▁reciever	-13242
30.	-13243
▁discharge	-13244
▁binder	-13245
zed	-13246
breaker	-13247
▁eyep	-13248
▁expanded	-13249
ibble	-13250
▁infrared	-13251
▁30-	-13252
▁AUX	-13253
▁hyper	-13254
▁2006	-13255
force	-13256
▁chilly	-13257
▁servers	-13258
fps	-13259
▁cutest	-13260
▁spinner	-13261
▁conform	-13262
metal	-13263
▁social	-13264
.........	-13265
▁toothbrushes	-13266
▁suprised	-13267
▁CASE	-13268
▁weakness	-13269
OWER	-13270
▁sluggish	-13271
▁mobility	-13272
▁nipp	-13273
▁hots	-13274
▁responding	-13275
heart	-13276
▁Pav	-13277
▁strawberry	-13278
ync	-13279
▁questionable	-13280
Somet	-13281
▁Filter	-13282
▁sooooo	-13283
aska	-13284
ntilde	-13285
▁bagless	-13286
▁Rose	-13287
▁staple	-13288
▁tet	-13289
Int	-13290
▁splatter	-13291
▁towers	-13292
▁blended	-13293
76	-13294
▁SER	-13295
▁accessing	-13296
▁450	-13297
▁Powers	-13298
perately	-13299
▁Thin	-13300
▁15-20	-13301
▁reminded	-13302
▁widescreen	-13303
▁enamel	-13304
▁fifth	-13305
▁Zip	-13306
older	-13307
▁distribution	-13308
▁stubble	-13309
▁1/2"	-13310
Has	-13311
▁hunger	-13312
▁Transformer	-13313
agers	-13314
▁sacrifice	-13315
Comp	-13316
▁whats	-13317
▁Pet	-13318
▁Third	-13319
▁definetly	-13320
-14	-13321
▁guards	-13322
▁privacy	-13323
▁valid	-13324
▁enormous	-13325
page	-13326
▁compre	-13327
▁PM	-13328
1/2	-13329
▁lies	-13330
▁exped	-13331
▁stubborn	-13332
▁fishy	-13333
▁disturbing	-13334
▁curvy	-13335
350	-13336
▁Edition	-13337
▁apprehensive	-13338
▁manuals	-13339
▁alerts	-13340
▁advertises	-13341
▁bronze	-13342
▁exciting	-13343
****************	-13344
batim	-13345
▁Ref	-13346
▁fund	-13347
sonic	-13348
▁Expect	-13349
▁hamper	-13350
▁reprodu	-13351
▁rechargable	-13352
chable	-13353
▁lifts	-13354
ugged	-13355
▁yummy	-13356
▁misplaced	-13357
▁Surprisingly	-13358
ICH	-13359
▁Buff	-13360
▁releases	-13361
▁lowered	-13362
iors	-13363
▁disadv	-13364
▁offset	-13365
▁recomm	-13366
porary	-13367
▁mildew	-13368
Small	-13369
▁teas	-13370
▁theres	-13371
▁improving	-13372
▁oscill	-13373
▁ATI	-13374
▁tid	-13375
gypt	-13376
▁phase	-13377
▁electro	-13378
▁Devil	-13379
▁RECE	-13380
▁remarkably	-13381
▁Eco	-13382
▁horm	-13383
imedia	-13384
▁latte	-13385
▁stepping	-13386
AIN	-13387
▁FEEL	-13388
▁leftovers	-13389
▁combinations	-13390
▁discreet	-13391
rim	-13392
▁Lite	-13393
▁bundled	-13394
▁posture	-13395
▁routing	-13396
▁duration	-13397
▁cyl	-13398
actually	-13399
▁inflamm	-13400
xygen	-13401
▁3"	-13402
Char	-13403
▁1.8	-13404
iendo	-13405
VS	-13406
▁anticipate	-13407
Using	-13408
▁fuel	-13409
▁reinforced	-13410
close	-13411
▁fibers	-13412
▁disassemble	-13413
▁appropriately	-13414
▁treats	-13415
▁shrinkage	-13416
Clean	-13417
▁loosened	-13418
ighter	-13419
oofers	-13420
iful	-13421
cture	-13422
▁dented	-13423
▁sake	-13424
▁projection	-13425
▁75%	-13426
▁teaspoon	-13427
▁convection	-13428
▁development	-13429
▁nu	-13430
▁JUNK	-13431
▁cutouts	-13432
▁ect	-13433
▁changer	-13434
▁Pictures	-13435
▁minerals	-13436
▁prefers	-13437
▁Va	-13438
mitter	-13439
▁oral	-13440
▁rattling	-13441
Gear	-13442
▁countries	-13443
▁unbelievably	-13444
▁solder	-13445
/2.8	-13446
▁**	-13447
Touch	-13448
▁Pi	-13449
▁seldom	-13450
▁screwing	-13451
SI	-13452
ride	-13453
▁Nes	-13454
itives	-13455
▁diagnosed	-13456
▁answers	-13457
vior	-13458
▁Prom	-13459
washing	-13460
▁substantially	-13461
shot	-13462
").	-13463
ports	-13464
▁builds	-13465
ibe	-13466
start	-13467
cost	-13468
▁LAST	-13469
▁trap	-13470
▁films	-13471
▁volts	-13472
▁treatments	-13473
uel	-13474
▁Vitam	-13475
igo	-13476
▁obsc	-13477
74	-13478
▁dy	-13479
▁grid	-13480
▁Vegas	-13481
▁Duo	-13482
▁rhinest	-13483
chargeable	-13484
▁coupled	-13485
▁grandma	-13486
▁Imagine	-13487
▁Firewire	-13488
▁Diamond	-13489
▁collapse	-13490
maker	-13491
▁2.8	-13492
▁Street	-13493
▁spaced	-13494
▁wattage	-13495
▁Metal	-13496
▁SUPP	-13497
▁driven	-13498
.1)	-13499
▁HOR	-13500
▁chunk	-13501
▁nuisance	-13502
▁Nik	-13503
▁mobo	-13504
▁Stream	-13505
▁grandkids	-13506
▁KE	-13507
CO	-13508
▁Theater	-13509
▁CAMERA	-13510
▁energ	-13511
dp	-13512
New	-13513
otein	-13514
▁Started	-13515
asted	-13516
▁hides	-13517
▁jelly	-13518
▁gigabit	-13519
▁grout	-13520
▁dialog	-13521
▁heading	-13522
▁sporting	-13523
▁LA	-13524
▁density	-13525
▁Value	-13526
▁Energy	-13527
Cup	-13528
Ghz	-13529
▁Fresh	-13530
Off	-13531
▁navigating	-13532
▁Foot	-13533
▁recycle	-13534
▁errands	-13535
▁rewind	-13536
▁bicy	-13537
▁100%.	-13538
▁forcing	-13539
▁foreign	-13540
▁Adidas	-13541
▁COMFORTABLE	-13542
▁Row	-13543
▁usability	-13544
▁PT	-13545
▁gels	-13546
▁Sling	-13547
umba	-13548
▁laug	-13549
▁suc	-13550
▁relations	-13551
super	-13552
▁timers	-13553
▁stories	-13554
▁quantities	-13555
▁Pres	-13556
▁acknow	-13557
96	-13558
▁burners	-13559
▁recon	-13560
▁masculine	-13561
▁tam	-13562
▁Organ	-13563
▁FT	-13564
▁95%	-13565
*****	-13566
omeday	-13567
▁counters	-13568
▁tattoo	-13569
▁interchangeable	-13570
▁presentations	-13571
Ph	-13572
▁syncing	-13573
▁sam	-13574
▁mistakes	-13575
rac	-13576
▁fired	-13577
▁earpieces	-13578
▁farm	-13579
▁Altec	-13580
Super	-13581
▁cleanly	-13582
▁pedometer	-13583
▁boils	-13584
▁CAT	-13585
▁shadow	-13586
make	-13587
Large	-13588
▁AWAY	-13589
▁exercises	-13590
▁vibrating	-13591
].	-13592
▁).	-13593
▁dice	-13594
▁breads	-13595
Everything	-13596
▁NC	-13597
▁WRT	-13598
▁coolest	-13599
78	-13600
mouse	-13601
charging	-13602
NOTE	-13603
▁Instant	-13604
▁undersh	-13605
▁1/4"	-13606
▁skype	-13607
▁recognizes	-13608
Need	-13609
▁expandable	-13610
▁nick	-13611
▁ridges	-13612
▁ome	-13613
▁positives	-13614
▁nickel	-13615
▁creases	-13616
▁musical	-13617
▁dissap	-13618
▁sucking	-13619
▁LARGE	-13620
▁community	-13621
WE	-13622
until	-13623
▁vibrations	-13624
▁feeding	-13625
▁accommod	-13626
▁Pa	-13627
▁enhanced	-13628
Keep	-13629
▁Koss	-13630
▁Afric	-13631
umbling	-13632
flops	-13633
▁Rolex	-13634
▁maxim	-13635
▁Cow	-13636
▁Bunn	-13637
▁Navy	-13638
▁BEAUTIFUL	-13639
▁laminate	-13640
dress	-13641
▁flips	-13642
▁hoops	-13643
▁detract	-13644
▁ruining	-13645
▁Wave	-13646
▁sapp	-13647
▁curb	-13648
▁Silic	-13649
jo	-13650
▁Money	-13651
airy	-13652
▁bluray	-13653
▁upwards	-13654
About	-13655
arian	-13656
▁confusion	-13657
▁Wacom	-13658
▁apt	-13659
▁bose	-13660
▁computing	-13661
mostly	-13662
different	-13663
▁Lat	-13664
▁Zagg	-13665
▁freshly	-13666
▁5000	-13667
▁merchant	-13668
eral	-13669
▁alkaline	-13670
▁Lif	-13671
sers	-13672
need	-13673
▁kitty	-13674
▁xx	-13675
▁sauces	-13676
▁modified	-13677
olds	-13678
estruct	-13679
▁Believe	-13680
least	-13681
▁PLAY	-13682
▁lake	-13683
▁jumps	-13684
▁aesthetic	-13685
▁LOUD	-13686
▁marker	-13687
▁jittery	-13688
▁intensive	-13689
wed	-13690
remo	-13691
▁beeping	-13692
&#34;)	-13693
det	-13694
▁flooring	-13695
avid	-13696
▁MSI	-13697
▁planet	-13698
▁Asian	-13699
▁iR	-13700
▁nub	-13701
astes	-13702
atonin	-13703
VR	-13704
▁Ang	-13705
umination	-13706
▁mast	-13707
ibilities	-13708
▁favorable	-13709
▁nutrients	-13710
▁retrieve	-13711
▁SEE	-13712
ssil	-13713
▁lettering	-13714
▁mountains	-13715
COM	-13716
▁fiddle	-13717
▁difficulties	-13718
▁Rain	-13719
▁bouncing	-13720
▁outweigh	-13721
▁$75	-13722
▁preferences	-13723
ito	-13724
▁Disc	-13725
stri	-13726
▁XPS	-13727
▁island	-13728
oks	-13729
▁multiv	-13730
▁scraping	-13731
PRO	-13732
imen	-13733
▁MAY	-13734
▁smelly	-13735
▁WITHOUT	-13736
▁Tuesday	-13737
▁transmitters	-13738
▁Griffin	-13739
▁tilted	-13740
yet	-13741
sr	-13742
▁wheelchair	-13743
▁vibrator	-13744
rete	-13745
▁Products	-13746
▁undamaged	-13747
▁Extract	-13748
file	-13749
arding	-13750
rings	-13751
▁GF	-13752
▁64-	-13753
▁Cleaner	-13754
▁habits	-13755
▁Ket	-13756
ishi	-13757
▁strawberries	-13758
▁Storage	-13759
▁crispy	-13760
▁disting	-13761
Drive	-13762
▁avoiding	-13763
CP	-13764
▁IE	-13765
nels	-13766
▁1.0	-13767
limited	-13768
▁SURE	-13769
Bought	-13770
iate	-13771
▁becu	-13772
▁Previously	-13773
▁SK	-13774
▁nerve	-13775
▁organizing	-13776
▁shams	-13777
▁Technology	-13778
▁Omron	-13779
battery	-13780
mmm	-13781
▁Market	-13782
▁5/5	-13783
▁tripods	-13784
▁Ram	-13785
▁6"	-13786
2000	-13787
▁ZERO	-13788
▁Foods	-13789
TI	-13790
3000	-13791
Size	-13792
▁eager	-13793
▁trailer	-13794
ollen	-13795
▁behavior	-13796
▁Ended	-13797
▁competing	-13798
Pan	-13799
▁calidad	-13800
▁spaghetti	-13801
▁Warranty	-13802
▁effortless	-13803
▁engagement	-13804
workout	-13805
▁daytime	-13806
▁instruments	-13807
▁4/5	-13808
▁Kin	-13809
▁Syn	-13810
▁snorke	-13811
▁PERFECTLY	-13812
max	-13813
▁trimmed	-13814
▁Jewel	-13815
eled	-13816
▁NOTE	-13817
ACH	-13818
▁escape	-13819
▁hyg	-13820
alone	-13821
31	-13822
smart	-13823
▁Cables	-13824
upperware	-13825
▁freaking	-13826
▁accessed	-13827
▁downward	-13828
▁Returning	-13829
professional	-13830
▁temporarily	-13831
▁consume	-13832
▁Imm	-13833
▁Teva	-13834
▁Purchase	-13835
▁dub	-13836
▁alike	-13837
▁Thermos	-13838
venient	-13839
uting	-13840
iliary	-13841
▁Worst	-13842
▁visited	-13843
▁Depending	-13844
▁Bay	-13845
▁dome	-13846
▁PICTURE	-13847
▁hp	-13848
▁Guide	-13849
▁jealous	-13850
▁FIN	-13851
▁Pric	-13852
▁peripherals	-13853
Was	-13854
▁backside	-13855
▁competitor	-13856
RY	-13857
▁abras	-13858
▁replied	-13859
bas	-13860
▁cooktop	-13861
wake	-13862
▁cutout	-13863
▁paddle	-13864
▁Ut	-13865
iw	-13866
▁crashing	-13867
RESS	-13868
▁inadequate	-13869
▁chronograph	-13870
▁DAC	-13871
▁Army	-13872
▁Remo	-13873
▁dehumidifier	-13874
▁weave	-13875
89	-13876
▁IMHO	-13877
▁lawn	-13878
▁Electric	-13879
▁Gift	-13880
▁hydr	-13881
▁flawed	-13882
▁ABS	-13883
flon	-13884
▁vibrate	-13885
▁ovens	-13886
▁passive	-13887
▁CE	-13888
▁TRY	-13889
▁acoust	-13890
▁markers	-13891
▁parallel	-13892
▁gunk	-13893
istics	-13894
▁Kenwood	-13895
DC	-13896
ku	-13897
amily	-13898
▁fortunately	-13899
▁bloat	-13900
▁Pin	-13901
▁FULL	-13902
ARK	-13903
cals	-13904
▁canned	-13905
.99	-13906
IFE	-13907
IGN	-13908
▁restaurants	-13909
▁zones	-13910
▁mere	-13911
▁Vo	-13912
▁crease	-13913
▁slouch	-13914
vant	-13915
▁absorbed	-13916
▁pointless	-13917
onda	-13918
▁buffer	-13919
worked	-13920
▁spikes	-13921
▁ie	-13922
▁snapping	-13923
▁enjoyment	-13924
ERFUL	-13925
▁kicking	-13926
▁hind	-13927
▁chipset	-13928
▁olds	-13929
▁boxer	-13930
▁rails	-13931
osis	-13932
▁20-30	-13933
▁masks	-13934
thought	-13935
▁OW	-13936
▁designers	-13937
▁Foscam	-13938
▁borrowed	-13939
ometers	-13940
▁THANKS	-13941
▁seasoning	-13942
▁explaining	-13943
▁Wrong	-13944
▁roommate	-13945
▁rope	-13946
▁rips	-13947
▁perfume	-13948
▁Bet	-13949
celain	-13950
▁granite	-13951
▁Flo	-13952
▁noting	-13953
▁bypass	-13954
▁toddlers	-13955
▁Things	-13956
▁airline	-13957
▁entertaining	-13958
urate	-13959
▁linked	-13960
▁drugs	-13961
▁backyard	-13962
▁coast	-13963
▁gimmick	-13964
▁font	-13965
▁fidelity	-13966
▁probiotics	-13967
▁resemble	-13968
stra	-13969
▁deleted	-13970
▁database	-13971
▁prevented	-13972
▁butterfly	-13973
adder	-13974
omega	-13975
▁wizard	-13976
▁leaning	-13977
▁continuing	-13978
gend	-13979
▁VO	-13980
▁north	-13981
▁suspic	-13982
Recommended	-13983
▁customizable	-13984
▁chlor	-13985
▁metabol	-13986
▁Typ	-13987
▁Motion	-13988
bedded	-13989
▁pays	-13990
urd	-13991
bet	-13992
walk	-13993
▁manipulate	-13994
▁selections	-13995
▁conscious	-13996
▁stroke	-13997
omy	-13998
adeon	-13999
iffic	-14000
▁chopped	-14001
▁finicky	-14002
▁readjust	-14003
750	-14004
▁viewer	-14005
▁Dark	-14006
Picture	-14007
▁essentials	-14008
▁PROBLEM	-14009
▁echo	-14010
atching	-14011
▁juicers	-14012
▁processors	-14013
▁Sears	-14014
▁finest	-14015
▁twelve	-14016
▁lan	-14017
SH	-14018
▁doses	-14019
▁nons	-14020
▁obnoxious	-14021
▁onion	-14022
▁humming	-14023
▁nowadays	-14024
sen	-14025
▁embarrassing	-14026
▁smok	-14027
▁vice	-14028
▁Passport	-14029
itters	-14030
▁titles	-14031
▁developing	-14032
▁80'	-14033
intend	-14034
mbling	-14035
▁warms	-14036
▁senior	-14037
▁42"	-14038
shave	-14039
▁shifts	-14040
tied	-14041
▁teal	-14042
1080	-14043
▁nikon	-14044
▁Mobile	-14045
▁kicked	-14046
▁nearest	-14047
▁Queen	-14048
fun	-14049
▁stovetop	-14050
▁sweats	-14051
▁neckline	-14052
▁AVR	-14053
cier	-14054
▁spouse	-14055
▁accomplished	-14056
▁irons	-14057
▁facility	-14058
mal	-14059
▁math	-14060
▁abused	-14061
▁rinsed	-14062
7)	-14063
path	-14064
eras	-14065
▁accomodate	-14066
worker	-14067
▁concentrate	-14068
solid	-14069
Time	-14070
za	-14071
heating	-14072
Use	-14073
▁User	-14074
▁Thursday	-14075
▁atom	-14076
________________	-14077
▁$3.	-14078
▁enzy	-14079
▁stuffer	-14080
▁5'9	-14081
▁linen	-14082
iden	-14083
▁:).	-14084
▁linux	-14085
▁SOO	-14086
▁draws	-14087
▁tubing	-14088
▁overcome	-14089
Too	-14090
ann	-14091
▁Data	-14092
▁SHOES	-14093
IZ	-14094
▁crimp	-14095
▁aunt	-14096
▁Tun	-14097
▁Orange	-14098
▁tapping	-14099
▁unbearable	-14100
▁Mass	-14101
▁quartz	-14102
▁equipped	-14103
▁DA	-14104
▁carpeted	-14105
figure	-14106
▁Oper	-14107
rost	-14108
▁scented	-14109
▁Between	-14110
▁Protects	-14111
▁allot	-14112
▁Club	-14113
instead	-14114
▁XB	-14115
▁Wahl	-14116
comings	-14117
-80	-14118
▁lifesaver	-14119
ooo	-14120
▁fulfilled	-14121
▁opinions	-14122
▁~$	-14123
▁Ble	-14124
▁linger	-14125
▁woven	-14126
▁135	-14127
▁Tamron	-14128
▁Rob	-14129
▁backward	-14130
▁Left	-14131
▁Comfy	-14132
▁bins	-14133
▁Needs	-14134
▁cargo	-14135
▁leap	-14136
uggest	-14137
lux	-14138
▁Transcend	-14139
▁whoever	-14140
▁NiMH	-14141
▁THINK	-14142
yer	-14143
▁salads	-14144
▁pliable	-14145
rr	-14146
▁urine	-14147
▁openers	-14148
More	-14149
▁Leica	-14150
iat	-14151
nesday	-14152
existent	-14153
▁ling	-14154
cance	-14155
▁Retina	-14156
Make	-14157
▁Fall	-14158
▁$9	-14159
▁ending	-14160
▁cleanse	-14161
mag	-14162
▁reposition	-14163
▁tink	-14164
early	-14165
▁recomended	-14166
▁4000	-14167
▁teflon	-14168
▁evidence	-14169
▁configurations	-14170
bean	-14171
▁chirop	-14172
▁alleviate	-14173
▁mailing	-14174
ojir	-14175
▁condo	-14176
iac	-14177
Happy	-14178
sens	-14179
▁Dry	-14180
▁ax	-14181
▁Already	-14182
▁vague	-14183
▁bothersome	-14184
Fits	-14185
▁formed	-14186
another	-14187
-11	-14188
▁ain	-14189
▁infant	-14190
▁firmer	-14191
▁WOND	-14192
▁magnifying	-14193
▁Ozeri	-14194
▁occup	-14195
▁Aspire	-14196
▁inject	-14197
▁Macy	-14198
visions	-14199
▁ballet	-14200
▁tissues	-14201
See	-14202
safe	-14203
▁Xoom	-14204
▁rainbow	-14205
39	-14206
▁ownership	-14207
▁jum	-14208
Setup	-14209
doesn	-14210
▁cds	-14211
ISE	-14212
▁sup	-14213
▁ticking	-14214
▁camcorders	-14215
Rem	-14216
▁Edge	-14217
▁featured	-14218
▁constip	-14219
▁darkness	-14220
due	-14221
▁tightness	-14222
▁delivering	-14223
▁solo	-14224
▁decept	-14225
▁Ba	-14226
▁recliner	-14227
aylor	-14228
▁headed	-14229
▁States	-14230
colored	-14231
▁theses	-14232
▁washers	-14233
▁percol	-14234
▁complimented	-14235
ANY	-14236
▁hiding	-14237
▁invention	-14238
mbps	-14239
anges	-14240
▁Wood	-14241
▁sausage	-14242
▁Wat	-14243
▁knocking	-14244
etting	-14245
rub	-14246
shell	-14247
▁quirks	-14248
urban	-14249
▁firewall	-14250
▁Essential	-14251
▁feelings	-14252
8&	-14253
tling	-14254
▁Reader	-14255
rofoam	-14256
................	-14257
▁upcon	-14258
▁blenders	-14259
integr	-14260
▁Span	-14261
▁Huge	-14262
▁XBOX	-14263
▁AK	-14264
▁technolog	-14265
▁Stylish	-14266
▁shorten	-14267
Installation	-14268
rer	-14269
▁fireplace	-14270
▁THR	-14271
▁attire	-14272
▁recieve	-14273
▁heatsink	-14274
▁soreness	-14275
iele	-14276
▁forces	-14277
acc	-14278
▁Fat	-14279
▁inex	-14280
ools	-14281
▁SHIPP	-14282
▁coaxial	-14283
88	-14284
rot	-14285
vd	-14286
▁spraying	-14287
▁defined	-14288
▁Tv	-14289
phan	-14290
▁DIFFER	-14291
▁Duracell	-14292
ILE	-14293
▁wha	-14294
▁zooming	-14295
rams	-14296
▁fest	-14297
▁filming	-14298
dom	-14299
▁Handy	-14300
▁pointy	-14301
▁11.5	-14302
▁directional	-14303
▁downsides	-14304
▁Focus	-14305
▁Protector	-14306
▁FAT	-14307
pler	-14308
ensed	-14309
▁grou	-14310
!!!!!!!!!!!!!!!!	-14311
▁values	-14312
▁disconnects	-14313
▁Dre	-14314
▁pharmacy	-14315
▁zips	-14316
▁grabbing	-14317
▁presence	-14318
TERY	-14319
audio	-14320
ojirushi	-14321
▁cape	-14322
▁varies	-14323
▁cm	-14324
bul	-14325
abling	-14326
▁btw	-14327
▁disturb	-14328
solut	-14329
▁blem	-14330
▁aggressive	-14331
▁RED	-14332
mic	-14333
▁squeezing	-14334
▁evident	-14335
▁sip	-14336
▁Kore	-14337
▁Birken	-14338
-24	-14339
ppies	-14340
▁absorbs	-14341
▁teens	-14342
▁repack	-14343
ilit	-14344
▁imperfections	-14345
▁thy	-14346
den	-14347
ucch	-14348
▁arent	-14349
▁peak	-14350
▁winding	-14351
▁extending	-14352
Got	-14353
▁$50.	-14354
▁showers	-14355
▁DMC	-14356
isms	-14357
▁dimension	-14358
▁Kitchenaid	-14359
rock	-14360
▁Valentine	-14361
▁fifteen	-14362
▁verified	-14363
▁Hitachi	-14364
▁Plantronics	-14365
▁fer	-14366
▁serv	-14367
▁Server	-14368
▁intellig	-14369
▁EZ	-14370
▁east	-14371
umping	-14372
▁Brita	-14373
▁grilling	-14374
▁SSID	-14375
▁LOOKING	-14376
▁Alaska	-14377
kur	-14378
aries	-14379
▁crowded	-14380
▁Game	-14381
▁holster	-14382
▁artif	-14383
pring	-14384
▁tumbler	-14385
▁DISAP	-14386
▁briefly	-14387
▁soaps	-14388
▁PURCHASED	-14389
▁megapixel	-14390
▁Ir	-14391
▁Outstanding	-14392
▁LaC	-14393
▁Nov	-14394
▁pinky	-14395
▁Dansko	-14396
▁8.9	-14397
▁Want	-14398
▁George	-14399
▁amplified	-14400
▁OSX	-14401
▁driveway	-14402
▁bathrooms	-14403
▁Cannon	-14404
▁Michael	-14405
▁giz	-14406
▁Bow	-14407
▁Dick	-14408
rend	-14409
orama	-14410
roller	-14411
▁accounts	-14412
▁illumination	-14413
▁Ran	-14414
▁eyebrow	-14415
review	-14416
▁virus	-14417
▁snorkeling	-14418
▁Apps	-14419
▁spandex	-14420
▁ze	-14421
▁gaudy	-14422
uv	-14423
▁mega	-14424
▁urge	-14425
▁gripes	-14426
▁Deal	-14427
▁recycled	-14428
▁WEE	-14429
▁separating	-14430
VING	-14431
stage	-14432
▁swollen	-14433
▁subjects	-14434
▁excelente	-14435
▁sturdiness	-14436
▁5'10	-14437
▁Dead	-14438
▁Ring	-14439
▁Package	-14440
▁coco	-14441
▁rebooted	-14442
▁sisters	-14443
▁calculator	-14444
▁leery	-14445
▁wearer	-14446
▁40%	-14447
▁Job	-14448
▁Swe	-14449
▁TON	-14450
▁Side	-14451
▁hubs	-14452
▁becuase	-14453
▁lamps	-14454
▁ORDERED	-14455
lights	-14456
▁nuvi	-14457
opy	-14458
finished	-14459
▁lugging	-14460
▁ion	-14461
ending	-14462
▁emb	-14463
Lastly	-14464
UTF	-14465
take	-14466
▁4.0	-14467
▁SELL	-14468
▁submit	-14469
▁sockets	-14470
▁Spot	-14471
▁amber	-14472
37	-14473
▁steaks	-14474
▁flood	-14475
3-	-14476
lif	-14477
▁***	-14478
▁distilled	-14479
▁Ann	-14480
▁drawn	-14481
ety	-14482
▁fades	-14483
▁depicted	-14484
▁Manfrotto	-14485
▁ANYONE	-14486
▁lengthy	-14487
▁police	-14488
▁winder	-14489
▁inflammation	-14490
▁clone	-14491
▁shortcomings	-14492
▁PJ	-14493
▁dreaded	-14494
▁cheer	-14495
▁harmful	-14496
▁Creuset	-14497
▁2010.	-14498
▁BF	-14499
▁fussy	-14500
ansing	-14501
▁Saucony	-14502
▁preparation	-14503
▁gluc	-14504
▁depos	-14505
▁gamers	-14506
▁ancient	-14507
▁170	-14508
horse	-14509
gig	-14510
hell	-14511
▁piano	-14512
▁freshen	-14513
▁treating	-14514
▁Post	-14515
▁Type	-14516
▁Pull	-14517
▁Indian	-14518
▁grilled	-14519
▁receives	-14520
▁Aero	-14521
▁Epson	-14522
▁COR	-14523
▁Wine	-14524
▁itunes	-14525
bor	-14526
ITELY	-14527
▁evapor	-14528
▁royal	-14529
▁sheen	-14530
▁vocals	-14531
▁hassles	-14532
▁protrud	-14533
▁unresponsive	-14534
▁outcome	-14535
▁1.3	-14536
▁pandora	-14537
POINT	-14538
▁quibble	-14539
▁1"	-14540
▁guides	-14541
▁referred	-14542
keys	-14543
▁Reading	-14544
▁decorating	-14545
Origin	-14546
▁hotels	-14547
ccasionally	-14548
▁Coolpix	-14549
▁Hum	-14550
▁dab	-14551
▁Glo	-14552
▁tendon	-14553
▁uncomfort	-14554
illets	-14555
▁anchors	-14556
▁Bamboo	-14557
▁tutorial	-14558
itas	-14559
▁MAK	-14560
Aut	-14561
▁stinky	-14562
Summary	-14563
▁Mits	-14564
▁SAY	-14565
folio	-14566
▁Hero	-14567
▁lunches	-14568
▁blessing	-14569
week	-14570
▁Presto	-14571
-400	-14572
▁herb	-14573
▁elegance	-14574
BU	-14575
▁Saved	-14576
▁bagels	-14577
▁artwork	-14578
eding	-14579
laptop	-14580
▁alpha	-14581
fat	-14582
▁exists	-14583
▁throughput	-14584
▁realy	-14585
▁potent	-14586
▁maintains	-14587
EP	-14588
inent	-14589
▁offerings	-14590
▁burgers	-14591
▁tipping	-14592
▁recal	-14593
▁delayed	-14594
Mod	-14595
▁diabet	-14596
▁STARS	-14597
thday	-14598
df	-14599
▁TER	-14600
▁CX	-14601
▁sketch	-14602
▁Front	-14603
▁Electronics	-14604
▁Cell	-14605
▁achieved	-14606
▁Atl	-14607
ilion	-14608
▁Wo	-14609
fruit	-14610
ubishi	-14611
scent	-14612
▁tipped	-14613
master	-14614
▁unlikely	-14615
▁Disappointing	-14616
vac	-14617
▁horn	-14618
▁boombox	-14619
▁Later	-14620
lebr	-14621
▁GIVE	-14622
▁reordered	-14623
▁Timberland	-14624
▁unl	-14625
uries	-14626
▁Energ	-14627
▁Bell	-14628
▁bulge	-14629
▁demanding	-14630
oman	-14631
utz	-14632
lying	-14633
istine	-14634
▁vaccum	-14635
▁Wash	-14636
▁dear	-14637
▁ol	-14638
▁canisters	-14639
▁penet	-14640
▁commit	-14641
▁Oakley	-14642
▁eliminating	-14643
▁noodles	-14644
▁usefulness	-14645
uh	-14646
brush	-14647
▁asth	-14648
.[...]	-14649
▁Mostly	-14650
ufacture	-14651
▁leftover	-14652
visor	-14653
52	-14654
▁Stylus	-14655
keyboard	-14656
gyptian	-14657
Our	-14658
▁nude	-14659
▁bathtub	-14660
▁fraying	-14661
▁drum	-14662
▁auxiliary	-14663
▁0.	-14664
▁NV	-14665
▁Style	-14666
▁throws	-14667
pop	-14668
issue	-14669
▁spacing	-14670
▁dangling	-14671
FX	-14672
▁Scale	-14673
▁underarms	-14674
▁2005	-14675
▁inadvert	-14676
▁manufactures	-14677
istan	-14678
▁slam	-14679
broken	-14680
▁kills	-14681
▁MOD	-14682
▁oxygen	-14683
▁spatulas	-14684
▁arthritic	-14685
nic	-14686
▁dessert	-14687
▁otterbox	-14688
▁pj	-14689
▁10-12	-14690
▁striking	-14691
remely	-14692
help	-14693
▁marble	-14694
▁preview	-14695
▁cancelled	-14696
pretty	-14697
▁ottom	-14698
▁catalog	-14699
▁seek	-14700
▁bites	-14701
didn	-14702
▁understated	-14703
▁speaks	-14704
▁berries	-14705
utches	-14706
▁Infinity	-14707
▁engineers	-14708
fashion	-14709
▁writes	-14710
▁Dyn	-14711
▁Honda	-14712
▁Champ	-14713
▁Smaller	-14714
▁obsessed	-14715
▁$30.	-14716
▁baker	-14717
ucchini	-14718
▁sparkling	-14719
▁sinks	-14720
▁partly	-14721
▁BPA	-14722
▁avi	-14723
ediately	-14724
▁Powershot	-14725
▁WPA	-14726
▁roku	-14727
asting	-14728
orkers	-14729
▁scri	-14730
▁zune	-14731
▁pricier	-14732
▁converting	-14733
▁efforts	-14734
atible	-14735
▁BOX	-14736
▁Putting	-14737
▁(~	-14738
▁swivels	-14739
mailed	-14740
solete	-14741
▁seasoned	-14742
gent	-14743
▁Clar	-14744
▁represented	-14745
▁faced	-14746
▁12,	-14747
▁Bravia	-14748
▁pours	-14749
▁oldest	-14750
▁condoms	-14751
LED	-14752
oph	-14753
▁2-4	-14754
▁reim	-14755
▁toasted	-14756
▁famous	-14757
▁projectors	-14758
!,	-14759
Force	-14760
Despite	-14761
▁Rowenta	-14762
▁Hz	-14763
▁eaten	-14764
▁platter	-14765
▁remodel	-14766
AH	-14767
cion	-14768
ourse	-14769
▁Kinda	-14770
Shipping	-14771
▁LX	-14772
▁rude	-14773
▁naked	-14774
▁stills	-14775
▁KEEP	-14776
▁Fairly	-14777
▁reversible	-14778
▁Aer	-14779
quick	-14780
▁responds	-14781
yrs	-14782
▁Sweet	-14783
▁youth	-14784
▁Sunbeam	-14785
▁shutdown	-14786
tended	-14787
▁pest	-14788
▁Jacket	-14789
▁atleast	-14790
gree	-14791
odes	-14792
▁porcelain	-14793
▁miserable	-14794
▁wrest	-14795
▁56	-14796
▁BluRay	-14797
ales	-14798
▁encryption	-14799
▁someday	-14800
▁pristine	-14801
▁SN	-14802
▁vig	-14803
▁Bread	-14804
▁ACT	-14805
cable	-14806
▁inability	-14807
▁Voice	-14808
▁FIND	-14809
▁asha	-14810
HP	-14811
▁Nvidia	-14812
uttered	-14813
AVY	-14814
▁proceeded	-14815
▁rescue	-14816
▁cassero	-14817
▁Strap	-14818
▁nutritional	-14819
▁ap	-14820
▁(3)	-14821
ndrome	-14822
▁anchor	-14823
Car	-14824
update	-14825
▁outrageous	-14826
▁stopwatch	-14827
▁relig	-14828
Max	-14829
inds	-14830
▁Flat	-14831
▁Basic	-14832
▁irregular	-14833
called	-14834
▁grills	-14835
▁Rest	-14836
▁Smells	-14837
▁$5.	-14838
resistant	-14839
erd	-14840
▁Drop	-14841
▁Seemed	-14842
▁speech	-14843
▁TAKE	-14844
▁backpacking	-14845
▁resets	-14846
▁availability	-14847
uckle	-14848
-18	-14849
▁Drag	-14850
cip	-14851
▁Comb	-14852
▁reject	-14853
▁snoring	-14854
67	-14855
must	-14856
▁forks	-14857
▁tiles	-14858
ebo	-14859
lod	-14860
Color	-14861
▁squeezed	-14862
▁contour	-14863
▁fm	-14864
▁drank	-14865
▁distant	-14866
▁Easter	-14867
▁conversations	-14868
▁burgundy	-14869
RP	-14870
▁doc	-14871
▁installer	-14872
RECT	-14873
▁fulfill	-14874
▁sata	-14875
▁wing	-14876
▁uphol	-14877
▁recomiendo	-14878
def	-14879
gels	-14880
oding	-14881
▁Lost	-14882
▁trimmers	-14883
▁banged	-14884
▁ipods	-14885
▁studies	-14886
stre	-14887
azer	-14888
▁Eat	-14889
▁rocket	-14890
▁slack	-14891
▁bomb	-14892
▁Action	-14893
▁astound	-14894
oper	-14895
▁Pyrex	-14896
▁stirring	-14897
▁disconnecting	-14898
Long	-14899
▁$2.	-14900
▁discern	-14901
uddy	-14902
▁rusting	-14903
▁lubricant	-14904
▁dismay	-14905
▁acquired	-14906
▁ric	-14907
section	-14908
▁reservations	-14909
▁Oven	-14910
▁skins	-14911
ths	-14912
▁dates	-14913
26;	-14914
before	-14915
▁rural	-14916
sub	-14917
▁Hence	-14918
▁shedding	-14919
▁detailing	-14920
▁steering	-14921
▁15.6	-14922
ANS	-14923
▁existed	-14924
▁HATE	-14925
functional	-14926
lix	-14927
▁ply	-14928
class	-14929
▁pancake	-14930
quid	-14931
▁veggie	-14932
tha	-14933
▁4"	-14934
▁sod	-14935
▁stray	-14936
erspirant	-14937
mentioned	-14938
uer	-14939
▁carpeting	-14940
▁absorption	-14941
▁imagination	-14942
▁Miele	-14943
▁skillets	-14944
▁interf	-14945
▁immense	-14946
▁Verbatim	-14947
▁rotary	-14948
ASH	-14949
▁operations	-14950
▁exchanging	-14951
▁tvs	-14952
rin	-14953
▁Tele	-14954
rols	-14955
▁Stop	-14956
▁Seat	-14957
HCP	-14958
mov	-14959
Basics	-14960
Sw	-14961
▁maintained	-14962
▁Washing	-14963
▁Shop	-14964
▁INS	-14965
▁Acoust	-14966
▁deeply	-14967
▁frothing	-14968
NDER	-14969
▁powdered	-14970
▁buena	-14971
▁dehydrator	-14972
2-	-14973
isons	-14974
▁Wust	-14975
▁circumference	-14976
▁Kudos	-14977
ubble	-14978
▁Mi	-14979
Never	-14980
▁PX	-14981
▁fifty	-14982
▁coworkers	-14983
▁Clearly	-14984
clip	-14985
tone	-14986
▁english	-14987
▁timed	-14988
sorry	-14989
▁gems	-14990
▁magazines	-14991
▁DEFINITELY	-14992
.),	-14993
▁squishy	-14994
▁Wednesday	-14995
kels	-14996
▁Kitty	-14997
▁column	-14998
ifficult	-14999
▁consult	-15000
▁compound	-15001
tim	-15002
rapped	-15003
▁abilities	-15004
Supp	-15005
▁Peri	-15006
▁prefect	-15007
▁afterward	-15008
spread	-15009
▁emptied	-15010
▁camo	-15011
▁robot	-15012
▁outlast	-15013
▁contrary	-15014
▁5"	-15015
▁qt	-15016
▁sores	-15017
▁lemons	-15018
Ext	-15019
▁fis	-15020
▁investing	-15021
▁Ster	-15022
▁regimen	-15023
▁Contacted	-15024
Big	-15025
▁France	-15026
▁oranges	-15027
▁uncomfortably	-15028
rix	-15029
▁Vib	-15030
▁crew	-15031
▁scuffed	-15032
mini	-15033
hap	-15034
▁recycling	-15035
▁preserve	-15036
plex	-15037
▁iTouch	-15038
▁occass	-15039
▁bothering	-15040
▁formatting	-15041
▁docked	-15042
▁Yog	-15043
▁relatives	-15044
▁discolored	-15045
pads	-15046
version	-15047
▁polite	-15048
▁Joe	-15049
▁confirmation	-15050
▁Road	-15051
▁sequence	-15052
acer	-15053
▁43	-15054
▁("	-15055
▁staining	-15056
kia	-15057
1200	-15058
Save	-15059
WHERE	-15060
▁contemporary	-15061
▁CAR	-15062
▁$120	-15063
▁intim	-15064
▁visits	-15065
▁reflects	-15066
brown	-15067
▁Exper	-15068
▁lifespan	-15069
▁4:	-15070
▁courte	-15071
▁property	-15072
▁concerning	-15073
▁ivory	-15074
IFT	-15075
▁60%	-15076
▁BLACK	-15077
▁3/8	-15078
ervative	-15079
▁swapping	-15080
ightly	-15081
▁WHICH	-15082
▁shakers	-15083
▁kay	-15084
▁flowing	-15085
▁Jarrow	-15086
▁specify	-15087
1-	-15088
▁purely	-15089
Bad	-15090
ua	-15091
▁compelled	-15092
▁firmness	-15093
▁obsolete	-15094
Pe	-15095
▁asus	-15096
94	-15097
▁colds	-15098
80.	-15099
▁coins	-15100
▁Blend	-15101
ctic	-15102
outhern	-15103
short	-15104
▁mart	-15105
irmware	-15106
▁Radeon	-15107
earing	-15108
isions	-15109
▁opaque	-15110
ilty	-15111
▁grippy	-15112
▁Buffalo	-15113
▁brake	-15114
ributes	-15115
FE	-15116
▁IBM	-15117
hole	-15118
Soft	-15119
▁fingertips	-15120
Blue	-15121
.[	-15122
▁ADD	-15123
▁unatt	-15124
▁decorate	-15125
Ret	-15126
▁disappears	-15127
▁1.2	-15128
▁linksys	-15129
▁drywall	-15130
▁transporting	-15131
▁securing	-15132
▁possibilities	-15133
▁skips	-15134
UAL	-15135
erican	-15136
▁tampons	-15137
lesh	-15138
▁Turned	-15139
▁Zojirushi	-15140
▁DIY	-15141
▁reimbur	-15142
ceiver	-15143
▁assess	-15144
▁submer	-15145
PLE	-15146
▁indestruct	-15147
,.	-15148
▁Nu	-15149
▁remedi	-15150
▁surve	-15151
▁discrete	-15152
▁sapphire	-15153
▁:/	-15154
▁reserve	-15155
▁squeegee	-15156
▁BBQ	-15157
▁Yay	-15158
▁Pain	-15159
▁ashamed	-15160
▁Hoping	-15161
isite	-15162
▁Colorado	-15163
▁unse	-15164
▁challenged	-15165
greens	-15166
▁concentrated	-15167
▁login	-15168
▁Select	-15169
elect	-15170
▁aching	-15171
▁DISAPPOINT	-15172
▁Years	-15173
uls	-15174
Star	-15175
▁coaster	-15176
▁gummy	-15177
▁pave	-15178
▁capturing	-15179
[...]
