@pad@	0
@start@	0
@end@	0
@@UNKNOWN@@	0
▁t	-0
▁a	-1
he	-2
▁w	-3
in	-4
re	-5
▁s	-6
▁the	-7
er	-8
nd	-9
▁o	-10
▁b	-11
▁f	-12
▁c	-13
it	-14
▁m	-15
ha	-16
▁I	-17
ou	-18
▁and	-19
as	-20
is	-21
▁p	-22
▁to	-23
ed	-24
ing	-25
▁d	-26
or	-27
en	-28
es	-29
ll	-30
on	-31
▁g	-32
ic	-33
▁l	-34
at	-35
an	-36
▁n	-37
om	-38
▁was	-39
▁T	-40
▁ha	-41
ar	-42
ot	-43
ve	-44
ut	-45
▁of	-46
▁e	-47
le	-48
us	-49
oo	-50
▁in	-51
ac	-52
▁be	-53
ver	-54
▁re	-55
▁we	-56
ly	-57
▁it	-58
▁is	-59
▁The	-60
▁for	-61
al	-62
▁on	-63
▁y	-64
hat	-65
▁th	-66
et	-67
ay	-68
ri	-69
▁h	-70
ur	-71
ood	-72
▁st	-73
▁you	-74
ow	-75
id	-76
ent	-77
all	-78
ith	-79
me	-80
▁he	-81
▁with	-82
▁that	-83
▁my	-84
gh	-85
ld	-86
st	-87
ice	-88
ion	-89
ke	-90
ir	-91
ad	-92
▁S	-93
▁W	-94
ce	-95
▁but	-96
ro	-97
▁pl	-98
▁me	-99
▁A	-100
▁at	-101
▁not	-102
▁this	-103
▁have	-104
▁they	-105
ec	-106
very	-107
▁an	-108
el	-109
▁are	-110
▁or	-111
▁had	-112
▁as	-113
▁u	-114
▁so	-115
ome	-116
ould	-117
ust	-118
ast	-119
pp	-120
▁were	-121
ant	-122
ill	-123
ally	-124
▁M	-125
▁ex	-126
ace	-127
▁ne	-128
if	-129
ter	-130
▁wh	-131
ab	-132
▁ser	-133
▁li	-134
reat	-135
▁ti	-136
ght	-137
ch	-138
▁se	-139
▁C	-140
▁B	-141
▁j	-142
▁al	-143
her	-144
▁place	-145
▁food	-146
ore	-147
▁good	-148
..	-149
▁sa	-150
red	-151
se	-152
ack	-153
▁out	-154
th	-155
est	-156
ess	-157
am	-158
▁lo	-159
ff	-160
ge	-161
▁go	-162
ers	-163
▁H	-164
qu	-165
un	-166
end	-167
▁get	-168
▁fr	-169
▁do	-170
▁serv	-171
▁sp	-172
il	-173
▁r	-174
ul	-175
▁k	-176
▁We	-177
▁very	-178
ain	-179
out	-180
ked	-181
im	-182
hen	-183
▁(	-184
ite	-185
▁us	-186
▁com	-187
▁all	-188
▁su	-189
▁ab	-190
one	-191
▁here	-192
▁sh	-193
▁F	-194
ick	-195
ak	-196
res	-197
▁time	-198
▁great	-199
▁fri	-200
▁there	-201
op	-202
▁up	-203
▁ord	-204
▁P	-205
▁It	-206
▁O	-207
ry	-208
▁like	-209
▁ch	-210
▁N	-211
▁would	-212
▁our	-213
▁service	-214
per	-215
▁did	-216
▁just	-217
ous	-218
▁back	-219
▁D	-220
ation	-221
ven	-222
han	-223
▁wor	-224
ake	-225
ate	-226
ich	-227
ive	-228
▁G	-229
▁from	-230
▁can	-231
so	-232
ef	-233
▁one	-234
▁am	-235
▁their	-236
and	-237
av	-238
▁v	-239
os	-240
ie	-241
▁L	-242
▁wa	-243
able	-244
art	-245
nt	-246
our	-247
▁if	-248
▁qu	-249
ink	-250
rou	-251
▁some	-252
▁ca	-253
tion	-254
▁They	-255
ck	-256
way	-257
▁co	-258
▁about	-259
▁che	-260
▁wait	-261
▁too	-262
iz	-263
▁pro	-264
▁will	-265
ind	-266
▁pr	-267
▁when	-268
▁friend	-269
▁dis	-270
▁Th	-271
...	-272
▁your	-273
em	-274
ide	-275
▁fe	-276
!!	-277
ook	-278
ine	-279
ight	-280
ther	-281
ca	-282
▁any	-283
▁really	-284
▁been	-285
use	-286
▁con	-287
▁E	-288
▁what	-289
▁them	-290
ered	-291
▁off	-292
▁which	-293
um	-294
▁This	-295
ig	-296
▁1	-297
ag	-298
com	-299
▁-	-300
ious	-301
▁no	-302
▁over	-303
▁fl	-304
▁rest	-305
▁more	-306
▁got	-307
▁every	-308
ty	-309
▁en	-310
ect	-311
int	-312
▁ro	-313
fter	-314
▁other	-315
▁V	-316
▁man	-317
▁beca	-318
pl	-319
▁kn	-320
ra	-321
▁R	-322
ough	-323
▁she	-324
▁2	-325
▁because	-326
▁$	-327
▁by	-328
▁only	-329
▁even	-330
ort	-331
▁pre	-332
ist	-333
ost	-334
▁My	-335
▁ag	-336
ong	-337
▁want	-338
oy	-339
itt	-340
▁"	-341
aur	-342
▁pe	-343
own	-344
here	-345
aurant	-346
▁has	-347
ct	-348
▁could	-349
▁don	-350
ment	-351
ien	-352
ol	-353
▁also	-354
▁del	-355
▁sal	-356
ard	-357
▁restaurant	-358
ars	-359
aff	-360
▁tast	-361
▁nice	-362
▁cl	-363
oint	-364
▁order	-365
▁Y	-366
▁try	-367
▁than	-368
ved	-369
ways	-370
hing	-371
avor	-372
ade	-373
ity	-374
▁ri	-375
▁le	-376
ble	-377
az	-378
irst	-379
▁app	-380
▁know	-381
▁min	-382
▁exper	-383
▁who	-384
thing	-385
▁dr	-386
ings	-387
▁well	-388
ress	-389
▁op	-390
▁staff	-391
mend	-392
ud	-393
▁work	-394
▁after	-395
day	-396
ience	-397
▁didn	-398
▁ordered	-399
▁loc	-400
▁te	-401
ish	-402
▁her	-403
ful	-404
▁came	-405
ple	-406
▁day	-407
▁always	-408
age	-409
▁recom	-410
▁sm	-411
efin	-412
te	-413
▁recommend	-414
▁best	-415
ile	-416
ond	-417
▁dec	-418
▁look	-419
ail	-420
▁un	-421
▁need	-422
itely	-423
▁eat	-424
ass	-425
efinitely	-426
wn	-427
icken	-428
uch	-429
ople	-430
▁come	-431
▁de	-432
▁how	-433
▁friendly	-434
▁cr	-435
ittle	-436
ree	-437
▁ad	-438
▁J	-439
ated	-440
▁br	-441
▁people	-442
▁again	-443
▁drink	-444
▁say	-445
▁bet	-446
▁little	-447
▁3	-448
▁experience	-449
▁love	-450
ip	-451
▁tw	-452
▁never	-453
▁call	-454
▁much	-455
▁men	-456
azing	-457
ue	-458
icious	-459
to	-460
ustom	-461
▁gu	-462
ure	-463
▁first	-464
▁went	-465
ese	-466
ian	-467
igh	-468
▁made	-469
gg	-470
▁make	-471
▁bre	-472
▁said	-473
ies	-474
▁per	-475
unch	-476
iew	-477
▁cle	-478
we	-479
▁custom	-480
oth	-481
▁tr	-482
les	-483
▁chicken	-484
▁menu	-485
xt	-486
▁going	-487
▁delicious	-488
▁definitely	-489
▁ye	-490
▁amazing	-491
other	-492
▁bu	-493
▁car	-494
lp	-495
round	-496
▁bus	-497
).	-498
ices	-499
▁pret	-500
ater	-501
eci	-502
▁way	-503
fe	-504
▁hot	-505
▁help	-506
ach	-507
▁din	-508
▁He	-509
▁minut	-510
fore	-511
ving	-512
▁im	-513
▁better	-514
▁cha	-515
▁tri	-516
▁new	-517
▁see	-518
▁down	-519
urn	-520
▁If	-521
▁night	-522
ave	-523
▁before	-524
▁take	-525
ooked	-526
▁exp	-527
▁then	-528
ose	-529
▁pretty	-530
▁bar	-531
pt	-532
▁room	-533
▁happ	-534
ull	-535
act	-536
ee	-537
▁right	-538
king	-539
▁two	-540
ger	-541
uce	-542
side	-543
ber	-544
izz	-545
▁part	-546
ually	-547
▁price	-548
▁mo	-549
ner	-550
ound	-551
are	-552
▁told	-553
▁think	-554
▁So	-555
app	-556
▁hour	-557
view	-558
▁vis	-559
▁&	-560
resh	-561
ason	-562
▁sure	-563
▁lot	-564
▁location	-565
ap	-566
omet	-567
hed	-568
eg	-569
▁bur	-570
ever	-571
▁clean	-572
▁5	-573
▁wee	-574
▁ever	-575
▁cou	-576
▁around	-577
▁ac	-578
▁review	-579
oc	-580
ily	-581
ush	-582
ert	-583
▁visit	-584
ince	-585
▁few	-586
ob	-587
mes	-588
▁i	-589
▁comp	-590
▁ve	-591
ame	-592
▁minutes	-593
hes	-594
▁bl	-595
▁wal	-596
▁4	-597
▁still	-598
▁bit	-599
▁own	-600
joy	-601
▁sl	-602
▁ar	-603
sel	-604
▁K	-605
▁There	-606
▁long	-607
▁feel	-608
ting	-609
▁fresh	-610
▁give	-611
▁sc	-612
▁took	-613
tions	-614
▁perf	-615
▁res	-616
▁asked	-617
ool	-618
▁flavor	-619
▁his	-620
▁She	-621
▁aw	-622
▁somet	-623
izza	-624
▁find	-625
▁times	-626
▁enjoy	-627
ix	-628
▁att	-629
▁meal	-630
▁por	-631
▁dif	-632
erv	-633
▁small	-634
ks	-635
▁Ch	-636
▁ext	-637
be	-638
▁table	-639
▁home	-640
fere	-641
▁Veg	-642
▁high	-643
▁most	-644
ep	-645
▁em	-646
ont	-647
erson	-648
▁On	-649
▁bad	-650
▁St	-651
▁area	-652
▁sauce	-653
ady	-654
▁Great	-655
▁wasn	-656
ient	-657
▁another	-658
▁since	-659
▁now	-660
▁customer	-661
▁Vegas	-662
▁And	-663
▁You	-664
▁next	-665
▁exce	-666
▁ent	-667
▁server	-668
▁seem	-669
akes	-670
▁Not	-671
▁many	-672
ens	-673
▁salad	-674
▁being	-675
▁But	-676
▁show	-677
▁pizza	-678
ating	-679
▁while	-680
▁inc	-681
▁check	-682
ute	-683
▁cheese	-684
ery	-685
▁into	-686
▁des	-687
▁differe	-688
ality	-689
▁everything	-690
▁super	-691
▁ke	-692
▁Al	-693
▁gr	-694
▁U	-695
ub	-696
▁should	-697
▁something	-698
appoint	-699
▁lunch	-700
▁cre	-701
▁last	-702
▁store	-703
▁where	-704
▁fin	-705
ecial	-706
▁wanted	-707
▁person	-708
▁perfect	-709
▁act	-710
!!!	-711
▁end	-712
▁meat	-713
ought	-714
rd	-715
▁him	-716
▁disappoint	-717
od	-718
air	-719
▁favor	-720
▁add	-721
self	-722
▁imp	-723
▁does	-724
esome	-725
▁When	-726
▁pay	-727
eak	-728
▁ph	-729
▁start	-730
▁gl	-731
pped	-732
▁side	-733
get	-734
▁quick	-735
▁big	-736
▁sha	-737
00	-738
▁though	-739
oor	-740
ire	-741
nder	-742
▁worth	-743
▁tried	-744
▁swe	-745
▁open	-746
ign	-747
▁special	-748
up	-749
▁expect	-750
uck	-751
▁drinks	-752
▁different	-753
iness	-754
▁dinner	-755
▁looking	-756
▁thing	-757
orn	-758
llent	-759
▁reason	-760
iced	-761
▁gre	-762
led	-763
▁sand	-764
ount	-765
▁happy	-766
▁chan	-767
uff	-768
ably	-769
ional	-770
▁done	-771
ato	-772
▁guy	-773
▁el	-774
ance	-775
rough	-776
▁lef	-777
ided	-778
▁ret	-779
▁kind	-780
▁fam	-781
osp	-782
▁sandw	-783
leas	-784
orm	-785
▁quality	-786
▁under	-787
▁pat	-788
▁years	-789
▁par	-790
▁char	-791
▁cas	-792
▁through	-793
▁plac	-794
aking	-795
ouse	-796
pr	-797
....	-798
plain	-799
ans	-800
▁sweet	-801
▁As	-802
▁may	-803
ife	-804
▁enough	-805
▁called	-806
▁same	-807
▁wr	-808
▁let	-809
▁sec	-810
▁$1	-811
ular	-812
▁cont	-813
▁found	-814
▁awesome	-815
ction	-816
▁away	-817
▁spot	-818
iss	-819
ult	-820
▁care	-821
▁break	-822
▁both	-823
ove	-824
lf	-825
▁taste	-826
ions	-827
▁dri	-828
▁left	-829
▁reg	-830
▁else	-831
pe	-832
▁past	-833
▁things	-834
▁put	-835
oney	-836
▁stay	-837
edi	-838
ise	-839
ffee	-840
▁tell	-841
icy	-842
▁favorite	-843
▁In	-844
▁ref	-845
▁10	-846
fort	-847
▁sele	-848
▁stars	-849
▁item	-850
ager	-851
ary	-852
▁fun	-853
▁deal	-854
ude	-855
▁full	-856
▁hand	-857
▁coming	-858
▁sou	-859
ott	-860
▁return	-861
▁bas	-862
▁fries	-863
▁top	-864
▁inst	-865
▁prices	-866
ER	-867
osphere	-868
og	-869
▁friends	-870
▁ok	-871
▁free	-872
▁cream	-873
mosphere	-874
▁old	-875
▁business	-876
anc	-877
▁excellent	-878
▁pleas	-879
▁lar	-880
▁job	-881
room	-882
io	-883
▁sur	-884
▁gi	-885
▁family	-886
fast	-887
sol	-888
▁Be	-889
ushi	-890
▁Every	-891
▁roll	-892
▁mon	-893
ately	-894
▁anything	-895
▁places	-896
ves	-897
mp	-898
▁coffee	-899
▁getting	-900
iet	-901
),	-902
▁water	-903
ations	-904
▁thought	-905
▁burger	-906
ons	-907
▁rice	-908
▁rece	-909
▁bo	-910
▁atmosphere	-911
▁Our	-912
▁busy	-913
▁gave	-914
any	-915
▁ask	-916
▁nothing	-917
▁pick	-918
▁cons	-919
▁cour	-920
ier	-921
uc	-922
▁actually	-923
▁hard	-924
▁pot	-925
bably	-926
▁money	-927
ew	-928
ervice	-929
▁front	-930
▁Very	-931
▁week	-932
▁decided	-933
rible	-934
ps	-935
▁line	-936
ark	-937
▁breakfast	-938
▁shop	-939
onder	-940
ables	-941
▁manager	-942
band	-943
▁sat	-944
solute	-945
▁tasty	-946
▁bread	-947
ize	-948
▁hotel	-949
usband	-950
▁pa	-951
▁av	-952
▁these	-953
▁use	-954
less	-955
essert	-956
▁used	-957
▁dish	-958
▁its	-959
▁selection	-960
▁rec	-961
▁month	-962
▁arri	-963
▁After	-964
▁Service	-965
▁For	-966
▁hair	-967
▁quite	-968
▁point	-969
ng	-970
▁All	-971
▁far	-972
▁20	-973
uring	-974
▁Than	-975
▁husband	-976
▁sandwich	-977
▁inside	-978
ild	-979
▁kid	-980
▁large	-981
vers	-982
astic	-983
▁each	-984
▁why	-985
▁eas	-986
most	-987
▁star	-988
▁No	-989
▁sushi	-990
fess	-991
▁without	-992
▁items	-993
▁steak	-994
▁beer	-995
▁half	-996
▁attent	-997
where	-998
▁needed	-999
ib	-1000
atch	-1001
▁tal	-1002
esp	-1003
und	-1004
arly	-1005
▁wonder	-1006
▁comple	-1007
▁egg	-1008
▁fried	-1009
▁looked	-1010
▁dessert	-1011
▁Food	-1012
ia	-1013
▁tac	-1014
▁.	-1015
▁Wh	-1016
▁house	-1017
▁fast	-1018
uge	-1019
▁sit	-1020
ails	-1021
▁disappointed	-1022
▁waiting	-1023
ten	-1024
cha	-1025
▁probably	-1026
▁war	-1027
▁helpful	-1028
▁reviews	-1029
ny	-1030
fessional	-1031
▁cho	-1032
▁door	-1033
▁hours	-1034
▁waitress	-1035
▁soup	-1036
▁cut	-1037
ord	-1038
▁sim	-1039
▁dishes	-1040
stand	-1041
reme	-1042
▁gir	-1043
▁couple	-1044
▁once	-1045
▁options	-1046
rip	-1047
blem	-1048
ged	-1049
ros	-1050
▁ty	-1051
ex	-1052
▁set	-1053
ared	-1054
vel	-1055
▁How	-1056
▁fill	-1057
ual	-1058
▁able	-1059
▁treat	-1060
▁having	-1061
▁real	-1062
▁Over	-1063
solutely	-1064
▁6	-1065
▁someone	-1066
riend	-1067
▁problem	-1068
ited	-1069
pping	-1070
elt	-1071
bs	-1072
▁beef	-1073
umm	-1074
▁such	-1075
▁keep	-1076
▁iss	-1077
ploy	-1078
▁everyone	-1079
▁enjoyed	-1080
roup	-1081
▁must	-1082
▁What	-1083
▁run	-1084
▁pic	-1085
▁those	-1086
▁ice	-1087
▁least	-1088
▁ter	-1089
aut	-1090
▁town	-1091
▁huge	-1092
▁stand	-1093
▁later	-1094
▁almost	-1095
ized	-1096
▁couldn	-1097
▁less	-1098
rimp	-1099
ecially	-1100
ward	-1101
▁trying	-1102
▁outside	-1103
▁days	-1104
ash	-1105
oke	-1106
▁won	-1107
▁loved	-1108
oll	-1109
▁rem	-1110
▁company	-1111
▁That	-1112
▁tasted	-1113
aw	-1114
▁extra	-1115
▁Also	-1116
▁employ	-1117
ale	-1118
▁cool	-1119
ted	-1120
▁cooked	-1121
▁impress	-1122
au	-1123
▁during	-1124
▁offer	-1125
ts	-1126
▁mus	-1127
remely	-1128
▁fish	-1129
▁rel	-1130
▁unt	-1131
▁felt	-1132
ied	-1133
▁walk	-1134
▁tables	-1135
▁owner	-1136
▁whole	-1137
ci	-1138
▁highly	-1139
ible	-1140
ead	-1141
▁year	-1142
ru	-1143
▁served	-1144
ather	-1145
▁light	-1146
ike	-1147
▁list	-1148
ates	-1149
▁appet	-1150
antastic	-1151
▁rep	-1152
▁bel	-1153
▁usually	-1154
▁dog	-1155
▁phone	-1156
ican	-1157
▁sty	-1158
ender	-1159
ised	-1160
▁bring	-1161
ren	-1162
▁Their	-1163
rill	-1164
▁incl	-1165
▁until	-1166
elp	-1167
▁second	-1168
▁pork	-1169
▁close	-1170
▁var	-1171
ical	-1172
▁stuff	-1173
▁esp	-1174
the	-1175
ning	-1176
▁inf	-1177
▁decent	-1178
▁surpr	-1179
ets	-1180
▁et	-1181
ues	-1182
ither	-1183
ically	-1184
▁wrong	-1185
▁spicy	-1186
▁potato	-1187
▁appoint	-1188
ensive	-1189
▁Am	-1190
▁sever	-1191
arl	-1192
ax	-1193
▁buy	-1194
▁cook	-1195
▁walked	-1196
cess	-1197
▁sign	-1198
rought	-1199
ho	-1200
▁ass	-1201
▁gen	-1202
gan	-1203
▁play	-1204
▁sk	-1205
▁extremely	-1206
▁Overall	-1207
▁pur	-1208
▁Dr	-1209
▁$2	-1210
▁several	-1211
▁wonderful	-1212
▁appointment	-1213
▁fix	-1214
ors	-1215
▁customers	-1216
▁eating	-1217
onest	-1218
▁today	-1219
autif	-1220
▁three	-1221
▁restaurants	-1222
IN	-1223
ft	-1224
▁name	-1225
▁:	-1226
▁One	-1227
ness	-1228
▁stop	-1229
▁professional	-1230
iously	-1231
▁decor	-1232
▁cold	-1233
▁complain	-1234
ock	-1235
▁doesn	-1236
▁main	-1237
▁hop	-1238
osed	-1239
que	-1240
▁brought	-1241
▁appetiz	-1242
▁anyone	-1243
owl	-1244
▁absolutely	-1245
▁wife	-1246
▁shrimp	-1247
▁kids	-1248
owd	-1249
▁tea	-1250
ently	-1251
▁Just	-1252
▁seemed	-1253
▁started	-1254
▁Good	-1255
▁girl	-1256
▁cra	-1257
itc	-1258
vent	-1259
▁group	-1260
▁comes	-1261
▁makes	-1262
▁ins	-1263
▁turn	-1264
▁working	-1265
▁NO	-1266
▁fantastic	-1267
no	-1268
ang	-1269
▁ap	-1270
▁bat	-1271
▁pack	-1272
isp	-1273
ocol	-1274
▁To	-1275
ips	-1276
▁leave	-1277
▁supp	-1278
▁pri	-1279
ork	-1280
ative	-1281
▁rude	-1282
ross	-1283
▁class	-1284
▁parking	-1285
▁finally	-1286
▁drive	-1287
▁especially	-1288
▁8	-1289
ory	-1290
▁complete	-1291
▁arrived	-1292
▁wine	-1293
▁buff	-1294
▁However	-1295
gin	-1296
not	-1297
ne	-1298
ready	-1299
▁card	-1300
▁cur	-1301
▁exc	-1302
atur	-1303
▁music	-1304
▁regular	-1305
▁beautif	-1306
▁doing	-1307
▁isn	-1308
▁guys	-1309
▁course	-1310
▁already	-1311
▁Re	-1312
--	-1313
▁party	-1314
▁cor	-1315
▁local	-1316
▁pos	-1317
▁miss	-1318
▁cost	-1319
by	-1320
▁tacos	-1321
▁live	-1322
ition	-1323
▁7	-1324
▁short	-1325
▁includ	-1326
ened	-1327
30	-1328
mon	-1329
mber	-1330
▁wouldn	-1331
ocolate	-1332
▁tot	-1333
▁nood	-1334
▁TH	-1335
af	-1336
▁bowl	-1337
▁making	-1338
▁amount	-1339
though	-1340
▁ago	-1341
aving	-1342
▁comfort	-1343
▁recei	-1344
▁fact	-1345
▁attentive	-1346
▁saw	-1347
▁red	-1348
▁disc	-1349
ees	-1350
▁sho	-1351
▁waited	-1352
▁resp	-1353
▁Love	-1354
▁Fri	-1355
▁size	-1356
hai	-1357
▁deli	-1358
▁instead	-1359
▁First	-1360
▁At	-1361
▁office	-1362
▁dining	-1363
▁dry	-1364
ats	-1365
▁pol	-1366
▁plate	-1367
▁either	-1368
▁quest	-1369
▁bill	-1370
ial	-1371
its	-1372
▁seated	-1373
▁Che	-1374
▁stre	-1375
tic	-1376
nter	-1377
rest	-1378
ern	-1379
▁,	-1380
▁prod	-1381
▁explain	-1382
▁prom	-1383
mm	-1384
▁waiter	-1385
▁yet	-1386
▁prov	-1387
pm	-1388
▁soon	-1389
▁floor	-1390
▁mar	-1391
▁quickly	-1392
ider	-1393
▁maybe	-1394
▁purcha	-1395
▁late	-1396
ye	-1397
▁smo	-1398
ention	-1399
▁15	-1400
▁Don	-1401
▁crisp	-1402
rit	-1403
▁warm	-1404
ients	-1405
▁myself	-1406
▁requ	-1407
▁entire	-1408
iv	-1409
▁easy	-1410
▁gener	-1411
▁Pl	-1412
▁ind	-1413
▁paid	-1414
itting	-1415
▁Thank	-1416
ertain	-1417
ino	-1418
▁strip	-1419
▁glass	-1420
▁bott	-1421
▁honest	-1422
▁near	-1423
iter	-1424
▁aut	-1425
▁needs	-1426
▁est	-1427
▁hor	-1428
avour	-1429
▁beautiful	-1430
▁might	-1431
▁slow	-1432
▁wish	-1433
verage	-1434
▁boy	-1435
!!!!	-1436
▁fine	-1437
uct	-1438
old	-1439
▁liked	-1440
▁pass	-1441
▁read	-1442
ggest	-1443
▁30	-1444
▁Then	-1445
▁received	-1446
▁dress	-1447
ung	-1448
▁bag	-1449
▁Las	-1450
kend	-1451
itchen	-1452
▁morn	-1453
▁head	-1454
cc	-1455
▁Sp	-1456
▁str	-1457
▁fair	-1458
ced	-1459
▁reserv	-1460
▁fan	-1461
▁variet	-1462
▁Will	-1463
▁reasonable	-1464
▁num	-1465
ah	-1466
acon	-1467
▁suggest	-1468
▁9	-1469
▁ended	-1470
ster	-1471
gar	-1472
▁prep	-1473
▁chocolate	-1474
▁portions	-1475
▁understand	-1476
▁charge	-1477
▁weekend	-1478
▁mention	-1479
▁cheap	-1480
▁Everything	-1481
▁crowd	-1482
ides	-1483
▁cup	-1484
ots	-1485
▁ton	-1486
▁Ex	-1487
▁ready	-1488
▁change	-1489
▁however	-1490
▁air	-1491
ledge	-1492
▁avail	-1493
ieve	-1494
▁medi	-1495
augh	-1496
▁lack	-1497
ures	-1498
▁months	-1499
▁pres	-1500
ell	-1501
ines	-1502
▁impressed	-1503
ES	-1504
▁morning	-1505
▁wings	-1506
▁Un	-1507
▁Had	-1508
▁pie	-1509
▁accom	-1510
ange	-1511
▁bir	-1512
▁seating	-1513
▁mass	-1514
▁watch	-1515
▁seen	-1516
▁expensive	-1517
▁pool	-1518
▁inte	-1519
▁style	-1520
".	-1521
▁veget	-1522
oose	-1523
ret	-1524
row	-1525
▁sn	-1526
▁Cha	-1527
▁employees	-1528
▁inter	-1529
▁mix	-1530
▁lou	-1531
mb	-1532
▁pain	-1533
gers	-1534
▁season	-1535
▁rolls	-1536
▁guess	-1537
▁counter	-1538
▁trip	-1539
iance	-1540
▁dro	-1541
▁pleasant	-1542
▁Definitely	-1543
▁portion	-1544
▁cake	-1545
ique	-1546
▁given	-1547
▁variety	-1548
▁rid	-1549
▁mil	-1550
idd	-1551
▁plan	-1552
line	-1553
▁mind	-1554
▁inform	-1555
▁seems	-1556
▁lady	-1557
▁comb	-1558
▁conf	-1559
ime	-1560
▁grill	-1561
sw	-1562
▁mom	-1563
▁chips	-1564
▁col	-1565
aturday	-1566
ummy	-1567
▁repl	-1568
ins	-1569
zy	-1570
▁sto	-1571
▁etc	-1572
50	-1573
ech	-1574
ired	-1575
▁available	-1576
alth	-1577
▁perfectly	-1578
▁kept	-1579
enty	-1580
▁Saturday	-1581
▁taking	-1582
▁acc	-1583
co	-1584
▁okay	-1585
▁buffet	-1586
▁looks	-1587
▁mat	-1588
▁offered	-1589
▁typ	-1590
▁tom	-1591
ulous	-1592
▁believe	-1593
▁ju	-1594
outh	-1595
▁cash	-1596
▁Now	-1597
▁incred	-1598
▁wel	-1599
▁eff	-1600
▁imm	-1601
isf	-1602
▁greet	-1603
ween	-1604
▁'	-1605
▁answ	-1606
▁kitchen	-1607
ey	-1608
▁bacon	-1609
▁bart	-1610
▁wall	-1611
dd	-1612
▁Ne	-1613
▁worst	-1614
▁wind	-1615
▁reme	-1616
▁comfortable	-1617
▁life	-1618
▁mess	-1619
▁sub	-1620
friend	-1621
▁interest	-1622
▁issue	-1623
ully	-1624
▁adv	-1625
cept	-1626
▁early	-1627
▁weeks	-1628
▁low	-1629
▁NOT	-1630
▁Pho	-1631
ents	-1632
▁often	-1633
▁host	-1634
▁flavors	-1635
arn	-1636
▁Can	-1637
▁product	-1638
ding	-1639
▁street	-1640
pper	-1641
sa	-1642
thday	-1643
▁ate	-1644
▁glad	-1645
▁amb	-1646
▁Thai	-1647
▁knowledge	-1648
amb	-1649
▁conc	-1650
rap	-1651
ING	-1652
▁Mex	-1653
▁patio	-1654
ump	-1655
ank	-1656
▁butter	-1657
LL	-1658
ished	-1659
▁Yelp	-1660
▁serve	-1661
ird	-1662
fortun	-1663
▁Fr	-1664
lish	-1665
▁choice	-1666
▁stra	-1667
▁knew	-1668
▁Chin	-1669
▁recommended	-1670
▁Well	-1671
cked	-1672
wh	-1673
▁completely	-1674
▁plus	-1675
▁appre	-1676
aken	-1677
▁view	-1678
▁Best	-1679
gr	-1680
RE	-1681
▁twice	-1682
▁sy	-1683
▁lots	-1684
▁exact	-1685
ody	-1686
olog	-1687
▁An	-1688
unday	-1689
▁sitting	-1690
▁emp	-1691
▁nails	-1692
▁average	-1693
▁green	-1694
▁between	-1695
▁spend	-1696
."	-1697
▁bed	-1698
▁Br	-1699
▁ce	-1700
▁gets	-1701
ollow	-1702
▁Sunday	-1703
▁Went	-1704
ured	-1705
ption	-1706
rench	-1707
▁Sh	-1708
▁space	-1709
▁bath	-1710
▁appreci	-1711
▁birthday	-1712
▁choose	-1713
▁due	-1714
▁overall	-1715
▁ordering	-1716
▁det	-1717
▁Oh	-1718
ole	-1719
▁spr	-1720
▁:)	-1721
ments	-1722
▁gone	-1723
▁priced	-1724
▁comm	-1725
▁orders	-1726
▁noodles	-1727
▁tra	-1728
arent	-1729
▁request	-1730
▁sw	-1731
▁la	-1732
▁vegg	-1733
▁sme	-1734
▁itself	-1735
arlic	-1736
aughter	-1737
▁others	-1738
▁rather	-1739
▁Sc	-1740
▁cock	-1741
▁immedi	-1742
▁satisf	-1743
▁yes	-1744
▁health	-1745
man	-1746
cks	-1747
iterally	-1748
▁taken	-1749
▁Chicken	-1750
hind	-1751
▁crispy	-1752
▁pop	-1753
alian	-1754
go	-1755
▁horrible	-1756
▁pict	-1757
▁ing	-1758
▁lob	-1759
??	-1760
▁expected	-1761
▁consider	-1762
▁clos	-1763
▁int	-1764
▁dep	-1765
▁behind	-1766
▁experien	-1767
VER	-1768
▁follow	-1769
▁bite	-1770
ames	-1771
▁Pr	-1772
▁tech	-1773
▁poor	-1774
▁consist	-1775
AT	-1776
▁saying	-1777
▁across	-1778
▁book	-1779
hentic	-1780
itional	-1781
▁bro	-1782
▁heard	-1783
▁proper	-1784
▁Mexican	-1785
▁along	-1786
OU	-1787
ling	-1788
iches	-1789
▁terrible	-1790
na	-1791
▁event	-1792
used	-1793
▁burgers	-1794
▁white	-1795
ister	-1796
▁eggs	-1797
▁smell	-1798
▁Bl	-1799
▁May	-1800
▁evening	-1801
ection	-1802
▁wom	-1803
▁ide	-1804
▁norm	-1805
fortunately	-1806
uly	-1807
▁BB	-1808
▁Even	-1809
▁ingred	-1810
ote	-1811
▁within	-1812
imes	-1813
▁Friday	-1814
▁rooms	-1815
▁option	-1816
mod	-1817
▁speak	-1818
▁cockt	-1819
▁Q	-1820
gether	-1821
▁appetizer	-1822
▁di	-1823
▁fac	-1824
▁Thanks	-1825
▁moved	-1826
▁!	-1827
▁pi	-1828
▁brunch	-1829
come	-1830
▁potatoes	-1831
▁level	-1832
▁hung	-1833
▁daughter	-1834
▁contin	-1835
ighb	-1836
▁type	-1837
▁immediately	-1838
ched	-1839
▁doll	-1840
▁yummy	-1841
▁corn	-1842
▁plenty	-1843
▁oil	-1844
agement	-1845
ON	-1846
ior	-1847
▁window	-1848
▁pull	-1849
eces	-1850
▁pasta	-1851
▁text	-1852
ada	-1853
▁weren	-1854
▁mean	-1855
▁helped	-1856
uts	-1857
▁tomato	-1858
▁number	-1859
▁stick	-1860
▁stopped	-1861
els	-1862
▁High	-1863
▁Would	-1864
ita	-1865
▁surprised	-1866
▁val	-1867
▁soft	-1868
▁questions	-1869
▁box	-1870
hip	-1871
▁hit	-1872
▁process	-1873
▁simple	-1874
rooms	-1875
▁Se	-1876
ries	-1877
▁ob	-1878
▁ste	-1879
▁neighb	-1880
▁desk	-1881
▁servers	-1882
▁accommod	-1883
▁relax	-1884
▁remember	-1885
▁crab	-1886
sed	-1887
afood	-1888
▁mush	-1889
read	-1890
VE	-1891
aj	-1892
▁cal	-1893
▁certain	-1894
▁tip	-1895
▁opened	-1896
▁chef	-1897
▁art	-1898
att	-1899
▁four	-1900
▁worked	-1901
▁Su	-1902
▁met	-1903
▁issues	-1904
▁flavour	-1905
▁haven	-1906
▁together	-1907
▁sing	-1908
.9	-1909
▁mod	-1910
▁pieces	-1911
▁giving	-1912
▁talk	-1913
▁Sal	-1914
▁dou	-1915
▁gy	-1916
▁sandwiches	-1917
▁LO	-1918
▁Came	-1919
par	-1920
airs	-1921
▁boyfriend	-1922
▁sched	-1923
▁club	-1924
▁scre	-1925
ried	-1926
▁ori	-1927
▁authentic	-1928
▁tender	-1929
▁*	-1930
▁BBQ	-1931
▁Italian	-1932
▁bought	-1933
▁burrit	-1934
▁garlic	-1935
▁walking	-1936
▁grab	-1937
▁toast	-1938
▁hear	-1939
▁--	-1940
▁ingredients	-1941
▁longer	-1942
fer	-1943
als	-1944
ai	-1945
▁literally	-1946
▁black	-1947
ibly	-1948
ili	-1949
▁ones	-1950
:30	-1951
▁unique	-1952
▁salon	-1953
ces	-1954
▁Chinese	-1955
edic	-1956
▁poss	-1957
▁sell	-1958
▁build	-1959
iting	-1960
▁move	-1961
umb	-1962
▁loud	-1963
▁packed	-1964
▁dir	-1965
▁forward	-1966
CE	-1967
▁empty	-1968
▁sol	-1969
▁son	-1970
▁online	-1971
▁knowledgeable	-1972
▁exactly	-1973
enix	-1974
▁z	-1975
▁noticed	-1976
▁ann	-1977
▁tou	-1978
rect	-1979
▁recently	-1980
avy	-1981
▁prepared	-1982
▁guest	-1983
▁minute	-1984
▁massage	-1985
let	-1986
▁flavorful	-1987
▁checked	-1988
ball	-1989
▁date	-1990
▁yourself	-1991
▁Do	-1992
amen	-1993
▁paying	-1994
▁game	-1995
▁occ	-1996
▁While	-1997
▁totally	-1998
▁$5	-1999
ule	-2000
which	-2001
▁present	-2002
▁fre	-2003
ST	-2004
▁grilled	-2005
▁cute	-2006
ility	-2007
ense	-2008
aked	-2009
▁showed	-2010
▁greeted	-2011
▁above	-2012
▁rent	-2013
▁salsa	-2014
▁reservation	-2015
▁Really	-2016
▁added	-2017
▁hang	-2018
br	-2019
▁Nice	-2020
bur	-2021
▁sam	-2022
▁bland	-2023
▁$3	-2024
▁hope	-2025
▁beans	-2026
fic	-2027
ict	-2028
zen	-2029
▁excited	-2030
berry	-2031
▁THE	-2032
right	-2033
▁Mar	-2034
illa	-2035
▁delivery	-2036
▁child	-2037
AN	-2038
nce	-2039
▁salmon	-2040
ges	-2041
orry	-2042
▁cond	-2043
▁inv	-2044
▁Was	-2045
rees	-2046
ys	-2047
▁choices	-2048
▁creat	-2049
yond	-2050
▁With	-2051
ug	-2052
▁fig	-2053
▁Ste	-2054
▁truly	-2055
▁cent	-2056
port	-2057
▁Phoenix	-2058
antly	-2059
▁post	-2060
▁says	-2061
▁fo	-2062
arb	-2063
▁crust	-2064
ownt	-2065
▁located	-2066
▁nail	-2067
▁takes	-2068
▁vi	-2069
▁Some	-2070
▁chair	-2071
▁hands	-2072
ctor	-2073
▁mouth	-2074
▁welcom	-2075
▁seafood	-2076
▁eye	-2077
▁standard	-2078
▁origin	-2079
ini	-2080
▁bartender	-2081
ored	-2082
ages	-2083
owntown	-2084
made	-2085
ined	-2086
orth	-2087
▁cred	-2088
▁Both	-2089
ower	-2090
ming	-2091
▁ele	-2092
▁Any	-2093
▁charged	-2094
▁meals	-2095
▁$4	-2096
▁sales	-2097
pect	-2098
itive	-2099
▁aff	-2100
▁hold	-2101
hood	-2102
▁piece	-2103
kes	-2104
▁feeling	-2105
▁attention	-2106
ging	-2107
▁non	-2108
▁sent	-2109
▁finish	-2110
ites	-2111
▁idea	-2112
▁meet	-2113
ppings	-2114
▁allow	-2115
▁management	-2116
▁11	-2117
ific	-2118
▁201	-2119
▁tem	-2120
▁Highly	-2121
▁seat	-2122
arian	-2123
▁attit	-2124
▁partic	-2125
▁mult	-2126
▁although	-2127
▁estab	-2128
standing	-2129
▁team	-2130
amp	-2131
▁mach	-2132
▁conven	-2133
▁...	-2134
▁pricey	-2135
head	-2136
▁contact	-2137
▁happened	-2138
▁train	-2139
▁beyond	-2140
▁12	-2141
▁ambiance	-2142
▁Jo	-2143
▁Ca	-2144
emon	-2145
▁based	-2146
▁turned	-2147
▁beers	-2148
▁mac	-2149
▁spent	-2150
?!	-2151
▁goes	-2152
▁sound	-2153
▁talking	-2154
▁share	-2155
ply	-2156
▁word	-2157
hic	-2158
▁Del	-2159
ket	-2160
▁appe	-2161
▁eaten	-2162
▁panc	-2163
▁asking	-2164
▁wed	-2165
uit	-2166
che	-2167
▁Maybe	-2168
▁Cle	-2169
erg	-2170
viously	-2171
ident	-2172
▁Cal	-2173
OR	-2174
.00	-2175
▁explained	-2176
▁plates	-2177
▁Bur	-2178
▁Ord	-2179
▁apolog	-2180
chool	-2181
▁refill	-2182
▁bun	-2183
▁New	-2184
▁hungry	-2185
▁apart	-2186
▁dirty	-2187
icing	-2188
▁owners	-2189
iron	-2190
▁lim	-2191
▁including	-2192
▁thank	-2193
ms	-2194
▁forg	-2195
▁case	-2196
▁world	-2197
▁appro	-2198
▁toppings	-2199
iment	-2200
▁closed	-2201
arely	-2202
▁patient	-2203
hel	-2204
▁credit	-2205
ract	-2206
▁anywhere	-2207
una	-2208
asy	-2209
▁phot	-2210
▁five	-2211
▁fro	-2212
▁dam	-2213
▁fut	-2214
▁Go	-2215
▁stayed	-2216
▁color	-2217
key	-2218
▁luck	-2219
▁establish	-2220
▁leg	-2221
▁compl	-2222
▁chance	-2223
but	-2224
unk	-2225
▁aren	-2226
▁multi	-2227
iddle	-2228
▁city	-2229
vious	-2230
icient	-2231
oved	-2232
▁slight	-2233
▁Char	-2234
▁prompt	-2235
▁Ro	-2236
zz	-2237
▁changed	-2238
ane	-2239
▁coll	-2240
▁filled	-2241
▁cannot	-2242
iny	-2243
▁neg	-2244
arket	-2245
▁Ser	-2246
▁taco	-2247
▁ups	-2248
▁AN	-2249
ado	-2250
ities	-2251
nam	-2252
oli	-2253
▁shopping	-2254
med	-2255
▁services	-2256
▁future	-2257
▁Me	-2258
ase	-2259
▁Yes	-2260
▁correct	-2261
▁using	-2262
▁thin	-2263
▁smooth	-2264
.....	-2265
▁sides	-2266
▁attitude	-2267
▁chees	-2268
ature	-2269
▁saus	-2270
▁curry	-2271
▁commun	-2272
▁vibe	-2273
▁salty	-2274
.5	-2275
▁waff	-2276
▁Com	-2277
ands	-2278
▁specials	-2279
▁appetizers	-2280
oid	-2281
▁burrito	-2282
▁visiting	-2283
▁Par	-2284
▁joint	-2285
ait	-2286
▁stud	-2287
▁tor	-2288
▁lobster	-2289
▁Never	-2290
▁French	-2291
/2	-2292
▁filling	-2293
like	-2294
▁Exce	-2295
▁Staff	-2296
▁young	-2297
▁vehic	-2298
▁brown	-2299
▁single	-2300
de	-2301
▁sad	-2302
enc	-2303
▁downtown	-2304
▁ran	-2305
aged	-2306
▁value	-2307
▁Cl	-2308
▁Ab	-2309
▁pepper	-2310
▁$10	-2311
▁particular	-2312
ift	-2313
OM	-2314
tt	-2315
▁tap	-2316
▁spl	-2317
▁tick	-2318
ana	-2319
ising	-2320
▁neighbor	-2321
▁Everyone	-2322
iculous	-2323
priced	-2324
▁squ	-2325
▁matter	-2326
▁finished	-2327
▁opin	-2328
▁purchase	-2329
▁($	-2330
▁heart	-2331
noon	-2332
▁ramen	-2333
▁touch	-2334
▁Pe	-2335
▁mist	-2336
▁picked	-2337
isc	-2338
▁medium	-2339
▁summ	-2340
▁prefer	-2341
▁dent	-2342
pon	-2343
▁face	-2344
oron	-2345
▁sauc	-2346
ics	-2347
▁Other	-2348
ence	-2349
▁supposed	-2350
▁sometimes	-2351
▁multiple	-2352
ops	-2353
▁milk	-2354
▁Chr	-2355
▁interesting	-2356
▁dire	-2357
ison	-2358
▁middle	-2359
▁From	-2360
▁count	-2361
▁hostess	-2362
▁install	-2363
sh	-2364
▁trans	-2365
▁Per	-2366
▁Amazing	-2367
▁simply	-2368
stem	-2369
▁disappointing	-2370
▁sour	-2371
urs	-2372
▁Gr	-2373
▁total	-2374
▁outstanding	-2375
LE	-2376
▁honestly	-2377
▁paper	-2378
lo	-2379
▁tour	-2380
more	-2381
▁thick	-2382
▁Super	-2383
▁afternoon	-2384
▁park	-2385
▁girls	-2386
▁seats	-2387
10	-2388
▁equ	-2389
▁incredible	-2390
▁import	-2391
▁happen	-2392
▁answer	-2393
▁Only	-2394
▁vegan	-2395
▁personal	-2396
▁Scott	-2397
ppy	-2398
!)	-2399
▁Excellent	-2400
▁onion	-2401
▁sort	-2402
▁returning	-2403
▁Man	-2404
▁mins	-2405
▁dist	-2406
▁dogs	-2407
▁please	-2408
▁These	-2409
▁fixed	-2410
▁chose	-2411
▁system	-2412
▁bathroom	-2413
▁cu	-2414
▁employee	-2415
ina	-2416
▁crowded	-2417
▁Pro	-2418
▁school	-2419
▁convers	-2420
selves	-2421
▁po	-2422
▁opinion	-2423
▁situ	-2424
▁serving	-2425
▁afford	-2426
▁Once	-2427
▁woman	-2428
wards	-2429
▁gel	-2430
▁Ind	-2431
▁casino	-2432
▁Tr	-2433
▁AM	-2434
▁strong	-2435
▁wash	-2436
▁sausage	-2437
▁tastes	-2438
▁running	-2439
sp	-2440
▁env	-2441
▁efficient	-2442
▁Z	-2443
ership	-2444
AR	-2445
▁write	-2446
▁occas	-2447
▁Car	-2448
oronto	-2449
▁visited	-2450
▁whe	-2451
time	-2452
▁spec	-2453
▁products	-2454
dale	-2455
▁lemon	-2456
▁dark	-2457
▁ribs	-2458
▁establishment	-2459
OO	-2460
▁leaving	-2461
con	-2462
▁mel	-2463
▁fore	-2464
▁mis	-2465
amed	-2466
▁exception	-2467
▁bab	-2468
my	-2469
▁begin	-2470
EN	-2471
▁vegetarian	-2472
▁trad	-2473
▁desserts	-2474
alley	-2475
▁bell	-2476
▁somewhere	-2477
▁truck	-2478
▁Toronto	-2479
ma	-2480
ED	-2481
▁treated	-2482
▁wedding	-2483
▁included	-2484
▁Amer	-2485
▁convenient	-2486
▁tow	-2487
▁salt	-2488
ants	-2489
▁veggies	-2490
▁building	-2491
▁discount	-2492
anese	-2493
▁yelp	-2494
▁Fin	-2495
▁concern	-2496
▁mall	-2497
▁welcoming	-2498
▁ahead	-2499
▁Cr	-2500
AY	-2501
▁lay	-2502
ler	-2503
▁broth	-2504
▁Co	-2505
.)	-2506
▁cleaning	-2507
▁gem	-2508
▁basically	-2509
▁tasting	-2510
▁Sm	-2511
▁outd	-2512
▁fit	-2513
▁App	-2514
▁result	-2515
ironment	-2516
▁ball	-2517
ilar	-2518
ivered	-2519
▁Since	-2520
▁seeing	-2521
ux	-2522
▁email	-2523
▁roast	-2524
▁healthy	-2525
▁TV	-2526
ancy	-2527
ocre	-2528
▁mine	-2529
▁clear	-2530
itas	-2531
▁Aw	-2532
▁forget	-2533
▁bottle	-2534
▁pleased	-2535
▁win	-2536
▁send	-2537
LY	-2538
sing	-2539
▁crazy	-2540
ilet	-2541
urance	-2542
▁generous	-2543
▁fairly	-2544
real	-2545
▁appreciate	-2546
wise	-2547
▁sauces	-2548
▁Unfortunately	-2549
▁Fl	-2550
▁onions	-2551
work	-2552
orean	-2553
▁waste	-2554
▁knows	-2555
▁pulled	-2556
▁100	-2557
▁upd	-2558
▁bud	-2559
▁works	-2560
▁$6	-2561
▁pho	-2562
cl	-2563
▁lost	-2564
▁design	-2565
.99	-2566
▁salads	-2567
fully	-2568
▁mas	-2569
ters	-2570
▁organ	-2571
min	-2572
▁section	-2573
▁straw	-2574
arch	-2575
▁true	-2576
▁ban	-2577
▁#	-2578
sdale	-2579
▁neighborhood	-2580
▁Ok	-2581
▁Charl	-2582
▁delivered	-2583
▁pictures	-2584
▁summer	-2585
ream	-2586
▁unless	-2587
ky	-2588
▁gotten	-2589
ists	-2590
The	-2591
▁const	-2592
body	-2593
▁forgot	-2594
▁satisfied	-2595
▁possible	-2596
▁dollars	-2597
ying	-2598
bed	-2599
▁Ar	-2600
▁Ordered	-2601
ken	-2602
yes	-2603
▁Qu	-2604
house	-2605
ari	-2606
▁desc	-2607
▁environment	-2608
▁scr	-2609
▁mov	-2610
▁complaint	-2611
▁entree	-2612
▁shared	-2613
▁Although	-2614
▁airport	-2615
▁mixed	-2616
ushed	-2617
▁easily	-2618
aki	-2619
▁dressing	-2620
▁slightly	-2621
▁hig	-2622
pro	-2623
▁clearly	-2624
▁doctor	-2625
ned	-2626
▁ble	-2627
orough	-2628
▁trust	-2629
ays	-2630
▁quiet	-2631
▁thinking	-2632
▁ridiculous	-2633
▁heat	-2634
▁baked	-2635
▁repair	-2636
▁expecting	-2637
▁vehicle	-2638
arently	-2639
▁mentioned	-2640
▁tiny	-2641
▁upon	-2642
▁Nothing	-2643
▁expectations	-2644
▁frequ	-2645
▁deep	-2646
▁provided	-2647
▁Ari	-2648
▁combo	-2649
▁rating	-2650
▁lovely	-2651
▁refund	-2652
▁fa	-2653
▁games	-2654
▁Jap	-2655
▁situation	-2656
▁impro	-2657
▁typical	-2658
▁remind	-2659
▁accommodating	-2660
▁Most	-2661
▁craving	-2662
▁smile	-2663
▁mediocre	-2664
▁usual	-2665
▁solid	-2666
ones	-2667
lla	-2668
▁detail	-2669
ination	-2670
tuce	-2671
▁bal	-2672
▁overpriced	-2673
▁Bar	-2674
ppers	-2675
▁weird	-2676
urt	-2677
▁playing	-2678
▁checking	-2679
▁insurance	-2680
aced	-2681
▁purchased	-2682
▁memb	-2683
▁polite	-2684
▁seasoned	-2685
enders	-2686
▁fee	-2687
oooo	-2688
▁incredibly	-2689
▁fab	-2690
what	-2691
ona	-2692
▁yell	-2693
▁Mac	-2694
▁notice	-2695
IS	-2696
▁fruit	-2697
imate	-2698
▁considering	-2699
ached	-2700
▁Did	-2701
▁diffic	-2702
▁fall	-2703
▁awful	-2704
▁certainly	-2705
ocked	-2706
▁elsewhere	-2707
▁techn	-2708
▁45	-2709
▁LOVE	-2710
▁original	-2711
▁fil	-2712
▁locations	-2713
▁flat	-2714
tern	-2715
ka	-2716
▁Sha	-2717
▁Pizza	-2718
ator	-2719
▁limited	-2720
▁Always	-2721
▁annoy	-2722
rant	-2723
▁Scottsdale	-2724
▁center	-2725
▁fat	-2726
▁staying	-2727
cooked	-2728
▁whatever	-2729
▁stores	-2730
▁OK	-2731
/5	-2732
oss	-2733
orts	-2734
▁worse	-2735
▁Wow	-2736
light	-2737
▁skin	-2738
▁press	-2739
▁addition	-2740
rew	-2741
▁crunch	-2742
aring	-2743
▁moving	-2744
▁pancakes	-2745
▁Asian	-2746
▁ed	-2747
▁guests	-2748
aper	-2749
land	-2750
▁entrees	-2751
ron	-2752
▁prior	-2753
▁conversation	-2754
▁Wal	-2755
▁gym	-2756
otte	-2757
ency	-2758
▁tort	-2759
▁surprise	-2760
aim	-2761
▁tonight	-2762
▁straight	-2763
▁texture	-2764
▁except	-2765
▁alone	-2766
▁question	-2767
ering	-2768
acks	-2769
▁cab	-2770
▁Friend	-2771
▁negative	-2772
ains	-2773
ara	-2774
▁attend	-2775
▁Mond	-2776
▁cance	-2777
▁barely	-2778
▁rib	-2779
▁Tw	-2780
▁lettuce	-2781
▁webs	-2782
▁Hot	-2783
▁pract	-2784
▁replace	-2785
▁tuna	-2786
15	-2787
▁Got	-2788
▁step	-2789
ath	-2790
▁cocktails	-2791
▁smaller	-2792
▁frozen	-2793
▁Wor	-2794
▁pedic	-2795
▁NE	-2796
▁rare	-2797
▁learn	-2798
▁modern	-2799
▁reservations	-2800
▁De	-2801
▁outdoor	-2802
▁chairs	-2803
▁booth	-2804
now	-2805
UT	-2806
eep	-2807
▁compliment	-2808
▁note	-2809
▁Let	-2810
▁previous	-2811
ton	-2812
▁Or	-2813
ives	-2814
▁positive	-2815
▁foot	-2816
▁Its	-2817
▁problems	-2818
over	-2819
por	-2820
ucks	-2821
▁flight	-2822
ocado	-2823
▁$7	-2824
▁die	-2825
▁Le	-2826
▁seriously	-2827
▁board	-2828
▁beat	-2829
▁blue	-2830
bo	-2831
▁pan	-2832
▁spice	-2833
ric	-2834
ially	-2835
▁throughout	-2836
▁Awesome	-2837
▁lived	-2838
▁vac	-2839
▁missing	-2840
▁24	-2841
▁shot	-2842
▁lol	-2843
▁sorry	-2844
▁juicy	-2845
vered	-2846
▁noodle	-2847
eless	-2848
▁margar	-2849
▁Mont	-2850
▁thorough	-2851
▁compared	-2852
▁website	-2853
▁willing	-2854
▁hy	-2855
▁lamb	-2856
▁Like	-2857
▁test	-2858
whel	-2859
▁Finally	-2860
ero	-2861
▁station	-2862
▁chill	-2863
▁$20	-2864
▁avoid	-2865
aded	-2866
▁continue	-2867
▁greasy	-2868
▁means	-2869
▁homemade	-2870
fu	-2871
▁cafe	-2872
▁difficult	-2873
▁corner	-2874
▁Charlotte	-2875
▁spoke	-2876
▁dra	-2877
▁creamy	-2878
▁Gu	-2879
▁separ	-2880
isket	-2881
▁Indian	-2882
roc	-2883
▁Korean	-2884
▁normal	-2885
ajor	-2886
▁affordable	-2887
they	-2888
inger	-2889
▁provide	-2890
uesday	-2891
▁cashier	-2892
gain	-2893
▁covered	-2894
▁hate	-2895
▁lad	-2896
▁50	-2897
terday	-2898
hol	-2899
▁def	-2900
▁compet	-2901
AZ	-2902
omb	-2903
aven	-2904
▁tre	-2905
▁chew	-2906
▁glasses	-2907
▁assist	-2908
ope	-2909
▁mostly	-2910
▁Next	-2911
IT	-2912
▁lat	-2913
▁traditional	-2914
▁experienced	-2915
OW	-2916
▁meats	-2917
AS	-2918
▁40	-2919
▁sister	-2920
▁AND	-2921
entle	-2922
▁bunch	-2923
▁experiences	-2924
▁fell	-2925
▁split	-2926
val	-2927
just	-2928
▁clot	-2929
▁travel	-2930
▁higher	-2931
▁adm	-2932
▁dip	-2933
ches	-2934
lebr	-2935
▁brew	-2936
▁schedul	-2937
▁Bell	-2938
▁opp	-2939
ued	-2940
pet	-2941
▁SO	-2942
▁nicely	-2943
▁accept	-2944
▁form	-2945
gust	-2946
▁chain	-2947
▁Last	-2948
▁chili	-2949
▁nec	-2950
▁save	-2951
▁bottom	-2952
.50	-2953
▁wra	-2954
haps	-2955
ospit	-2956
ills	-2957
ipped	-2958
▁mistake	-2959
▁spin	-2960
▁telling	-2961
▁cocktail	-2962
▁baby	-2963
▁additional	-2964
action	-2965
▁exam	-2966
lfriend	-2967
▁American	-2968
▁actual	-2969
▁similar	-2970
idden	-2971
▁imag	-2972
▁Monday	-2973
▁$8	-2974
▁sle	-2975
▁En	-2976
▁shows	-2977
▁enc	-2978
▁machine	-2979
▁perfection	-2980
IC	-2981
▁mem	-2982
lic	-2983
ggy	-2984
▁pizz	-2985
EA	-2986
▁buying	-2987
ause	-2988
▁bri	-2989
▁returned	-2990
▁nights	-2991
▁cleaned	-2992
▁brand	-2993
▁bother	-2994
▁placed	-2995
▁double	-2996
▁cause	-2997
▁notch	-2998
▁watching	-2999
▁pricing	-3000
rent	-3001
▁reading	-3002
▁Dec	-3003
ision	-3004
▁Tuesday	-3005
▁cars	-3006
cle	-3007
for	-3008
▁Plus	-3009
omen	-3010
da	-3011
eed	-3012
chi	-3013
stairs	-3014
▁+	-3015
▁kinda	-3016
▁rush	-3017
▁forever	-3018
▁spots	-3019
▁shops	-3020
▁girlfriend	-3021
▁guac	-3022
ows	-3023
oni	-3024
▁informed	-3025
▁ven	-3026
▁sugar	-3027
▁interior	-3028
▁Why	-3029
▁rate	-3030
▁stuffed	-3031
▁major	-3032
▁gentle	-3033
umpl	-3034
▁fancy	-3035
▁Japanese	-3036
▁ign	-3037
▁kick	-3038
▁support	-3039
dy	-3040
▁Gre	-3041
▁pour	-3042
▁By	-3043
▁rich	-3044
▁da	-3045
▁bucks	-3046
▁basic	-3047
sters	-3048
▁anymore	-3049
ze	-3050
▁booked	-3051
▁tax	-3052
▁sampl	-3053
eded	-3054
▁celebr	-3055
▁favour	-3056
▁casual	-3057
oon	-3058
onse	-3059
▁Delicious	-3060
▁round	-3061
▁Try	-3062
▁Is	-3063
▁normally	-3064
iled	-3065
cut	-3066
▁vegetables	-3067
olks	-3068
▁information	-3069
▁slice	-3070
▁plat	-3071
**	-3072
reek	-3073
▁pub	-3074
ctions	-3075
inks	-3076
▁ladies	-3077
enny	-3078
▁story	-3079
▁dim	-3080
▁avocado	-3081
▁access	-3082
▁EVER	-3083
▁25	-3084
urity	-3085
AZING	-3086
▁children	-3087
▁vers	-3088
▁ten	-3089
▁Prices	-3090
▁Another	-3091
erve	-3092
ware	-3093
▁furn	-3094
▁ON	-3095
▁obviously	-3096
▁Friendly	-3097
ician	-3098
▁juice	-3099
▁fabulous	-3100
▁calling	-3101
▁desert	-3102
▁moment	-3103
▁receive	-3104
▁veggie	-3105
EST	-3106
▁schedule	-3107
▁Ter	-3108
▁las	-3109
▁Mc	-3110
vert	-3111
▁veg	-3112
acious	-3113
lease	-3114
▁response	-3115
▁known	-3116
itts	-3117
▁Sa	-3118
imi	-3119
▁cheaper	-3120
▁movie	-3121
▁cover	-3122
▁Burger	-3123
▁mushrooms	-3124
▁picture	-3125
▁sense	-3126
tle	-3127
▁dough	-3128
elf	-3129
ained	-3130
▁none	-3131
▁pet	-3132
▁bak	-3133
▁lines	-3134
▁bon	-3135
▁Christ	-3136
▁chat	-3137
▁tur	-3138
▁thru	-3139
zona	-3140
▁opening	-3141
▁dont	-3142
achos	-3143
outs	-3144
▁fire	-3145
▁entertain	-3146
teous	-3147
ittsbur	-3148
▁gift	-3149
▁delight	-3150
▁AMAZING	-3151
▁perform	-3152
outine	-3153
▁smoke	-3154
▁sun	-3155
▁brisket	-3156
▁state	-3157
▁DO	-3158
iforn	-3159
▁thanks	-3160
▁oy	-3161
▁Lots	-3162
▁slices	-3163
ams	-3164
▁NY	-3165
▁jo	-3166
list	-3167
▁market	-3168
▁disgust	-3169
▁ST	-3170
▁Get	-3171
▁hell	-3172
▁presentation	-3173
▁yesterday	-3174
▁agre	-3175
melet	-3176
you	-3177
ories	-3178
▁oh	-3179
amari	-3180
▁pedicure	-3181
▁duck	-3182
▁living	-3183
▁mid	-3184
▁plain	-3185
▁hum	-3186
▁offers	-3187
▁foods	-3188
▁spring	-3189
▁important	-3190
ume	-3191
cohol	-3192
ik	-3193
▁general	-3194
ecause	-3195
▁popular	-3196
pri	-3197
▁respect	-3198
▁yog	-3199
iest	-3200
▁folks	-3201
▁grand	-3202
uten	-3203
▁Montreal	-3204
▁hidden	-3205
▁warrant	-3206
▁fur	-3207
▁regard	-3208
nge	-3209
▁driving	-3210
ustr	-3211
▁nor	-3212
▁scall	-3213
▁relaxing	-3214
ittsburgh	-3215
▁Arizona	-3216
▁Te	-3217
▁refres	-3218
▁standing	-3219
hn	-3220
▁complaints	-3221
▁pizzas	-3222
▁direct	-3223
▁claim	-3224
empt	-3225
▁helping	-3226
ifornia	-3227
▁drop	-3228
▁answered	-3229
▁desp	-3230
20	-3231
retty	-3232
▁groc	-3233
▁courteous	-3234
▁mag	-3235
▁heavy	-3236
▁cozy	-3237
iling	-3238
▁arrive	-3239
▁broken	-3240
▁wat	-3241
▁init	-3242
▁Two	-3243
izes	-3244
▁Tac	-3245
▁property	-3246
▁replaced	-3247
▁Today	-3248
▁med	-3249
▁calls	-3250
RI	-3251
▁reasonably	-3252
▁doub	-3253
▁difference	-3254
▁nearby	-3255
▁treatment	-3256
back	-3257
iture	-3258
▁sav	-3259
itch	-3260
▁self	-3261
▁workers	-3262
▁YOU	-3263
▁refer	-3264
▁eyes	-3265
?"	-3266
aming	-3267
professional	-3268
▁nic	-3269
▁nearly	-3270
▁York	-3271
oba	-3272
▁Starb	-3273
orge	-3274
▁bigger	-3275
▁cand	-3276
▁confir	-3277
▁Again	-3278
bq	-3279
▁Loved	-3280
ph	-3281
▁dumpl	-3282
ield	-3283
▁gives	-3284
▁Loc	-3285
▁Out	-3286
▁mini	-3287
▁priv	-3288
▁finding	-3289
▁carry	-3290
▁Absolutely	-3291
▁parts	-3292
▁funny	-3293
▁Pittsburgh	-3294
▁spa	-3295
▁personally	-3296
how	-3297
▁hospit	-3298
▁expl	-3299
nes	-3300
▁cookies	-3301
▁sold	-3302
▁ride	-3303
▁visits	-3304
fect	-3305
▁road	-3306
▁pm	-3307
▁gravy	-3308
owing	-3309
ring	-3310
▁favorites	-3311
▁exceptional	-3312
▁loves	-3313
▁appreciated	-3314
▁descri	-3315
▁unfortunately	-3316
▁cart	-3317
▁van	-3318
▁tart	-3319
▁Of	-3320
▁odd	-3321
▁attempt	-3322
▁Big	-3323
▁Starbucks	-3324
▁communic	-3325
▁become	-3326
▁eng	-3327
GE	-3328
:00	-3329
▁soggy	-3330
uss	-3331
▁upset	-3332
▁upgr	-3333
amel	-3334
henomen	-3335
▁deliver	-3336
▁body	-3337
",	-3338
▁sick	-3339
▁throw	-3340
▁shut	-3341
▁register	-3342
▁requested	-3343
▁earl	-3344
▁tofu	-3345
gest	-3346
▁..	-3347
▁security	-3348
▁stated	-3349
▁pad	-3350
▁realized	-3351
▁despite	-3352
▁areas	-3353
aves	-3354
▁rock	-3355
▁1/2	-3356
▁welcome	-3357
▁depart	-3358
▁Look	-3359
▁cupc	-3360
▁feet	-3361
▁account	-3362
▁overly	-3363
▁belly	-3364
appy	-3365
▁pu	-3366
olid	-3367
▁topped	-3368
▁batter	-3369
▁California	-3370
▁NEVER	-3371
▁listen	-3372
▁ma	-3373
▁talked	-3374
▁likely	-3375
▁Wed	-3376
ago	-3377
uits	-3378
oop	-3379
▁dance	-3380
eno	-3381
▁refreshing	-3382
▁meatball	-3383
▁dine	-3384
henomenal	-3385
▁tend	-3386
▁repe	-3387
▁donuts	-3388
▁chip	-3389
▁Group	-3390
ursday	-3391
▁alcohol	-3392
▁anyway	-3393
▁Please	-3394
▁Sec	-3395
▁Have	-3396
▁wrap	-3397
▁hoping	-3398
▁Seriously	-3399
▁wood	-3400
▁safe	-3401
▁parent	-3402
ashimi	-3403
000	-3404
ountain	-3405
▁disappointment	-3406
▁omelet	-3407
▁favourite	-3408
ille	-3409
▁classic	-3410
aster	-3411
▁TO	-3412
▁bean	-3413
▁decide	-3414
▁ol	-3415
ses	-3416
lect	-3417
orable	-3418
▁que	-3419
alap	-3420
ubby	-3421
imal	-3422
chan	-3423
▁suggested	-3424
cale	-3425
ject	-3426
▁furniture	-3427
▁concept	-3428
▁cat	-3429
amole	-3430
▁Inst	-3431
▁Red	-3432
ura	-3433
▁daily	-3434
oof	-3435
dge	-3436
▁wanting	-3437
▁apartment	-3438
▁feels	-3439
▁cakes	-3440
▁Mic	-3441
ified	-3442
▁unprofessional	-3443
▁peppers	-3444
▁dealership	-3445
▁hadn	-3446
ecake	-3447
▁walls	-3448
▁Pretty	-3449
▁moist	-3450
asty	-3451
▁honey	-3452
arm	-3453
ald	-3454
▁coupon	-3455
ta	-3456
oring	-3457
▁tomatoes	-3458
▁frustr	-3459
ivers	-3460
▁everywhere	-3461
▁Sushi	-3462
▁themselves	-3463
▁older	-3464
▁comment	-3465
▁photos	-3466
isine	-3467
▁gluten	-3468
▁cooking	-3469
▁fault	-3470
▁fail	-3471
▁hip	-3472
▁orange	-3473
▁Here	-3474
▁venue	-3475
▁mother	-3476
▁compan	-3477
▁shower	-3478
▁surprising	-3479
▁Cent	-3480
▁nachos	-3481
ley	-3482
▁larger	-3483
ium	-3484
▁facility	-3485
▁member	-3486
▁third	-3487
night	-3488
▁manic	-3489
ene	-3490
uine	-3491
TH	-3492
▁bbq	-3493
▁waffle	-3494
▁John	-3495
▁figured	-3496
▁tickets	-3497
▁court	-3498
▁key	-3499
▁bright	-3500
▁Cheese	-3501
▁dropped	-3502
▁$15	-3503
▁sale	-3504
▁spinach	-3505
▁search	-3506
▁House	-3507
▁sports	-3508
comfort	-3509
▁respond	-3510
urry	-3511
▁cocon	-3512
▁Been	-3513
▁driver	-3514
▁tough	-3515
▁stuck	-3516
▁mango	-3517
▁roasted	-3518
▁reception	-3519
▁bartenders	-3520
▁ver	-3521
eth	-3522
▁mood	-3523
esar	-3524
▁Hor	-3525
mas	-3526
▁El	-3527
▁figure	-3528
/1	-3529
▁results	-3530
rance	-3531
▁coconut	-3532
arr	-3533
▁$9	-3534
▁condition	-3535
▁adult	-3536
▁current	-3537
▁es	-3538
▁Still	-3539
▁women	-3540
▁types	-3541
▁phenomenal	-3542
▁Thursday	-3543
▁earlier	-3544
▁receip	-3545
▁Rest	-3546
ented	-3547
efully	-3548
▁waffles	-3549
▁proce	-3550
veland	-3551
▁Salad	-3552
▁lacking	-3553
▁catch	-3554
▁address	-3555
▁lucky	-3556
▁ground	-3557
▁Somet	-3558
▁wide	-3559
▁various	-3560
▁ques	-3561
▁imagine	-3562
▁Beef	-3563
▁improve	-3564
▁closer	-3565
▁recent	-3566
▁hash	-3567
▁advert	-3568
▁La	-3569
▁drove	-3570
▁Need	-3571
▁Her	-3572
▁screen	-3573
▁warranty	-3574
▁iced	-3575
▁Happy	-3576
▁rot	-3577
▁smoked	-3578
▁properly	-3579
▁gar	-3580
irt	-3581
▁Check	-3582
▁agreed	-3583
▁Con	-3584
▁/	-3585
▁ru	-3586
▁range	-3587
ok	-3588
fish	-3589
iding	-3590
▁scheduled	-3591
▁absolute	-3592
▁separate	-3593
▁selections	-3594
▁french	-3595
onna	-3596
▁allowed	-3597
▁spect	-3598
▁Day	-3599
▁bites	-3600
▁dentist	-3601
▁classes	-3602
▁hes	-3603
▁ra	-3604
▁ur	-3605
▁apparently	-3606
▁regret	-3607
▁pair	-3608
vis	-3609
▁doors	-3610
anch	-3611
▁calamari	-3612
AC	-3613
▁ske	-3614
▁cro	-3615
!!!!!	-3616
▁crew	-3617
▁recommendations	-3618
▁mushroom	-3619
▁bars	-3620
▁training	-3621
ify	-3622
oice	-3623
using	-3624
▁promptly	-3625
▁gross	-3626
ortun	-3627
▁Cafe	-3628
▁shell	-3629
kin	-3630
alo	-3631
▁closing	-3632
▁combination	-3633
▁AZ	-3634
▁following	-3635
▁rushed	-3636
▁Strip	-3637
▁His	-3638
▁somewhat	-3639
▁bisc	-3640
▁displ	-3641
▁2.	-3642
▁Mad	-3643
▁mic	-3644
▁tons	-3645
▁Fresh	-3646
erk	-3647
▁Cleveland	-3648
▁didnt	-3649
▁Ph	-3650
▁chewy	-3651
illy	-3652
▁turkey	-3653
ctors	-3654
▁Custom	-3655
▁Bas	-3656
▁spacious	-3657
usion	-3658
▁BEST	-3659
▁disgusting	-3660
▁Steak	-3661
▁raw	-3662
▁crack	-3663
▁South	-3664
▁dollar	-3665
▁gas	-3666
▁valley	-3667
nesday	-3668
▁heaven	-3669
ERY	-3670
▁doubt	-3671
▁cow	-3672
▁soda	-3673
▁zero	-3674
▁members	-3675
▁danc	-3676
▁joke	-3677
ica	-3678
▁kill	-3679
▁complimentary	-3680
▁realize	-3681
▁cookie	-3682
▁pean	-3683
▁enjoyable	-3684
?)	-3685
▁overwhel	-3686
▁setting	-3687
▁Grill	-3688
▁blood	-3689
▁menus	-3690
▁contract	-3691
▁guacamole	-3692
▁cuisine	-3693
▁lounge	-3694
lt	-3695
enn	-3696
EL	-3697
▁Took	-3698
▁shoes	-3699
▁terri	-3700
ism	-3701
▁occasion	-3702
▁owned	-3703
▁missed	-3704
ergy	-3705
AM	-3706
▁consistent	-3707
▁temp	-3708
▁base	-3709
▁platter	-3710
▁hesit	-3711
▁crunchy	-3712
▁Clean	-3713
▁wants	-3714
▁Honest	-3715
umber	-3716
▁feed	-3717
▁stood	-3718
▁VERY	-3719
acular	-3720
tenance	-3721
▁sized	-3722
alled	-3723
▁dumplings	-3724
▁Gl	-3725
▁foc	-3726
ution	-3727
▁entrance	-3728
▁US	-3729
rons	-3730
cial	-3731
▁sizes	-3732
▁strawberry	-3733
▁Which	-3734
▁interested	-3735
▁lights	-3736
▁dev	-3737
ummus	-3738
IP	-3739
▁further	-3740
erved	-3741
▁bone	-3742
▁wax	-3743
▁Tom	-3744
▁otherwise	-3745
▁refused	-3746
▁oysters	-3747
▁prime	-3748
law	-3749
▁weekends	-3750
▁grocery	-3751
▁parents	-3752
otle	-3753
▁burnt	-3754
▁rings	-3755
▁Groupon	-3756
▁Who	-3757
▁block	-3758
▁rental	-3759
▁sea	-3760
▁client	-3761
▁ambience	-3762
▁opted	-3763
▁windows	-3764
▁damn	-3765
▁impressive	-3766
▁sum	-3767
adas	-3768
▁Eng	-3769
▁contain	-3770
ipment	-3771
▁colle	-3772
▁grou	-3773
▁sashimi	-3774
▁wow	-3775
▁putting	-3776
▁highlight	-3777
uffle	-3778
▁personable	-3779
▁Price	-3780
▁elev	-3781
▁receipt	-3782
▁quote	-3783
▁sleep	-3784
▁jalap	-3785
▁technician	-3786
▁Wednesday	-3787
▁burn	-3788
▁natur	-3789
???	-3790
▁Mon	-3791
weet	-3792
ietnam	-3793
▁ack	-3794
▁arr	-3795
▁respons	-3796
▁uncomfort	-3797
▁Dan	-3798
roll	-3799
ending	-3800
▁pleasantly	-3801
▁lab	-3802
▁passed	-3803
▁boba	-3804
▁Egg	-3805
inary	-3806
AL	-3807
▁miles	-3808
▁caramel	-3809
▁acknow	-3810
▁wont	-3811
▁ris	-3812
▁tire	-3813
IG	-3814
bread	-3815
OOD	-3816
▁bringing	-3817
▁drinking	-3818
wood	-3819
▁Rec	-3820
ram	-3821
▁Because	-3822
▁latte	-3823
ayed	-3824
llen	-3825
▁quot	-3826
▁patrons	-3827
▁recommendation	-3828
▁sample	-3829
▁Ad	-3830
▁cap	-3831
▁clothes	-3832
▁lower	-3833
▁department	-3834
sels	-3835
▁unit	-3836
▁handle	-3837
▁Worst	-3838
▁lobby	-3839
▁below	-3840
▁Perfect	-3841
acy	-3842
▁oper	-3843
▁trou	-3844
▁update	-3845
▁legs	-3846
chil	-3847
▁stom	-3848
▁spectacular	-3849
▁genuine	-3850
hered	-3851
fr	-3852
▁rese	-3853
▁resort	-3854
▁frequent	-3855
ils	-3856
▁Pal	-3857
▁instru	-3858
lex	-3859
izing	-3860
▁haircut	-3861
▁West	-3862
ony	-3863
▁filet	-3864
illas	-3865
arden	-3866
bit	-3867
▁advice	-3868
▁plastic	-3869
▁goodness	-3870
hile	-3871
▁Greek	-3872
▁bakery	-3873
▁soooo	-3874
▁fly	-3875
▁Anyway	-3876
▁seasoning	-3877
▁agree	-3878
▁changes	-3879
oz	-3880
unt	-3881
▁necess	-3882
▁$12	-3883
▁consistently	-3884
▁Chic	-3885
▁towards	-3886
▁machines	-3887
ivid	-3888
reet	-3889
▁insp	-3890
andom	-3891
▁1.	-3892
ashion	-3893
▁country	-3894
▁words	-3895
▁ticket	-3896
▁BE	-3897
▁weather	-3898
▁shit	-3899
▁whether	-3900
▁version	-3901
pes	-3902
▁mashed	-3903
▁stock	-3904
▁Place	-3905
▁du	-3906
ioli	-3907
fl	-3908
▁package	-3909
▁=	-3910
rup	-3911
▁push	-3912
▁uncomfortable	-3913
▁hotels	-3914
▁vegas	-3915
▁Cons	-3916
▁apple	-3917
bing	-3918
▁pressure	-3919
ners	-3920
▁garage	-3921
iy	-3922
rol	-3923
▁bomb	-3924
▁stri	-3925
45	-3926
ids	-3927
▁mot	-3928
▁$50	-3929
esides	-3930
▁beginning	-3931
▁awhile	-3932
▁stylist	-3933
mond	-3934
▁Probably	-3935
orgeous	-3936
ietnamese	-3937
▁banana	-3938
une	-3939
▁six	-3940
▁hole	-3941
▁Second	-3942
overed	-3943
▁cards	-3944
▁compar	-3945
ineapp	-3946
ards	-3947
that	-3948
▁Each	-3949
even	-3950
▁deals	-3951
▁HU	-3952
▁Ye	-3953
▁Customer	-3954
etch	-3955
.95	-3956
▁Mo	-3957
▁0	-3958
▁stress	-3959
ERE	-3960
iders	-3961
▁private	-3962
▁maintenance	-3963
ney	-3964
▁ear	-3965
▁Bo	-3966
▁specific	-3967
enedict	-3968
▁match	-3969
ended	-3970
▁diner	-3971
▁theater	-3972
eng	-3973
▁knowing	-3974
▁equipment	-3975
▁picky	-3976
ining	-3977
▁groups	-3978
▁writing	-3979
▁Horrible	-3980
erous	-3981
▁$30	-3982
ummer	-3983
▁rub	-3984
▁polish	-3985
▁print	-3986
▁Sto	-3987
rod	-3988
▁constantly	-3989
▁spending	-3990
▁ut	-3991
▁North	-3992
UST	-3993
▁City	-3994
▁fiance	-3995
▁Restaurant	-3996
ises	-3997
▁shouldn	-3998
▁Haw	-3999
▁generally	-4000
▁X	-4001
rs	-4002
▁Wait	-4003
▁stomach	-4004
iving	-4005
▁Bre	-4006
▁Being	-4007
▁points	-4008
▁decision	-4009
▁paint	-4010
▁Upon	-4011
▁IN	-4012
▁flow	-4013
▁alright	-4014
yn	-4015
▁Je	-4016
ement	-4017
▁pastries	-4018
▁Honestly	-4019
with	-4020
▁Im	-4021
▁annoying	-4022
ugg	-4023
▁East	-4024
▁3.	-4025
▁vide	-4026
▁cheesecake	-4027
▁bowls	-4028
▁vanilla	-4029
▁manner	-4030
udding	-4031
▁Tot	-4032
zel	-4033
fy	-4034
ilt	-4035
don	-4036
▁random	-4037
!).	-4038
▁hummus	-4039
nov	-4040
staff	-4041
▁Up	-4042
ference	-4043
▁ham	-4044
▁marin	-4045
▁complex	-4046
▁till	-4047
▁bank	-4048
imp	-4049
▁er	-4050
▁crap	-4051
▁Dis	-4052
▁whenever	-4053
▁Buff	-4054
▁Tried	-4055
▁Roll	-4056
▁AY	-4057
▁$25	-4058
▁100%	-4059
▁Bri	-4060
▁tires	-4061
ineapple	-4062
▁sucks	-4063
▁sil	-4064
▁vacation	-4065
▁Ang	-4066
▁Tem	-4067
▁clients	-4068
▁individ	-4069
▁ALL	-4070
▁Luck	-4071
▁hall	-4072
▁nap	-4073
▁bou	-4074
▁manicure	-4075
▁Chicago	-4076
▁biggest	-4077
▁Rock	-4078
▁snack	-4079
▁refills	-4080
▁thai	-4081
▁Cas	-4082
▁Chef	-4083
▁greens	-4084
▁tells	-4085
LLY	-4086
bel	-4087
plant	-4088
▁community	-4089
▁Pork	-4090
▁AYCE	-4091
ishing	-4092
▁takeout	-4093
▁macar	-4094
▁effort	-4095
corn	-4096
▁Green	-4097
▁Fried	-4098
ential	-4099
▁carpet	-4100
▁Wa	-4101
▁bub	-4102
ral	-4103
▁drunk	-4104
▁ben	-4105
!"	-4106
▁19	-4107
▁English	-4108
ama	-4109
▁Valley	-4110
▁gonna	-4111
▁dead	-4112
▁serious	-4113
AD	-4114
▁THIS	-4115
bert	-4116
▁Christmas	-4117
▁pump	-4118
▁Too	-4119
▁band	-4120
vin	-4121
▁AC	-4122
▁suggestions	-4123
▁Park	-4124
▁lighting	-4125
▁Spr	-4126
▁90	-4127
aint	-4128
▁conn	-4129
▁margarita	-4130
ground	-4131
▁blend	-4132
▁pita	-4133
▁$100	-4134
▁perhaps	-4135
▁enchil	-4136
▁apologized	-4137
sure	-4138
▁lefto	-4139
▁gentleman	-4140
▁relative	-4141
rop	-4142
ipe	-4143
▁ring	-4144
▁suc	-4145
▁costs	-4146
▁ho	-4147
▁Bet	-4148
mer	-4149
hetic	-4150
▁ang	-4151
▁rav	-4152
▁Come	-4153
▁syrup	-4154
▁meeting	-4155
▁include	-4156
▁noise	-4157
porate	-4158
antic	-4159
▁against	-4160
▁18	-4161
off	-4162
▁gorgeous	-4163
▁subst	-4164
this	-4165
▁site	-4166
▁Hawai	-4167
▁tips	-4168
▁hist	-4169
aging	-4170
▁scallops	-4171
▁brother	-4172
▁flavours	-4173
▁poutine	-4174
▁Make	-4175
▁Such	-4176
▁trash	-4177
innam	-4178
▁particularly	-4179
cher	-4180
▁surprisingly	-4181
▁soy	-4182
BLE	-4183
soci	-4184
▁groom	-4185
▁offering	-4186
▁arg	-4187
▁AW	-4188
ded	-4189
▁fry	-4190
▁fully	-4191
▁enjoying	-4192
agn	-4193
Don	-4194
▁Parking	-4195
▁Mike	-4196
▁cir	-4197
met	-4198
▁creative	-4199
▁Shrimp	-4200
ifically	-4201
▁LA	-4202
▁steaks	-4203
innamon	-4204
▁trend	-4205
▁rat	-4206
ID	-4207
uke	-4208
▁!!	-4209
▁mild	-4210
ription	-4211
▁dozen	-4212
iles	-4213
▁bike	-4214
▁indust	-4215
▁meant	-4216
▁aware	-4217
▁IT	-4218
▁learned	-4219
ls	-4220
attoo	-4221
icked	-4222
iche	-4223
▁;	-4224
well	-4225
▁feat	-4226
▁overcooked	-4227
▁carr	-4228
▁typically	-4229
▁Pa	-4230
▁terms	-4231
▁admit	-4232
agio	-4233
▁holid	-4234
▁Street	-4235
▁comput	-4236
▁liqu	-4237
ss	-4238
▁Didn	-4239
▁Stopped	-4240
▁opportun	-4241
▁pleasure	-4242
uffy	-4243
▁Sim	-4244
▁accommodate	-4245
▁upstairs	-4246
▁SU	-4247
▁defin	-4248
▁buck	-4249
▁screw	-4250
yle	-4251
▁Vietnamese	-4252
▁Sand	-4253
▁happens	-4254
▁peanut	-4255
▁craft	-4256
▁wrapped	-4257
ooo	-4258
▁cuc	-4259
▁cant	-4260
▁specialty	-4261
-1	-4262
▁dipping	-4263
▁payment	-4264
▁east	-4265
iments	-4266
mel	-4267
▁message	-4268
ury	-4269
▁jud	-4270
▁followed	-4271
▁organized	-4272
▁bottles	-4273
▁laugh	-4274
▁photo	-4275
▁freshly	-4276
▁mayo	-4277
uced	-4278
liness	-4279
▁HUGE	-4280
▁San	-4281
▁Por	-4282
anda	-4283
icks	-4284
▁select	-4285
pensive	-4286
▁ourselves	-4287
alet	-4288
▁melted	-4289
iyaki	-4290
aza	-4291
▁waiters	-4292
▁Aut	-4293
▁challen	-4294
▁tub	-4295
▁control	-4296
▁bathrooms	-4297
▁AT	-4298
edible	-4299
▁Keep	-4300
▁occasions	-4301
▁strange	-4302
▁vet	-4303
▁mechan	-4304
▁meatballs	-4305
▁lead	-4306
▁elect	-4307
▁proceeded	-4308
▁south	-4309
mo	-4310
▁possibly	-4311
▁ir	-4312
▁appointments	-4313
▁wear	-4314
▁gelato	-4315
▁intern	-4316
▁budget	-4317
ission	-4318
▁BUT	-4319
▁pal	-4320
▁contacted	-4321
eries	-4322
har	-4323
▁policy	-4324
▁ignored	-4325
▁oven	-4326
nut	-4327
▁relaxed	-4328
▁starting	-4329
▁Yum	-4330
▁Instead	-4331
▁pudding	-4332
▁report	-4333
▁serves	-4334
▁balls	-4335
▁superb	-4336
▁among	-4337
▁advance	-4338
▁voice	-4339
▁via	-4340
▁law	-4341
▁caring	-4342
▁tv	-4343
▁2-	-4344
▁Sad	-4345
▁companies	-4346
▁tired	-4347
▁removed	-4348
▁dem	-4349
▁5-	-4350
of	-4351
▁record	-4352
▁je	-4353
▁Needless	-4354
▁treats	-4355
▁became	-4356
▁bags	-4357
▁final	-4358
▁inex	-4359
▁introd	-4360
▁Sam	-4361
▁natural	-4362
......	-4363
▁dig	-4364
▁Av	-4365
aling	-4366
ased	-4367
▁practice	-4368
oured	-4369
▁People	-4370
antage	-4371
ror	-4372
▁Esp	-4373
iod	-4374
▁hype	-4375
ette	-4376
▁Coffee	-4377
▁events	-4378
▁broke	-4379
▁cups	-4380
ds	-4381
▁crepe	-4382
▁onto	-4383
▁shape	-4384
▁leaves	-4385
▁parties	-4386
eter	-4387
▁asada	-4388
unks	-4389
ational	-4390
can	-4391
▁watched	-4392
▁shame	-4393
▁keeping	-4394
▁progr	-4395
▁tempura	-4396
yal	-4397
▁balance	-4398
▁yogurt	-4399
ek	-4400
▁hanging	-4401
ipping	-4402
EC	-4403
▁impression	-4404
▁teeth	-4405
▁worry	-4406
resso	-4407
▁temper	-4408
▁gold	-4409
▁vol	-4410
▁dad	-4411
▁disp	-4412
▁managed	-4413
▁giant	-4414
▁played	-4415
▁har	-4416
▁bagel	-4417
▁inviting	-4418
OT	-4419
iev	-4420
ffic	-4421
▁began	-4422
ccoli	-4423
▁decorated	-4424
agers	-4425
▁cares	-4426
▁tattoo	-4427
ingly	-4428
▁Old	-4429
▁laid	-4430
▁spo	-4431
▁extensive	-4432
▁3-	-4433
▁delish	-4434
▁brus	-4435
▁associ	-4436
▁presented	-4437
▁specifically	-4438
▁Fast	-4439
▁stage	-4440
▁OM	-4441
▁Pat	-4442
▁rom	-4443
OME	-4444
▁surger	-4445
▁accomp	-4446
ped	-4447
▁planning	-4448
▁timely	-4449
▁Manager	-4450
▁adjust	-4451
▁Caesar	-4452
▁named	-4453
▁Joe	-4454
hett	-4455
▁mile	-4456
▁Pri	-4457
▁promised	-4458
▁GRE	-4459
burger	-4460
▁shake	-4461
▁Terrible	-4462
ught	-4463
▁sens	-4464
kward	-4465
▁Room	-4466
▁fees	-4467
owder	-4468
▁rememb	-4469
▁Madison	-4470
▁draw	-4471
othered	-4472
▁individual	-4473
▁numerous	-4474
▁installed	-4475
▁Sun	-4476
itted	-4477
▁buns	-4478
▁Your	-4479
▁kinds	-4480
/10	-4481
▁yellow	-4482
▁saved	-4483
▁confused	-4484
▁surround	-4485
OUS	-4486
▁fare	-4487
▁Sometimes	-4488
▁Taco	-4489
▁16	-4490
▁dream	-4491
▁truffle	-4492
▁EX	-4493
▁charges	-4494
▁tortilla	-4495
▁sprouts	-4496
▁hubby	-4497
▁repairs	-4498
▁continued	-4499
▁vent	-4500
▁rad	-4501
▁speed	-4502
▁waitresses	-4503
▁sliced	-4504
▁Chris	-4505
▁hon	-4506
tered	-4507
mesan	-4508
hh	-4509
berries	-4510
▁fal	-4511
▁skill	-4512
itten	-4513
azz	-4514
▁reminded	-4515
▁pineapple	-4516
war	-4517
▁energy	-4518
----	-4519
25	-4520
▁upscale	-4521
▁posted	-4522
uri	-4523
▁himself	-4524
▁donut	-4525
▁Mary	-4526
arella	-4527
▁weekday	-4528
▁reasons	-4529
▁cowork	-4530
ples	-4531
▁Bellagio	-4532
▁compare	-4533
▁Drinks	-4534
uy	-4535
▁therap	-4536
▁floors	-4537
▁signed	-4538
era	-4539
▁REA	-4540
▁relatively	-4541
rem	-4542
▁deg	-4543
isted	-4544
▁accident	-4545
asted	-4546
resent	-4547
▁Black	-4548
▁tight	-4549
▁basket	-4550
▁croiss	-4551
▁confirm	-4552
▁discovered	-4553
azed	-4554
▁mail	-4555
▁originally	-4556
▁Fun	-4557
▁Grand	-4558
▁carne	-4559
▁DJ	-4560
ata	-4561
▁smelled	-4562
▁yeah	-4563
▁More	-4564
erves	-4565
▁les	-4566
Donald	-4567
imos	-4568
▁threw	-4569
▁Fe	-4570
▁ranch	-4571
▁Sou	-4572
▁margaritas	-4573
▁switch	-4574
▁proced	-4575
▁trouble	-4576
gress	-4577
▁details	-4578
▁rain	-4579
▁3.5	-4580
▁cuts	-4581
▁maint	-4582
▁cinnamon	-4583
▁cancel	-4584
▁distance	-4585
anced	-4586
▁example	-4587
▁sess	-4588
▁200	-4589
▁obs	-4590
▁names	-4591
free	-4592
▁neat	-4593
▁altern	-4594
▁opportunity	-4595
efore	-4596
▁song	-4597
▁IS	-4598
▁savory	-4599
anted	-4600
▁enter	-4601
zzarella	-4602
▁Add	-4603
▁awkward	-4604
▁Fries	-4605
ties	-4606
▁showing	-4607
atic	-4608
▁pound	-4609
▁WH	-4610
▁excuse	-4611
azy	-4612
▁flav	-4613
ET	-4614
▁muff	-4615
▁advantage	-4616
▁jump	-4617
▁**	-4618
▁Hotel	-4619
▁fluffy	-4620
▁handed	-4621
▁patients	-4622
▁jack	-4623
bly	-4624
▁prem	-4625
▁locals	-4626
▁weight	-4627
▁cupcakes	-4628
▁King	-4629
ingers	-4630
▁surgery	-4631
▁snacks	-4632
uses	-4633
▁McDonald	-4634
▁thoroughly	-4635
▁GO	-4636
believ	-4637
▁corporate	-4638
ICE	-4639
▁tag	-4640
▁winter	-4641
▁boxes	-4642
▁reli	-4643
ala	-4644
▁yum	-4645
▁shocked	-4646
▁OMG	-4647
▁spread	-4648
umbs	-4649
▁$40	-4650
▁express	-4651
▁steamed	-4652
▁Home	-4653
▁resol	-4654
▁Enjoy	-4655
▁teac	-4656
▁Gen	-4657
▁GREAT	-4658
aghett	-4659
arant	-4660
▁concerns	-4661
achi	-4662
▁west	-4663
asp	-4664
▁directly	-4665
hern	-4666
▁Us	-4667
▁Long	-4668
aug	-4669
▁regularly	-4670
▁concerned	-4671
▁ginger	-4672
▁renov	-4673
aan	-4674
▁CH	-4675
anna	-4676
▁nasty	-4677
▁diet	-4678
▁Could	-4679
▁lacked	-4680
▁goods	-4681
▁power	-4682
▁Sweet	-4683
▁Having	-4684
▁listed	-4685
▁slaw	-4686
oriz	-4687
▁hospital	-4688
▁barb	-4689
▁blown	-4690
▁quoted	-4691
▁Small	-4692
▁presc	-4693
▁lime	-4694
▁membership	-4695
iversary	-4696
▁soups	-4697
▁computer	-4698
aghetti	-4699
▁Lob	-4700
ILL	-4701
ett	-4702
▁miso	-4703
ola	-4704
brow	-4705
▁Sorry	-4706
▁Din	-4707
▁Tea	-4708
▁bi	-4709
▁annoyed	-4710
lin	-4711
akfast	-4712
▁Lou	-4713
▁common	-4714
gary	-4715
▁picking	-4716
ville	-4717
▁rough	-4718
▁assum	-4719
▁sticky	-4720
▁Pot	-4721
▁bra	-4722
look	-4723
▁hardly	-4724
▁facial	-4725
otta	-4726
▁pepperoni	-4727
▁signature	-4728
▁Med	-4729
▁traffic	-4730
aces	-4731
▁careful	-4732
▁Fantastic	-4733
▁stru	-4734
▁skills	-4735
▁loaded	-4736
sc	-4737
▁mill	-4738
▁broccoli	-4739
▁pest	-4740
▁tortillas	-4741
▁age	-4742
▁Dav	-4743
▁sounds	-4744
▁Tempe	-4745
▁4.	-4746
▁Mr	-4747
▁mustard	-4748
▁quesad	-4749
outhern	-4750
▁everyday	-4751
▁program	-4752
▁scene	-4753
▁pink	-4754
cing	-4755
ynn	-4756
▁tasteless	-4757
▁prote	-4758
40	-4759
UM	-4760
▁includes	-4761
▁appl	-4762
▁cig	-4763
▁damage	-4764
▁communication	-4765
men	-4766
▁patty	-4767
▁memorable	-4768
▁lif	-4769
eds	-4770
ected	-4771
▁cancell	-4772
▁incon	-4773
▁starts	-4774
▁keeps	-4775
▁display	-4776
▁fem	-4777
▁lock	-4778
bon	-4779
ifi	-4780
▁Mark	-4781
star	-4782
▁beds	-4783
▁skip	-4784
imum	-4785
▁breat	-4786
▁suck	-4787
▁comfy	-4788
▁goat	-4789
▁ill	-4790
▁suff	-4791
▁appear	-4792
▁mad	-4793
▁Market	-4794
▁suppose	-4795
▁vegetable	-4796
▁During	-4797
▁medical	-4798
▁buffets	-4799
aste	-4800
istent	-4801
iliar	-4802
▁cam	-4803
▁beautifully	-4804
▁jam	-4805
▁flag	-4806
▁initial	-4807
▁colors	-4808
▁Especially	-4809
▁:(	-4810
lle	-4811
▁emb	-4812
▁basil	-4813
▁diagn	-4814
ava	-4815
imately	-4816
▁unlike	-4817
▁passion	-4818
▁tad	-4819
ewel	-4820
▁upgrade	-4821
ucked	-4822
ilies	-4823
▁Wonder	-4824
▁period	-4825
▁blow	-4826
▁chefs	-4827
kins	-4828
▁leftovers	-4829
▁Air	-4830
hi	-4831
▁AS	-4832
▁spices	-4833
▁success	-4834
erm	-4835
▁Pad	-4836
arily	-4837
ao	-4838
elly	-4839
▁pickles	-4840
esame	-4841
▁informative	-4842
▁Called	-4843
▁candy	-4844
▁chunks	-4845
▁pas	-4846
▁Que	-4847
orrow	-4848
thy	-4849
▁)	-4850
▁pancake	-4851
▁lie	-4852
ila	-4853
ances	-4854
char	-4855
▁likes	-4856
▁mark	-4857
▁burritos	-4858
▁ways	-4859
▁Okay	-4860
▁Are	-4861
board	-4862
▁arrival	-4863
▁lit	-4864
▁Wish	-4865
friendly	-4866
icated	-4867
▁blast	-4868
▁toilet	-4869
▁ult	-4870
▁fridge	-4871
▁delightful	-4872
▁frequently	-4873
iri	-4874
▁Blue	-4875
▁phys	-4876
▁inconven	-4877
▁fashion	-4878
▁eyebrow	-4879
▁bul	-4880
CH	-4881
▁estimate	-4882
▁history	-4883
▁Hop	-4884
▁appeared	-4885
oh	-4886
▁biscuits	-4887
▁businesses	-4888
upid	-4889
▁nobody	-4890
▁correctly	-4891
▁topping	-4892
pected	-4893
ria	-4894
▁dried	-4895
▁Apparently	-4896
▁smoothie	-4897
▁produce	-4898
▁Men	-4899
▁60	-4900
▁nicer	-4901
▁EVERY	-4902
▁ant	-4903
ograp	-4904
umbled	-4905
mart	-4906
▁suite	-4907
▁tooth	-4908
▁breast	-4909
▁indoor	-4910
▁signs	-4911
▁booths	-4912
▁sharing	-4913
▁popcorn	-4914
▁chur	-4915
gs	-4916
▁Hend	-4917
▁aud	-4918
▁AL	-4919
hers	-4920
▁almond	-4921
▁mir	-4922
▁college	-4923
▁Ext	-4924
,"	-4925
OS	-4926
▁mart	-4927
▁mer	-4928
▁ruined	-4929
▁project	-4930
▁eggplant	-4931
olo	-4932
otto	-4933
▁temperature	-4934
place	-4935
▁completed	-4936
ossible	-4937
icky	-4938
ico	-4939
▁changing	-4940
▁Sl	-4941
▁poke	-4942
▁id	-4943
▁une	-4944
▁Luckily	-4945
▁describe	-4946
herry	-4947
▁liking	-4948
▁crepes	-4949
▁jalapeno	-4950
▁Where	-4951
ula	-4952
▁obvious	-4953
▁valet	-4954
▁happier	-4955
▁video	-4956
▁au	-4957
▁potential	-4958
▁hint	-4959
▁views	-4960
▁caught	-4961
▁Gold	-4962
▁mi	-4963
▁receptionist	-4964
▁track	-4965
▁replacement	-4966
▁understanding	-4967
▁Nood	-4968
▁Des	-4969
▁anim	-4970
▁studio	-4971
▁shred	-4972
▁toasted	-4973
▁Cra	-4974
hy	-4975
imited	-4976
▁Rice	-4977
▁Squ	-4978
useum	-4979
▁God	-4980
▁fingers	-4981
▁charging	-4982
▁offerings	-4983
▁welcomed	-4984
▁paperwork	-4985
▁cheesy	-4986
▁earn	-4987
pons	-4988
▁social	-4989
▁Tex	-4990
▁loyal	-4991
▁bonus	-4992
inos	-4993
iring	-4994
▁regul	-4995
▁mozzarella	-4996
▁WOW	-4997
▁WOR	-4998
▁workout	-4999
▁wet	-5000
▁Ke	-5001
▁selling	-5002
▁remove	-5003
▁!!!	-5004
ENT	-5005
date	-5006
▁pointed	-5007
▁books	-5008
▁dental	-5009
▁Before	-5010
▁intimate	-5011
▁poorly	-5012
ervous	-5013
,000	-5014
▁Sur	-5015
▁land	-5016
▁14	-5017
▁Fish	-5018
▁Bad	-5019
▁anniversary	-5020
▁Spicy	-5021
▁creme	-5022
▁explaining	-5023
iff	-5024
▁standards	-5025
▁repeat	-5026
▁sliders	-5027
▁Past	-5028
▁layout	-5029
▁doctors	-5030
orizo	-5031
LA	-5032
hael	-5033
▁quant	-5034
▁scoop	-5035
▁espresso	-5036
▁partner	-5037
who	-5038
▁shots	-5039
▁rarely	-5040
▁organic	-5041
▁tar	-5042
▁prof	-5043
▁nervous	-5044
▁anytime	-5045
▁Sandw	-5046
▁Reg	-5047
▁deserve	-5048
▁eventually	-5049
bage	-5050
aze	-5051
▁OF	-5052
warma	-5053
▁handled	-5054
ora	-5055
▁....	-5056
▁fans	-5057
ker	-5058
▁medic	-5059
▁unl	-5060
▁expert	-5061
espite	-5062
▁Benedict	-5063
▁stale	-5064
cr	-5065
▁fight	-5066
▁gyro	-5067
getic	-5068
AP	-5069
▁towels	-5070
▁ess	-5071
▁Usually	-5072
▁af	-5073
ito	-5074
book	-5075
inic	-5076
▁dest	-5077
▁easier	-5078
▁messed	-5079
▁overwhelming	-5080
▁invol	-5081
▁trendy	-5082
▁consistency	-5083
▁industry	-5084
▁complained	-5085
▁famous	-5086
▁referred	-5087
▁Beautif	-5088
iqu	-5089
rilled	-5090
▁Apple	-5091
▁research	-5092
▁leng	-5093
▁dealing	-5094
ilant	-5095
▁hearing	-5096
▁seconds	-5097
▁Breakfast	-5098
▁apology	-5099
▁cucumber	-5100
▁melt	-5101
▁circ	-5102
▁artist	-5103
▁wise	-5104
▁remembered	-5105
▁hom	-5106
▁flowers	-5107
▁benef	-5108
bl	-5109
▁mimos	-5110
▁terrific	-5111
▁goo	-5112
▁dressed	-5113
▁hook	-5114
ban	-5115
▁adding	-5116
▁theat	-5117
▁massive	-5118
▁x	-5119
odel	-5120
▁pedi	-5121
LD	-5122
▁downside	-5123
aly	-5124
▁sta	-5125
coming	-5126
▁chop	-5127
▁necessary	-5128
▁failed	-5129
▁held	-5130
▁satisfying	-5131
she	-5132
▁bagels	-5133
IGH	-5134
▁Ho	-5135
ksha	-5136
▁row	-5137
do	-5138
▁Chip	-5139
atsu	-5140
west	-5141
▁written	-5142
▁LV	-5143
▁tail	-5144
▁Henderson	-5145
hib	-5146
▁beha	-5147
verse	-5148
▁lazy	-5149
▁guarant	-5150
▁Angel	-5151
ctop	-5152
▁adults	-5153
▁hurry	-5154
▁theme	-5155
▁info	-5156
▁somehow	-5157
organ	-5158
etchup	-5159
▁previously	-5160
▁Pan	-5161
ental	-5162
▁dancing	-5163
▁pastry	-5164
▁inexpensive	-5165
▁samples	-5166
▁80	-5167
ushing	-5168
asure	-5169
▁Many	-5170
▁cop	-5171
▁stupid	-5172
▁pier	-5173
▁skew	-5174
▁microw	-5175
▁tan	-5176
▁wines	-5177
▁uns	-5178
rel	-5179
▁exec	-5180
▁smells	-5181
▁cater	-5182
appe	-5183
▁Cir	-5184
▁sounded	-5185
ios	-5186
▁cell	-5187
▁cross	-5188
▁effect	-5189
▁animals	-5190
ilantro	-5191
yan	-5192
ctopus	-5193
▁Otherwise	-5194
▁deserves	-5195
▁Sub	-5196
▁Atmosphere	-5197
▁Cost	-5198
ano	-5199
ucc	-5200
amped	-5201
▁flavored	-5202
aining	-5203
▁hey	-5204
ilities	-5205
▁apologize	-5206
▁gotta	-5207
▁sett	-5208
▁omelette	-5209
▁vine	-5210
ading	-5211
▁lose	-5212
▁sweetness	-5213
des	-5214
▁encour	-5215
▁autom	-5216
▁boo	-5217
▁Hour	-5218
▁underst	-5219
▁hi	-5220
▁($1	-5221
▁ceiling	-5222
▁hurt	-5223
ras	-5224
▁div	-5225
▁Boy	-5226
▁pros	-5227
//	-5228
▁depos	-5229
▁rolled	-5230
▁accord	-5231
TA	-5232
▁Bay	-5233
▁buffalo	-5234
▁vend	-5235
ively	-5236
▁speaking	-5237
▁personality	-5238
▁families	-5239
▁rang	-5240
aya	-5241
▁downstairs	-5242
▁spaghetti	-5243
▁cry	-5244
▁jewel	-5245
▁nut	-5246
▁assured	-5247
▁assort	-5248
▁sca	-5249
ators	-5250
ww	-5251
▁promot	-5252
▁Club	-5253
▁ensure	-5254
▁See	-5255
▁Vis	-5256
▁allerg	-5257
▁4-	-5258
▁appropri	-5259
▁ev	-5260
tw	-5261
▁mussels	-5262
▁depending	-5263
▁Lar	-5264
▁Ton	-5265
erie	-5266
▁activ	-5267
▁boring	-5268
▁Kim	-5269
ecc	-5270
▁oily	-5271
ades	-5272
▁impossible	-5273
▁incor	-5274
▁iP	-5275
▁female	-5276
▁Rib	-5277
▁wearing	-5278
agus	-5279
▁king	-5280
▁equally	-5281
▁protein	-5282
▁Michael	-5283
▁classy	-5284
▁prepare	-5285
▁Beautiful	-5286
▁legit	-5287
▁VIP	-5288
▁apps	-5289
▁bubble	-5290
isy	-5291
ourmet	-5292
▁flavourful	-5293
▁teriyaki	-5294
▁Kitchen	-5295
▁dive	-5296
ems	-5297
▁13	-5298
arrass	-5299
▁celebrate	-5300
▁squee	-5301
ustard	-5302
irts	-5303
▁Looking	-5304
cape	-5305
▁plaza	-5306
▁teas	-5307
aches	-5308
▁familiar	-5309
▁haha	-5310
tte	-5311
▁Ven	-5312
agne	-5313
▁Meat	-5314
▁Made	-5315
▁Val	-5316
▁ketchup	-5317
▁Perhaps	-5318
▁students	-5319
▁bang	-5320
▁roof	-5321
▁hass	-5322
:45	-5323
▁Chocolate	-5324
ability	-5325
arbage	-5326
US	-5327
▁TVs	-5328
itness	-5329
▁shredded	-5330
hest	-5331
▁shuttle	-5332
▁sesame	-5333
▁Lobster	-5334
▁Ramen	-5335
▁Wynn	-5336
▁cabbage	-5337
▁Hands	-5338
▁@	-5339
▁constru	-5340
ki	-5341
dr	-5342
▁Har	-5343
esa	-5344
▁aside	-5345
beye	-5346
atered	-5347
erry	-5348
paragus	-5349
ival	-5350
▁rip	-5351
gn	-5352
▁responded	-5353
▁pin	-5354
▁champ	-5355
://	-5356
▁holiday	-5357
▁golf	-5358
▁secret	-5359
▁shoot	-5360
ergency	-5361
▁CA	-5362
▁lease	-5363
▁container	-5364
▁initially	-5365
olly	-5366
▁SER	-5367
5.	-5368
▁sake	-5369
▁fav	-5370
odka	-5371
▁cutting	-5372
▁stopping	-5373
▁entertainment	-5374
▁Rob	-5375
down	-5376
▁Stay	-5377
▁David	-5378
▁Take	-5379
▁kim	-5380
▁smoking	-5381
.,	-5382
oles	-5383
▁north	-5384
▁Despite	-5385
▁Worth	-5386
▁fountain	-5387
▁UP	-5388
▁Sat	-5389
▁grabbed	-5390
▁Ban	-5391
▁Way	-5392
▁internet	-5393
iant	-5394
▁Free	-5395
▁runs	-5396
afel	-5397
▁consult	-5398
▁closest	-5399
iful	-5400
▁represent	-5401
order	-5402
▁Center	-5403
▁complaining	-5404
▁create	-5405
▁insane	-5406
▁concert	-5407
▁Sw	-5408
ham	-5409
IM	-5410
ignon	-5411
▁5.	-5412
▁eats	-5413
▁remodel	-5414
▁regarding	-5415
▁headed	-5416
▁leak	-5417
▁;)	-5418
GM	-5419
▁diss	-5420
▁turns	-5421
▁minimum	-5422
▁Sure	-5423
▁neither	-5424
ogn	-5425
▁public	-5426
▁camp	-5427
▁advent	-5428
▁naan	-5429
▁Wonderful	-5430
▁assume	-5431
▁fool	-5432
▁Em	-5433
▁embarrass	-5434
▁SH	-5435
▁sticks	-5436
▁coles	-5437
▁Cool	-5438
▁Fam	-5439
▁hire	-5440
beat	-5441
ION	-5442
▁Star	-5443
▁olive	-5444
form	-5445
ndler	-5446
▁coleslaw	-5447
▁und	-5448
gy	-5449
▁romantic	-5450
▁managers	-5451
gant	-5452
▁required	-5453
IR	-5454
▁substit	-5455
▁tomorrow	-5456
▁neck	-5457
nel	-5458
▁suit	-5459
▁Op	-5460
▁meh	-5461
▁Found	-5462
▁incre	-5463
▁helps	-5464
otten	-5465
noc	-5466
▁Little	-5467
▁mani	-5468
ateful	-5469
mbur	-5470
▁delic	-5471
inese	-5472
▁crit	-5473
It	-5474
▁fres	-5475
▁ANY	-5476
▁Town	-5477
undred	-5478
▁impecc	-5479
▁worker	-5480
▁hasn	-5481
▁clothing	-5482
ledg	-5483
▁snow	-5484
verages	-5485
▁minor	-5486
▁professionalism	-5487
▁ends	-5488
▁lives	-5489
▁dined	-5490
▁Pros	-5491
▁ease	-5492
▁beverage	-5493
edy	-5494
▁brings	-5495
rely	-5496
▁milksha	-5497
▁Anyways	-5498
▁Ed	-5499
▁updated	-5500
▁Kind	-5501
UL	-5502
▁Though	-5503
▁wasted	-5504
▁GOOD	-5505
▁Mand	-5506
▁port	-5507
▁Beer	-5508
▁afterwards	-5509
▁PM	-5510
▁worried	-5511
▁cilantro	-5512
▁cous	-5513
▁gri	-5514
iam	-5515
▁regulars	-5516
▁Salmon	-5517
nger	-5518
alk	-5519
▁inqu	-5520
was	-5521
▁vib	-5522
▁bf	-5523
eral	-5524
▁About	-5525
▁enchiladas	-5526
▁hambur	-5527
press	-5528
▁21	-5529
▁pill	-5530
▁Summer	-5531
▁judge	-5532
RIBLE	-5533
▁Bob	-5534
▁appt	-5535
lets	-5536
▁Hawaiian	-5537
▁Res	-5538
▁wrote	-5539
uth	-5540
ires	-5541
▁Jan	-5542
▁entered	-5543
▁courses	-5544
▁bothered	-5545
▁letting	-5546
We	-5547
iers	-5548
▁fake	-5549
▁garbage	-5550
▁fatty	-5551
▁chopped	-5552
may	-5553
▁besides	-5554
ATE	-5555
▁lemonade	-5556
▁chedd	-5557
cy	-5558
rane	-5559
▁knock	-5560
▁coupons	-5561
▁Tacos	-5562
▁esc	-5563
▁battery	-5564
▁groupon	-5565
▁listened	-5566
▁hundred	-5567
hang	-5568
▁finger	-5569
▁Located	-5570
OP	-5571
▁overp	-5572
▁inj	-5573
▁educ	-5574
▁sang	-5575
▁scam	-5576
▁tapas	-5577
▁beverages	-5578
▁sus	-5579
ESS	-5580
▁amen	-5581
ously	-5582
tta	-5583
▁wifi	-5584
▁swim	-5585
▁currently	-5586
ugs	-5587
▁plant	-5588
achel	-5589
▁FOR	-5590
▁deposit	-5591
▁bc	-5592
ispy	-5593
idence	-5594
▁piss	-5595
▁rocks	-5596
▁Decent	-5597
▁dust	-5598
▁35	-5599
-)	-5600
▁Dessert	-5601
▁preferred	-5602
▁Crab	-5603
▁restroom	-5604
tr	-5605
▁boys	-5606
ommend	-5607
lower	-5608
ibility	-5609
▁wild	-5610
▁cheddar	-5611
▁auto	-5612
harm	-5613
ouses	-5614
▁unbeliev	-5615
▁genuinely	-5616
▁thats	-5617
▁silver	-5618
▁convenience	-5619
▁wing	-5620
▁weekly	-5621
▁procedure	-5622
▁Mil	-5623
▁cupcake	-5624
there	-5625
▁napkins	-5626
keep	-5627
▁exchan	-5628
▁penny	-5629
uted	-5630
vet	-5631
▁suggestion	-5632
▁$11	-5633
▁chorizo	-5634
▁quantity	-5635
▁god	-5636
▁bedroom	-5637
▁hopefully	-5638
▁Right	-5639
▁Mom	-5640
▁brow	-5641
▁$14	-5642
ellar	-5643
uel	-5644
▁Won	-5645
▁Special	-5646
▁recogn	-5647
▁advised	-5648
▁Soup	-5649
asm	-5650
▁pock	-5651
▁crappy	-5652
▁reach	-5653
osh	-5654
▁blond	-5655
▁dump	-5656
good	-5657
mmm	-5658
anish	-5659
accept	-5660
▁elevator	-5661
▁MGM	-5662
▁reserved	-5663
abi	-5664
▁pap	-5665
▁tab	-5666
ups	-5667
ORE	-5668
ache	-5669
▁wheel	-5670
▁July	-5671
ranean	-5672
ountered	-5673
▁joints	-5674
▁underwhel	-5675
▁quesadilla	-5676
happy	-5677
ae	-5678
uity	-5679
entially	-5680
▁Recommend	-5681
▁lux	-5682
▁~	-5683
▁grateful	-5684
▁MY	-5685
▁prot	-5686
▁Comp	-5687
▁Cream	-5688
▁interact	-5689
▁importantly	-5690
▁encountered	-5691
▁carn	-5692
▁planned	-5693
ledgable	-5694
▁mex	-5695
▁drag	-5696
ango	-5697
▁sooo	-5698
illed	-5699
▁hopes	-5700
ox	-5701
▁emergency	-5702
▁pesto	-5703
ulif	-5704
▁thr	-5705
UR	-5706
otic	-5707
iterranean	-5708
mi	-5709
raid	-5710
▁built	-5711
▁Jim	-5712
▁patron	-5713
acc	-5714
▁yard	-5715
▁$13	-5716
▁Huge	-5717
▁Top	-5718
▁hassle	-5719
▁Ice	-5720
sey	-5721
▁Three	-5722
▁ravioli	-5723
▁undercooked	-5724
▁suppl	-5725
new	-5726
▁yoga	-5727
▁croissant	-5728
▁Save	-5729
▁impeccable	-5730
:15	-5731
▁weak	-5732
▁acknowled	-5733
▁purp	-5734
▁heading	-5735
▁jerk	-5736
ology	-5737
▁Texas	-5738
acceptable	-5739
▁gal	-5740
▁Hal	-5741
▁grits	-5742
▁load	-5743
uliflower	-5744
itan	-5745
▁fort	-5746
▁Ty	-5747
urse	-5748
▁invest	-5749
▁garden	-5750
loin	-5751
▁Ol	-5752
▁risotto	-5753
KE	-5754
▁Give	-5755
▁stone	-5756
▁noon	-5757
▁pure	-5758
▁dealer	-5759
chetta	-5760
▁(1	-5761
▁$16	-5762
▁exhib	-5763
itary	-5764
atives	-5765
▁sund	-5766
set	-5767
ening	-5768
▁ONE	-5769
iping	-5770
▁entertaining	-5771
▁asparagus	-5772
▁purchasing	-5773
▁background	-5774
▁focus	-5775
▁Bra	-5776
▁den	-5777
▁Update	-5778
▁museum	-5779
▁lic	-5780
▁Alex	-5781
▁happening	-5782
ONE	-5783
▁session	-5784
erest	-5785
▁calm	-5786
irm	-5787
▁mint	-5788
▁afraid	-5789
▁requests	-5790
▁Amb	-5791
▁draft	-5792
▁faster	-5793
rict	-5794
▁noisy	-5795
▁nuts	-5796
▁bull	-5797
▁knowledgable	-5798
▁Ge	-5799
▁Hard	-5800
usi	-5801
▁Jack	-5802
front	-5803
PM	-5804
▁Chipotle	-5805
gre	-5806
▁couch	-5807
bow	-5808
▁octopus	-5809
__	-5810
▁lashes	-5811
▁ge	-5812
inds	-5813
gle	-5814
▁grat	-5815
▁olives	-5816
▁Better	-5817
▁comments	-5818
▁arrange	-5819
7.	-5820
▁enth	-5821
▁bitter	-5822
▁replied	-5823
▁Pet	-5824
aspberry	-5825
▁Ir	-5826
ilian	-5827
75	-5828
ague	-5829
▁Ju	-5830
ety	-5831
▁reminds	-5832
▁booking	-5833
▁signific	-5834
▁Hopefully	-5835
▁REALLY	-5836
▁Carl	-5837
▁THAT	-5838
▁brule	-5839
▁levels	-5840
▁HERE	-5841
▁minimal	-5842
▁scratch	-5843
▁cleanliness	-5844
▁entering	-5845
▁doc	-5846
▁buttery	-5847
▁browns	-5848
terior	-5849
▁ID	-5850
▁Dog	-5851
sting	-5852
mary	-5853
▁cert	-5854
▁Yeah	-5855
▁Cos	-5856
▁pickled	-5857
▁Own	-5858
▁frustrating	-5859
see	-5860
▁eyebrows	-5861
IOUS	-5862
▁ONLY	-5863
▁Waited	-5864
eful	-5865
▁Lo	-5866
▁clubs	-5867
▁attract	-5868
▁cared	-5869
▁mechanic	-5870
▁chipotle	-5871
▁amenities	-5872
▁accur	-5873
▁faj	-5874
▁starving	-5875
▁anyways	-5876
▁htt	-5877
▁Sadly	-5878
▁salted	-5879
mall	-5880
▁freez	-5881
hill	-5882
▁cooks	-5883
aired	-5884
▁root	-5885
▁accompan	-5886
▁Totally	-5887
▁keys	-5888
▁sight	-5889
acked	-5890
▁repeated	-5891
▁grease	-5892
isu	-5893
▁mainly	-5894
▁dealt	-5895
▁#1	-5896
etian	-5897
▁Bott	-5898
▁rave	-5899
▁thrilled	-5900
▁acknowledge	-5901
▁wraps	-5902
▁lover	-5903
▁White	-5904
▁Must	-5905
▁$18	-5906
▁fond	-5907
▁warned	-5908
▁2)	-5909
▁sadly	-5910
▁horri	-5911
bi	-5912
eta	-5913
▁bits	-5914
entiful	-5915
▁incom	-5916
bet	-5917
wor	-5918
▁Chandler	-5919
▁Quick	-5920
▁wanna	-5921
▁explan	-5922
▁herself	-5923
rupt	-5924
▁Ma	-5925
▁sprink	-5926
▁carrots	-5927
PA	-5928
▁inspection	-5929
iram	-5930
▁Main	-5931
▁decl	-5932
▁tres	-5933
gu	-5934
▁$200	-5935
agna	-5936
istro	-5937
▁sink	-5938
'.	-5939
▁Sandwich	-5940
ules	-5941
▁forced	-5942
▁tang	-5943
▁kidding	-5944
▁fellow	-5945
hand	-5946
Th	-5947
amic	-5948
▁alternative	-5949
▁clinic	-5950
▁messy	-5951
▁salesman	-5952
acing	-5953
▁Lol	-5954
▁$$	-5955
▁manage	-5956
▁unable	-5957
▁confusing	-5958
▁stellar	-5959
▁HA	-5960
▁monthly	-5961
▁Dep	-5962
▁rose	-5963
▁(2	-5964
▁male	-5965
organized	-5966
nocchi	-5967
▁vinegar	-5968
AYS	-5969
▁stocked	-5970
▁advertised	-5971
▁numb	-5972
▁Calgary	-5973
▁demand	-5974
▁Four	-5975
▁whipped	-5976
▁gra	-5977
▁tho	-5978
▁hooked	-5979
▁plentiful	-5980
▁introduced	-5981
▁bust	-5982
▁vodka	-5983
nuts	-5984
enos	-5985
▁student	-5986
▁asks	-5987
▁Ha	-5988
▁ep	-5989
▁spoon	-5990
▁pride	-5991
sidered	-5992
▁talented	-5993
▁sex	-5994
igiri	-5995
▁barist	-5996
▁trips	-5997
▁cult	-5998
ogi	-5999
▁om	-6000
airy	-6001
▁ME	-6002
▁trail	-6003
▁carp	-6004
anger	-6005
▁shortly	-6006
▁searching	-6007
▁BL	-6008
▁file	-6009
cent	-6010
▁Casino	-6011
▁tam	-6012
▁Gy	-6013
-$	-6014
estern	-6015
VICE	-6016
▁Plenty	-6017
▁forth	-6018
www	-6019
▁Buffet	-6020
▁sets	-6021
CK	-6022
▁NYC	-6023
raw	-6024
▁Bon	-6025
▁Mesa	-6026
▁shirt	-6027
▁remo	-6028
ESOME	-6029
▁Mus	-6030
▁teen	-6031
▁Col	-6032
▁involved	-6033
▁stat	-6034
▁Bread	-6035
style	-6036
▁pretzel	-6037
amble	-6038
ser	-6039
iver	-6040
▁greatest	-6041
▁2-3	-6042
▁construction	-6043
▁paired	-6044
oma	-6045
▁1)	-6046
▁vs	-6047
▁Tur	-6048
▁Paris	-6049
▁custard	-6050
▁skept	-6051
▁oz	-6052
food	-6053
▁father	-6054
▁reviewers	-6055
▁gall	-6056
▁states	-6057
▁alot	-6058
▁quaint	-6059
▁incorrect	-6060
▁steakhouse	-6061
▁confirmed	-6062
▁provides	-6063
▁pra	-6064
▁Menu	-6065
▁gourmet	-6066
▁Canada	-6067
rated	-6068
▁irrit	-6069
▁wasnt	-6070
▁Bel	-6071
▁recall	-6072
umbing	-6073
iramisu	-6074
▁disres	-6075
▁considered	-6076
▁smoothies	-6077
▁salons	-6078
▁skimp	-6079
▁improved	-6080
▁opt	-6081
illage	-6082
▁mushy	-6083
▁Om	-6084
ales	-6085
▁exist	-6086
▁Miss	-6087
▁Ask	-6088
▁enthusi	-6089
▁ridiculously	-6090
▁comparison	-6091
rac	-6092
▁liquor	-6093
▁fork	-6094
▁gun	-6095
▁Queen	-6096
▁craw	-6097
▁incons	-6098
▁ave	-6099
▁desired	-6100
▁attended	-6101
▁rated	-6102
▁refilled	-6103
▁unlimited	-6104
▁whis	-6105
▁saf	-6106
▁exciting	-6107
▁charac	-6108
▁matcha	-6109
▁dresses	-6110
▁attached	-6111
arning	-6112
▁created	-6113
son	-6114
▁ya	-6115
▁juices	-6116
▁Portions	-6117
▁checks	-6118
▁movies	-6119
nic	-6120
town	-6121
▁grass	-6122
▁arriving	-6123
▁Matt	-6124
▁Order	-6125
▁cherry	-6126
▁AWESOME	-6127
▁acceptable	-6128
▁page	-6129
▁gate	-6130
▁steam	-6131
ann	-6132
▁providing	-6133
▁rob	-6134
▁1-	-6135
actory	-6136
▁pharm	-6137
▁matt	-6138
!),	-6139
▁premium	-6140
visor	-6141
▁shout	-6142
▁choo	-6143
▁amazed	-6144
▁described	-6145
▁news	-6146
▁basis	-6147
▁RE	-6148
▁Port	-6149
▁disappe	-6150
▁handful	-6151
iven	-6152
bar	-6153
hold	-6154
▁peace	-6155
especially	-6156
▁addic	-6157
▁Mediterranean	-6158
aker	-6159
▁Five	-6160
▁Venetian	-6161
▁seasonal	-6162
▁vou	-6163
▁honor	-6164
▁rack	-6165
▁magic	-6166
▁aspect	-6167
▁Ver	-6168
▁Bacon	-6169
▁DEL	-6170
▁SERVICE	-6171
▁square	-6172
after	-6173
▁stairs	-6174
▁qual	-6175
▁strips	-6176
▁neighbour	-6177
!!!!!!	-6178
▁promise	-6179
▁rubber	-6180
▁Norm	-6181
▁discuss	-6182
clud	-6183
▁Hell	-6184
▁earth	-6185
▁younger	-6186
▁stew	-6187
▁action	-6188
▁FR	-6189
▁brulee	-6190
▁repaired	-6191
ctic	-6192
viche	-6193
▁flavorless	-6194
li	-6195
▁vel	-6196
▁pickup	-6197
▁appears	-6198
▁animal	-6199
▁trained	-6200
▁transfer	-6201
▁tall	-6202
assion	-6203
▁cleaner	-6204
▁Tim	-6205
▁stands	-6206
▁Curry	-6207
▁abs	-6208
adian	-6209
bb	-6210
▁pitc	-6211
▁strugg	-6212
▁mexican	-6213
▁nurse	-6214
▁Frank	-6215
▁Start	-6216
▁arm	-6217
PER	-6218
▁instr	-6219
uum	-6220
▁maple	-6221
▁hat	-6222
▁LOL	-6223
▁ours	-6224
▁falafel	-6225
▁UN	-6226
ologetic	-6227
▁Server	-6228
▁frustrated	-6229
cer	-6230
▁Eggs	-6231
▁amazingly	-6232
boy	-6233
▁ribeye	-6234
▁sucked	-6235
▁unacceptable	-6236
▁edible	-6237
/20	-6238
▁assistant	-6239
▁gamb	-6240
▁Lunch	-6241
▁Eat	-6242
▁unw	-6243
▁flo	-6244
▁smart	-6245
▁shock	-6246
▁washed	-6247
▁tower	-6248
▁mattress	-6249
esy	-6250
ELY	-6251
▁cancelled	-6252
▁YUM	-6253
ization	-6254
▁balanced	-6255
▁End	-6256
REE	-6257
▁Yummy	-6258
ishes	-6259
▁Gil	-6260
atory	-6261
▁pint	-6262
ubs	-6263
▁champagne	-6264
▁jewelry	-6265
▁5/5	-6266
▁breath	-6267
▁strawberries	-6268
▁insisted	-6269
▁Cap	-6270
▁Mart	-6271
▁code	-6272
AIN	-6273
▁require	-6274
itions	-6275
▁vehicles	-6276
atisf	-6277
▁stumbled	-6278
aved	-6279
▁reliable	-6280
▁yelling	-6281
▁kimchi	-6282
▁10-	-6283
▁length	-6284
▁Location	-6285
▁dirt	-6286
▁appropriate	-6287
▁70	-6288
▁pushy	-6289
▁approached	-6290
▁comparable	-6291
▁Surpr	-6292
▁Plan	-6293
care	-6294
▁tree	-6295
entious	-6296
▁understood	-6297
▁receiving	-6298
▁ample	-6299
▁improvement	-6300
▁traveling	-6301
▁lang	-6302
▁appetite	-6303
stal	-6304
auty	-6305
▁caf	-6306
▁marinated	-6307
uction	-6308
▁human	-6309
▁Steve	-6310
▁wondering	-6311
▁Glad	-6312
▁football	-6313
▁buds	-6314
▁blah	-6315
▁chinese	-6316
oute	-6317
▁17	-6318
▁thous	-6319
nec	-6320
▁plans	-6321
9.	-6322
hew	-6323
▁designed	-6324
icier	-6325
▁fest	-6326
riger	-6327
▁Off	-6328
▁Dinner	-6329
▁settled	-6330
▁tint	-6331
ountains	-6332
▁diners	-6333
▁watery	-6334
▁tone	-6335
▁iron	-6336
▁Extremely	-6337
▁tots	-6338
▁offic	-6339
▁cheeseburger	-6340
▁cauliflower	-6341
▁fitness	-6342
▁grew	-6343
▁engine	-6344
▁reput	-6345
▁Road	-6346
▁master	-6347
▁veal	-6348
▁antic	-6349
inations	-6350
hank	-6351
▁1/	-6352
▁pig	-6353
▁Note	-6354
▁answers	-6355
essed	-6356
▁$60	-6357
▁caused	-6358
▁filthy	-6359
▁reached	-6360
▁blame	-6361
▁cheeses	-6362
▁Spring	-6363
▁coworkers	-6364
▁finishing	-6365
▁falling	-6366
▁Sauce	-6367
▁gras	-6368
▁Met	-6369
▁shakes	-6370
▁Easy	-6371
▁angry	-6372
ucch	-6373
▁stating	-6374
▁parm	-6375
▁quar	-6376
▁queso	-6377
▁dude	-6378
igned	-6379
▁spray	-6380
▁Ger	-6381
▁purpose	-6382
▁wand	-6383
▁WAS	-6384
reg	-6385
▁approx	-6386
▁majority	-6387
▁Quality	-6388
▁practically	-6389
▁blueberry	-6390
▁grow	-6391
▁martini	-6392
▁colour	-6393
equ	-6394
anas	-6395
▁massages	-6396
▁smiling	-6397
▁Dou	-6398
▁tucked	-6399
▁pregn	-6400
▁mater	-6401
▁Gord	-6402
utella	-6403
▁Garden	-6404
▁indeed	-6405
▁Str	-6406
▁stret	-6407
▁sof	-6408
▁Ve	-6409
▁dinners	-6410
▁twist	-6411
▁satisfy	-6412
▁firm	-6413
▁skeptical	-6414
idents	-6415
▁boun	-6416
▁happily	-6417
▁pics	-6418
▁consum	-6419
▁tray	-6420
rus	-6421
▁pumpkin	-6422
▁clue	-6423
▁buzz	-6424
▁saving	-6425
udos	-6426
ingy	-6427
▁prescription	-6428
▁model	-6429
▁agent	-6430
maybe	-6431
▁Those	-6432
▁former	-6433
▁Walmart	-6434
ucchini	-6435
▁flour	-6436
▁hesitate	-6437
)!	-6438
▁nicest	-6439
ele	-6440
▁puts	-6441
▁stepped	-6442
▁shawarma	-6443
▁hits	-6444
▁phones	-6445
▁Mill	-6446
▁emails	-6447
▁chatting	-6448
▁Square	-6449
▁Either	-6450
▁detailed	-6451
▁Blood	-6452
▁retail	-6453
▁shaved	-6454
▁tank	-6455
▁nowhere	-6456
▁trade	-6457
▁hello	-6458
▁pies	-6459
▁loose	-6460
▁Lastly	-6461
▁ripped	-6462
▁neighbors	-6463
▁Eur	-6464
▁bump	-6465
▁Class	-6466
▁wished	-6467
▁Family	-6468
mare	-6469
▁holding	-6470
▁Person	-6471
▁Fire	-6472
▁coat	-6473
remont	-6474
some	-6475
▁Dri	-6476
▁unhappy	-6477
▁microwave	-6478
▁Large	-6479
▁luke	-6480
su	-6481
▁DON	-6482
zed	-6483
▁regardless	-6484
▁fuck	-6485
▁Brus	-6486
▁Cor	-6487
▁passing	-6488
▁invent	-6489
erc	-6490
lli	-6491
▁blonde	-6492
▁hearty	-6493
uster	-6494
▁Dave	-6495
▁midnight	-6496
▁uses	-6497
▁YOUR	-6498
▁dealers	-6499
vey	-6500
▁complement	-6501
gged	-6502
▁Act	-6503
▁Disappoint	-6504
▁damaged	-6505
▁acknowledged	-6506
▁direction	-6507
▁field	-6508
▁steep	-6509
▁safety	-6510
▁oppos	-6511
fall	-6512
▁shar	-6513
▁pants	-6514
▁50%	-6515
▁jobs	-6516
▁Back	-6517
▁Wings	-6518
▁wallet	-6519
▁snob	-6520
▁thrown	-6521
▁assortment	-6522
▁stir	-6523
aa	-6524
▁fusion	-6525
▁freaking	-6526
▁peak	-6527
▁meaning	-6528
owns	-6529
▁heck	-6530
▁lovers	-6531
▁subs	-6532
▁tenders	-6533
▁20%	-6534
▁FOOD	-6535
▁waters	-6536
▁beware	-6537
▁Avoid	-6538
iki	-6539
WAYS	-6540
▁overwhelmed	-6541
▁Potato	-6542
▁AG	-6543
▁cramped	-6544
▁rev	-6545
ressed	-6546
▁Ob	-6547
while	-6548
irty	-6549
▁raised	-6550
▁Total	-6551
mail	-6552
▁vacuum	-6553
▁explanation	-6554
▁refriger	-6555
▁farm	-6556
▁adds	-6557
▁dates	-6558
▁Bottom	-6559
▁fruits	-6560
ping	-6561
▁[	-6562
THING	-6563
▁installation	-6564
▁whatso	-6565
▁cents	-6566
▁laug	-6567
rep	-6568
▁IM	-6569
sell	-6570
tail	-6571
▁langu	-6572
rend	-6573
plete	-6574
▁adorable	-6575
▁Does	-6576
sal	-6577
▁Much	-6578
▁Aug	-6579
▁hamburger	-6580
****	-6581
▁whatsoever	-6582
▁Almost	-6583
▁upgraded	-6584
abob	-6585
▁locally	-6586
udes	-6587
▁Seems	-6588
▁Holly	-6589
la	-6590
▁trees	-6591
▁financ	-6592
ruit	-6593
▁depend	-6594
▁Butter	-6595
▁Gilbert	-6596
▁downhill	-6597
▁acted	-6598
▁challenge	-6599
▁competitive	-6600
EE	-6601
▁unus	-6602
▁FA	-6603
8.	-6604
UN	-6605
.00.	-6606
▁mal	-6607
▁boss	-6608
▁Aria	-6609
imb	-6610
▁scared	-6611
▁Lake	-6612
▁forgotten	-6613
▁Side	-6614
▁Jason	-6615
isa	-6616
▁lightly	-6617
▁raspberry	-6618
▁2.5	-6619
▁scramb	-6620
▁muffin	-6621
▁heads	-6622
▁Poor	-6623
minal	-6624
▁pools	-6625
▁degrees	-6626
▁anticip	-6627
▁stations	-6628
ube	-6629
cend	-6630
▁Auto	-6631
itched	-6632
▁4/5	-6633
▁maintained	-6634
▁belong	-6635
IE	-6636
▁pec	-6637
▁OR	-6638
▁exchange	-6639
▁desper	-6640
▁associate	-6641
ipes	-6642
▁walks	-6643
▁barber	-6644
▁PR	-6645
▁Stars	-6646
▁cone	-6647
▁chic	-6648
▁occup	-6649
▁photograp	-6650
▁makeup	-6651
▁Express	-6652
vy	-6653
2.	-6654
-20	-6655
umbo	-6656
olitan	-6657
▁Corn	-6658
▁darn	-6659
▁Garlic	-6660
▁powder	-6661
▁thumbs	-6662
ections	-6663
▁everybody	-6664
▁rates	-6665
They	-6666
aky	-6667
▁asian	-6668
▁charming	-6669
obe	-6670
▁unex	-6671
▁highlights	-6672
pleas	-6673
rami	-6674
▁Waitress	-6675
▁behav	-6676
rom	-6677
▁hired	-6678
isque	-6679
▁faces	-6680
▁ALWAYS	-6681
▁Costco	-6682
▁bout	-6683
▁blank	-6684
▁indic	-6685
▁gnocchi	-6686
▁opposite	-6687
TER	-6688
▁songs	-6689
▁Spanish	-6690
▁san	-6691
▁sangria	-6692
▁choosing	-6693
▁Show	-6694
ashed	-6695
▁nightmare	-6696
▁Part	-6697
▁greeting	-6698
▁pocket	-6699
▁Margar	-6700
▁approach	-6701
▁Tony	-6702
▁hospitality	-6703
onge	-6704
▁incompet	-6705
▁sir	-6706
bu	-6707
itor	-6708
▁Tar	-6709
fortunate	-6710
ahi	-6711
▁tong	-6712
▁coff	-6713
▁staple	-6714
lev	-6715
▁ratio	-6716
▁led	-6717
onda	-6718
▁artich	-6719
▁PH	-6720
▁dut	-6721
xious	-6722
▁confident	-6723
▁Tuna	-6724
▁disrespect	-6725
alay	-6726
▁inconvenience	-6727
60	-6728
▁stun	-6729
▁Lux	-6730
▁cuz	-6731
▁setup	-6732
▁biscuit	-6733
▁fave	-6734
rist	-6735
▁ident	-6736
▁parked	-6737
▁Same	-6738
gent	-6739
▁Fil	-6740
▁Inc	-6741
▁http	-6742
▁WAY	-6743
▁Min	-6744
▁inch	-6745
ami	-6746
▁Mall	-6747
pril	-6748
IL	-6749
▁exceeded	-6750
▁Oct	-6751
▁skewers	-6752
uteed	-6753
▁Mir	-6754
ecue	-6755
▁cit	-6756
▁brownie	-6757
▁til	-6758
▁mignon	-6759
▁earned	-6760
▁pets	-6761
▁frame	-6762
oons	-6763
▁MUST	-6764
▁Ive	-6765
▁burned	-6766
ghter	-6767
▁Canadian	-6768
▁Besides	-6769
▁layer	-6770
▁4.5	-6771
uctions	-6772
▁score	-6773
quila	-6774
▁entirely	-6775
▁Mat	-6776
▁nigiri	-6777
▁neighbourhood	-6778
▁features	-6779
hot	-6780
▁patience	-6781
▁overlook	-6782
▁(3	-6783
fred	-6784
▁assumed	-6785
▁screens	-6786
▁competition	-6787
▁curi	-6788
▁Turn	-6789
▁growing	-6790
ethe	-6791
▁resched	-6792
▁$35	-6793
▁expand	-6794
▁assistance	-6795
▁Parmesan	-6796
▁pen	-6797
▁adequ	-6798
▁lasagna	-6799
ACK	-6800
▁description	-6801
▁mimosas	-6802
istic	-6803
▁guide	-6804
▁nurs	-6805
▁mais	-6806
▁mistakes	-6807
▁PLA	-6808
▁theatre	-6809
▁max	-6810
▁Mel	-6811
weed	-6812
▁Walked	-6813
▁Philly	-6814
warm	-6815
▁needing	-6816
▁foie	-6817
▁jalapenos	-6818
▁Ben	-6819
ask	-6820
rage	-6821
▁spir	-6822
▁blew	-6823
▁million	-6824
▁recommending	-6825
▁tos	-6826
▁Water	-6827
▁ais	-6828
▁eater	-6829
melon	-6830
▁bent	-6831
etheless	-6832
▁thankful	-6833
▁Braz	-6834
▁Rep	-6835
apped	-6836
▁pit	-6837
▁butt	-6838
▁Hall	-6839
▁dedic	-6840
acle	-6841
▁warning	-6842
▁emailed	-6843
velop	-6844
▁puppy	-6845
▁HOR	-6846
utto	-6847
▁daughters	-6848
▁bills	-6849
dden	-6850
intage	-6851
▁couples	-6852
▁Reason	-6853
▁laughing	-6854
although	-6855
▁Grilled	-6856
ota	-6857
▁America	-6858
cho	-6859
▁numbers	-6860
▁LOT	-6861
▁shoulder	-6862
▁starter	-6863
▁steal	-6864
atown	-6865
▁volume	-6866
▁scen	-6867
▁unf	-6868
ument	-6869
▁factor	-6870
▁Island	-6871
▁watered	-6872
▁tops	-6873
▁coast	-6874
oria	-6875
udd	-6876
hard	-6877
ggie	-6878
▁pissed	-6879
▁risk	-6880
box	-6881
▁compliments	-6882
▁language	-6883
▁listening	-6884
▁debit	-6885
▁winner	-6886
▁appealing	-6887
▁instructor	-6888
▁Short	-6889
▁parmesan	-6890
▁Ann	-6891
▁Fair	-6892
lend	-6893
▁steps	-6894
▁pushed	-6895
▁:-)	-6896
water	-6897
▁hur	-6898
uary	-6899
▁waitstaff	-6900
orage	-6901
▁Irish	-6902
ital	-6903
▁exterior	-6904
ajun	-6905
▁Bu	-6906
▁boot	-6907
▁kale	-6908
aine	-6909
▁sooner	-6910
giving	-6911
▁apologetic	-6912
iece	-6913
▁10%	-6914
aps	-6915
▁fajitas	-6916
▁April	-6917
▁material	-6918
▁kara	-6919
cluding	-6920
▁answering	-6921
AND	-6922
▁Los	-6923
cious	-6924
▁velvet	-6925
▁facilities	-6926
▁Int	-6927
▁accurate	-6928
▁pun	-6929
▁Tonight	-6930
▁reply	-6931
▁China	-6932
xture	-6933
hop	-6934
▁TR	-6935
▁Ash	-6936
▁crave	-6937
▁3-4	-6938
▁punch	-6939
▁Van	-6940
▁hal	-6941
▁Chan	-6942
▁strongly	-6943
▁shift	-6944
mission	-6945
▁pricy	-6946
▁entry	-6947
▁collection	-6948
▁shirts	-6949
ciutto	-6950
▁supplies	-6951
▁zucchini	-6952
▁Step	-6953
oops	-6954
▁metal	-6955
▁theirs	-6956
▁benefit	-6957
▁chow	-6958
▁WORST	-6959
eem	-6960
▁bruschetta	-6961
:)	-6962
▁flu	-6963
▁?	-6964
necess	-6965
▁Whe	-6966
aled	-6967
▁limit	-6968
▁towel	-6969
▁carrot	-6970
ICIOUS	-6971
▁acry	-6972
ington	-6973
▁chains	-6974
▁Management	-6975
irl	-6976
▁crowds	-6977
▁qui	-6978
▁June	-6979
eria	-6980
het	-6981
▁overd	-6982
▁surf	-6983
fredo	-6984
▁declined	-6985
▁Italy	-6986
▁Lat	-6987
▁therapist	-6988
▁path	-6989
▁semi	-6990
ived	-6991
▁Cant	-6992
▁Mid	-6993
▁drizz	-6994
▁Wi	-6995
ua	-6996
▁franch	-6997
▁eth	-6998
▁Uber	-6999
keeping	-7000
▁bloody	-7001
rie	-7002
▁discus	-7003
▁1.5	-7004
▁shel	-7005
▁Downtown	-7006
inis	-7007
▁Smo	-7008
hone	-7009
▁Jeff	-7010
▁rudely	-7011
▁Deli	-7012
▁cheapest	-7013
▁fi	-7014
▁worthy	-7015
staffed	-7016
ieved	-7017
worth	-7018
▁fed	-7019
▁Spa	-7020
ammed	-7021
▁sudden	-7022
▁Time	-7023
▁WILL	-7024
▁eager	-7025
▁Bloody	-7026
▁lean	-7027
▁locked	-7028
▁checkout	-7029
▁bass	-7030
FF	-7031
iety	-7032
▁peach	-7033
▁Open	-7034
alsamic	-7035
▁Son	-7036
▁hesitant	-7037
▁Basically	-7038
▁Cute	-7039
▁indul	-7040
sy	-7041
▁Recently	-7042
▁bes	-7043
▁wheat	-7044
▁clams	-7045
▁jelly	-7046
▁PLACE	-7047
uing	-7048
vada	-7049
IVE	-7050
cream	-7051
▁pace	-7052
iana	-7053
▁Wine	-7054
▁edge	-7055
iel	-7056
uf	-7057
▁unfortunate	-7058
▁advise	-7059
▁smiles	-7060
▁Chips	-7061
▁seve	-7062
▁flatbread	-7063
▁guarantee	-7064
▁Les	-7065
▁Decor	-7066
▁leather	-7067
▁cul	-7068
▁loving	-7069
▁cigare	-7070
▁treatments	-7071
rito	-7072
gl	-7073
▁preference	-7074
▁according	-7075
▁rented	-7076
great	-7077
icotta	-7078
▁Tri	-7079
????	-7080
OK	-7081
▁sampler	-7082
▁conveniently	-7083
oot	-7084
▁squash	-7085
got	-7086
▁Something	-7087
▁reflect	-7088
▁Someone	-7089
▁Cajun	-7090
▁Call	-7091
▁convin	-7092
▁Bowl	-7093
▁flying	-7094
▁corned	-7095
pleasant	-7096
▁destination	-7097
▁flaw	-7098
inc	-7099
4.	-7100
▁Art	-7101
▁craf	-7102
▁brewery	-7103
▁Crispy	-7104
▁Palace	-7105
▁Hubby	-7106
▁instantly	-7107
▁mob	-7108
▁shoe	-7109
▁puff	-7110
entive	-7111
▁instructors	-7112
▁blocks	-7113
▁Ce	-7114
▁Bart	-7115
▁Store	-7116
▁sole	-7117
▁AB	-7118
▁freshness	-7119
▁casinos	-7120
▁drivers	-7121
▁rules	-7122
You	-7123
itionally	-7124
No	-7125
▁Europe	-7126
▁cos	-7127
▁profess	-7128
vern	-7129
▁sweat	-7130
▁rust	-7131
▁ceviche	-7132
▁hipster	-7133
▁LOVED	-7134
▁lied	-7135
▁James	-7136
▁Sk	-7137
▁Buffalo	-7138
▁Chees	-7139
▁chile	-7140
▁supervisor	-7141
▁August	-7142
▁idi	-7143
▁thus	-7144
inated	-7145
▁unnecess	-7146
▁udon	-7147
):	-7148
▁gif	-7149
▁seared	-7150
fried	-7151
▁Chili	-7152
bles	-7153
ANT	-7154
▁squid	-7155
dog	-7156
▁THEY	-7157
shield	-7158
▁pist	-7159
▁church	-7160
TF	-7161
amame	-7162
OL	-7163
sas	-7164
▁Paul	-7165
▁soul	-7166
▁popped	-7167
▁southern	-7168
▁fired	-7169
▁stroll	-7170
▁poured	-7171
▁pers	-7172
▁Real	-7173
▁loan	-7174
▁painted	-7175
▁allows	-7176
▁unexpected	-7177
mins	-7178
▁Obviously	-7179
▁hoped	-7180
ipp	-7181
▁todd	-7182
▁curt	-7183
▁Bir	-7184
▁Literally	-7185
▁license	-7186
▁slo	-7187
▁DELICIOUS	-7188
isco	-7189
▁Should	-7190
▁buddy	-7191
▁cheer	-7192
ONG	-7193
▁inedible	-7194
Fi	-7195
▁sod	-7196
---	-7197
▁sending	-7198
▁braised	-7199
▁responsive	-7200
▁grown	-7201
▁avec	-7202
▁escape	-7203
lls	-7204
▁IPA	-7205
St	-7206
?!?	-7207
onn	-7208
▁styles	-7209
6.	-7210
▁switched	-7211
▁sometime	-7212
▁Golden	-7213
▁ideal	-7214
▁swear	-7215
▁Ave	-7216
▁Guess	-7217
▁Desert	-7218
▁deb	-7219
sized	-7220
▁cooler	-7221
▁hill	-7222
▁ages	-7223
▁routine	-7224
▁throwing	-7225
▁Eric	-7226
▁Ori	-7227
ste	-7228
▁ability	-7229
▁plants	-7230
▁claimed	-7231
▁everytime	-7232
▁noted	-7233
ius	-7234
▁collect	-7235
▁Tru	-7236
YI	-7237
▁cabin	-7238
▁Fremont	-7239
▁Brand	-7240
gogi	-7241
▁Asked	-7242
▁breaded	-7243
only	-7244
▁Decided	-7245
agram	-7246
▁barbecue	-7247
OB	-7248
▁Ac	-7249
iano	-7250
▁tun	-7251
ipino	-7252
▁selected	-7253
▁attempted	-7254
▁Half	-7255
▁feta	-7256
▁ignore	-7257
▁feedback	-7258
▁Carol	-7259
▁cousin	-7260
▁condiments	-7261
▁windshield	-7262
▁cornbread	-7263
▁Mandalay	-7264
▁Brian	-7265
▁frosting	-7266
▁refuse	-7267
UD	-7268
roud	-7269
▁Die	-7270
▁None	-7271
▁Bill	-7272
▁peel	-7273
▁progress	-7274
▁Att	-7275
▁compens	-7276
▁Seafood	-7277
▁conference	-7278
▁tiramisu	-7279
▁Hy	-7280
▁Count	-7281
▁Cab	-7282
▁Jul	-7283
ourbon	-7284
▁apartments	-7285
▁trim	-7286
▁compassion	-7287
▁unpleasant	-7288
▁consisted	-7289
▁utens	-7290
▁Hope	-7291
▁Mother	-7292
........	-7293
▁voucher	-7294
▁tile	-7295
▁techs	-7296
▁enchilada	-7297
▁March	-7298
▁establishments	-7299
▁starters	-7300
▁silverware	-7301
▁audience	-7302
▁divine	-7303
eness	-7304
▁Light	-7305
▁feature	-7306
▁bugs	-7307
oti	-7308
▁piping	-7309
▁lapt	-7310
▁knife	-7311
▁politely	-7312
▁Cour	-7313
▁Buy	-7314
▁bowling	-7315
ais	-7316
▁recipe	-7317
▁HORRIBLE	-7318
▁prevent	-7319
▁costum	-7320
▁surrounding	-7321
▁laughed	-7322
▁tourist	-7323
uz	-7324
▁charm	-7325
▁killer	-7326
▁Jess	-7327
▁overpower	-7328
▁performance	-7329
▁Sho	-7330
▁police	-7331
▁infl	-7332
▁toes	-7333
▁character	-7334
under	-7335
▁lets	-7336
▁AGAIN	-7337
▁golden	-7338
▁pharmacy	-7339
osa	-7340
▁Rose	-7341
ella	-7342
▁clam	-7343
when	-7344
▁tongue	-7345
▁Ever	-7346
▁error	-7347
▁sauteed	-7348
▁combinations	-7349
▁Bus	-7350
▁Chinatown	-7351
ounter	-7352
▁friendl	-7353
meal	-7354
ARE	-7355
▁memories	-7356
▁anybody	-7357
▁varieties	-7358
▁unbelievable	-7359
▁chick	-7360
▁rehe	-7361
▁oyster	-7362
▁aioli	-7363
part	-7364
umps	-7365
▁marinara	-7366
▁coworker	-7367
▁Pub	-7368
▁carte	-7369
▁fixing	-7370
▁Win	-7371
▁clientele	-7372
▁screaming	-7373
▁glo	-7374
▁heav	-7375
▁Lee	-7376
▁spare	-7377
▁garn	-7378
▁cleared	-7379
▁HAVE	-7380
▁breads	-7381
▁seaweed	-7382
rette	-7383
▁German	-7384
▁Noodle	-7385
▁outrage	-7386
▁Pie	-7387
because	-7388
▁branch	-7389
▁Jose	-7390
▁chunk	-7391
▁Actually	-7392
▁behavior	-7393
▁Lamb	-7394
▁milkshake	-7395
▁scheduling	-7396
▁beside	-7397
Ch	-7398
▁aggress	-7399
▁Pol	-7400
▁joy	-7401
▁scrambled	-7402
▁Burgers	-7403
▁spark	-7404
▁gambling	-7405
▁function	-7406
load	-7407
OUR	-7408
▁peas	-7409
▁tangy	-7410
▁stays	-7411
▁scallop	-7412
▁boiled	-7413
▁excess	-7414
▁Cub	-7415
ionally	-7416
▁$17	-7417
ppies	-7418
▁beauty	-7419
▁capp	-7420
▁shady	-7421
aud	-7422
mpoo	-7423
▁Care	-7424
▁lands	-7425
▁ratings	-7426
ools	-7427
▁Normally	-7428
▁ownership	-7429
▁Cont	-7430
▁bottled	-7431
▁elegant	-7432
▁CO	-7433
▁Village	-7434
ELL	-7435
▁Orange	-7436
▁gladly	-7437
▁painful	-7438
▁accompanied	-7439
▁grad	-7440
▁artists	-7441
itter	-7442
▁aest	-7443
▁mars	-7444
▁flex	-7445
▁brands	-7446
stick	-7447
ibachi	-7448
▁condes	-7449
▁solution	-7450
▁prepar	-7451
▁attending	-7452
porary	-7453
▁redeem	-7454
▁Bak	-7455
▁elevators	-7456
▁slowly	-7457
▁messages	-7458
▁status	-7459
▁witness	-7460
--------	-7461
▁breading	-7462
▁dairy	-7463
▁connect	-7464
▁staffed	-7465
▁10/10	-7466
▁wonton	-7467
illing	-7468
▁threat	-7469
▁minus	-7470
field	-7471
▁adequate	-7472
▁badly	-7473
▁pickle	-7474
▁calories	-7475
▁HIGH	-7476
▁tries	-7477
▁proud	-7478
▁arug	-7479
▁bisque	-7480
uv	-7481
▁heated	-7482
▁Brew	-7483
▁ling	-7484
!!!!!!!!	-7485
▁hun	-7486
▁Pepper	-7487
▁allergies	-7488
▁incident	-7489
▁Tip	-7490
▁develop	-7491
esteak	-7492
▁Ore	-7493
▁gig	-7494
▁spoiled	-7495
▁Franc	-7496
▁patties	-7497
▁toys	-7498
▁Inside	-7499
▁unhe	-7500
adise	-7501
▁goodies	-7502
▁Bro	-7503
lor	-7504
▁Southern	-7505
▁newer	-7506
▁Owner	-7507
▁hors	-7508
▁mein	-7509
▁shown	-7510
▁apply	-7511
1.	-7512
▁Mind	-7513
▁degree	-7514
▁extens	-7515
▁chops	-7516
atically	-7517
▁pup	-7518
▁Thankfully	-7519
▁mold	-7520
▁vintage	-7521
▁tempt	-7522
▁transport	-7523
▁whom	-7524
▁balsamic	-7525
▁underwhelming	-7526
▁Ohio	-7527
▁ppl	-7528
▁poison	-7529
▁diverse	-7530
3.	-7531
▁essentially	-7532
▁Couldn	-7533
▁screwed	-7534
ural	-7535
▁Denny	-7536
ormous	-7537
▁truth	-7538
▁upper	-7539
▁coke	-7540
▁heater	-7541
ians	-7542
▁sch	-7543
▁Miche	-7544
▁billing	-7545
uccino	-7546
▁General	-7547
uben	-7548
▁certific	-7549
year	-7550
uh	-7551
▁stops	-7552
▁unusual	-7553
ober	-7554
▁notes	-7555
▁cod	-7556
▁Mal	-7557
▁holes	-7558
cember	-7559
▁cracked	-7560
▁Duck	-7561
▁subpar	-7562
▁sampled	-7563
▁storage	-7564
▁3)	-7565
ateg	-7566
ousse	-7567
▁courtesy	-7568
END	-7569
▁utensils	-7570
▁icing	-7571
▁tipped	-7572
ba	-7573
▁macaroni	-7574
▁poached	-7575
▁Kevin	-7576
atched	-7577
0.	-7578
ares	-7579
▁motor	-7580
▁Imp	-7581
▁learning	-7582
▁Ambiance	-7583
▁tequila	-7584
▁Hawaii	-7585
▁estim	-7586
▁dropping	-7587
▁duty	-7588
▁$10.	-7589
▁condescend	-7590
▁dans	-7591
▁nose	-7592
▁dryer	-7593
▁Hill	-7594
▁Nob	-7595
▁exerc	-7596
▁conversations	-7597
▁tossed	-7598
market	-7599
acho	-7600
▁benedict	-7601
ITH	-7602
sticks	-7603
▁lively	-7604
▁curds	-7605
▁Honda	-7606
▁Gordon	-7607
▁Fat	-7608
▁sweets	-7609
▁extended	-7610
▁alter	-7611
▁study	-7612
▁10-15	-7613
▁Sn	-7614
▁Beware	-7615
▁Holy	-7616
▁Summerlin	-7617
ALLY	-7618
▁Coll	-7619
car	-7620
▁couches	-7621
▁delay	-7622
▁PA	-7623
▁chowder	-7624
gien	-7625
▁cran	-7626
achio	-7627
▁Nope	-7628
▁vendors	-7629
▁Roy	-7630
▁arugula	-7631
▁Cirque	-7632
etiz	-7633
▁Waff	-7634
▁moves	-7635
▁Noodles	-7636
▁Nick	-7637
▁unfriendly	-7638
▁instructions	-7639
▁Toy	-7640
▁GM	-7641
▁$300	-7642
▁ordinary	-7643
▁labor	-7644
hor	-7645
▁letter	-7646
▁dumb	-7647
▁fle	-7648
▁chim	-7649
▁transaction	-7650
▁FYI	-7651
▁dated	-7652
▁flaky	-7653
▁Low	-7654
▁sketch	-7655
▁decorations	-7656
▁join	-7657
▁turning	-7658
This	-7659
avig	-7660
▁respectful	-7661
▁cats	-7662
▁Night	-7663
▁pile	-7664
▁Bring	-7665
▁diam	-7666
▁laund	-7667
aid	-7668
▁LI	-7669
▁knots	-7670
around	-7671
▁restrooms	-7672
▁brick	-7673
▁explore	-7674
inct	-7675
▁Wild	-7676
ju	-7677
▁pedicures	-7678
▁ey	-7679
club	-7680
venue	-7681
▁err	-7682
▁Flavor	-7683
▁kabob	-7684
▁reviewed	-7685
cade	-7686
▁assuming	-7687
▁sor	-7688
iques	-7689
▁heavenly	-7690
▁plane	-7691
reeze	-7692
▁Bab	-7693
aching	-7694
▁rear	-7695
▁servings	-7696
▁satisfaction	-7697
▁focused	-7698
▁Bath	-7699
▁ideas	-7700
▁Mag	-7701
▁Shop	-7702
erable	-7703
▁discover	-7704
▁Aside	-7705
▁Think	-7706
cus	-7707
▁Nevada	-7708
▁wasting	-7709
▁(4	-7710
▁Ryan	-7711
ration	-7712
▁Tai	-7713
▁terribly	-7714
▁Sty	-7715
▁continues	-7716
▁worn	-7717
▁liquid	-7718
▁chocol	-7719
▁related	-7720
hips	-7721
sorry	-7722
▁containers	-7723
▁Ranch	-7724
adium	-7725
der	-7726
▁canned	-7727
yard	-7728
▁carnitas	-7729
▁term	-7730
▁sont	-7731
▁6:30	-7732
vention	-7733
▁Sundays	-7734
▁Face	-7735
mar	-7736
▁TW	-7737
▁Stop	-7738
▁superior	-7739
▁comped	-7740
▁fear	-7741
▁shampoo	-7742
▁drank	-7743
▁Tra	-7744
ivity	-7745
▁connected	-7746
▁lake	-7747
?).	-7748
▁Rid	-7749
▁lugg	-7750
▁smoky	-7751
▁Hollywood	-7752
ulf	-7753
▁catering	-7754
iber	-7755
▁cel	-7756
▁waxing	-7757
▁Cook	-7758
▁toward	-7759
▁somebody	-7760
▁jar	-7761
▁understaffed	-7762
▁PS	-7763
/201	-7764
▁cub	-7765
▁contr	-7766
nces	-7767
▁Regard	-7768
▁conv	-7769
▁attendant	-7770
▁Bou	-7771
▁clerk	-7772
▁COM	-7773
▁flights	-7774
atisfied	-7775
▁stretch	-7776
▁stories	-7777
▁December	-7778
itos	-7779
▁foodie	-7780
▁asse	-7781
▁accepted	-7782
▁Sept	-7783
orter	-7784
▁deciding	-7785
▁Simply	-7786
▁scan	-7787
▁opens	-7788
▁slot	-7789
▁convinced	-7790
▁Dist	-7791
▁spiced	-7792
.99.	-7793
rier	-7794
▁jer	-7795
inaig	-7796
▁belt	-7797
▁guard	-7798
olf	-7799
▁argue	-7800
pot	-7801
ARS	-7802
top	-7803
including	-7804
▁unnecessary	-7805
pass	-7806
▁Yelpers	-7807
mmmm	-7808
▁January	-7809
agon	-7810
▁Mexico	-7811
▁lately	-7812
chand	-7813
▁renovated	-7814
▁Cake	-7815
▁relations	-7816
▁whim	-7817
▁culinary	-7818
▁bachel	-7819
ida	-7820
▁pastor	-7821
▁stains	-7822
miss	-7823
▁Salon	-7824
heart	-7825
umble	-7826
▁hallway	-7827
▁vibes	-7828
▁lil	-7829
fit	-7830
▁appearance	-7831
▁occur	-7832
▁pretentious	-7833
▁Wife	-7834
going	-7835
▁OUT	-7836
▁yelled	-7837
▁brief	-7838
▁humor	-7839
▁houses	-7840
▁watering	-7841
▁activities	-7842
▁therefore	-7843
▁Toast	-7844
▁rap	-7845
▁artichoke	-7846
▁Whenever	-7847
▁nar	-7848
▁ricotta	-7849
▁accessories	-7850
▁salsas	-7851
rig	-7852
▁7:30	-7853
▁soap	-7854
▁Inn	-7855
▁jour	-7856
eteria	-7857
▁Mer	-7858
▁packages	-7859
▁constant	-7860
▁resolved	-7861
▁Feb	-7862
▁aged	-7863
charge	-7864
▁pastrami	-7865
▁6.	-7866
sha	-7867
gly	-7868
▁frank	-7869
▁October	-7870
▁prosciutto	-7871
▁$150	-7872
▁thread	-7873
esars	-7874
▁Arri	-7875
▁watermelon	-7876
rid	-7877
▁wasabi	-7878
▁pregnant	-7879
alls	-7880
arched	-7881
▁quarter	-7882
▁luckily	-7883
▁touched	-7884
▁swimming	-7885
▁grap	-7886
▁brows	-7887
▁discounts	-7888
umbers	-7889
▁BY	-7890
▁serviced	-7891
▁Pasta	-7892
▁navig	-7893
ums	-7894
▁determ	-7895
▁empan	-7896
▁edamame	-7897
▁Truly	-7898
▁pressed	-7899
▁performed	-7900
inaigrette	-7901
▁Pop	-7902
▁Lemon	-7903
▁physical	-7904
from	-7905
▁embarrassed	-7906
anta	-7907
▁condescending	-7908
▁Prime	-7909
athy	-7910
althy	-7911
▁shade	-7912
▁lighter	-7913
▁dom	-7914
lists	-7915
▁button	-7916
▁lasted	-7917
▁22	-7918
epend	-7919
▁cree	-7920
ollo	-7921
)...	-7922
▁scale	-7923
▁loss	-7924
▁Mush	-7925
▁label	-7926
▁Trust	-7927
▁sorts	-7928
▁Mango	-7929
▁20-	-7930
▁Enter	-7931
▁funky	-7932
▁rewards	-7933
▁layers	-7934
opolitan	-7935
▁SP	-7936
▁tools	-7937
▁balcon	-7938
NT	-7939
▁dipped	-7940
▁plumbing	-7941
▁BO	-7942
▁gather	-7943
▁Farm	-7944
iversity	-7945
▁coffees	-7946
▁sip	-7947
▁curious	-7948
▁micro	-7949
▁Anth	-7950
▁raved	-7951
▁residents	-7952
▁sport	-7953
▁Veget	-7954
!?	-7955
del	-7956
FUL	-7957
▁excl	-7958
▁WITH	-7959
▁combined	-7960
ello	-7961
▁blowing	-7962
▁FREE	-7963
chee	-7964
▁Sever	-7965
▁Music	-7966
▁latest	-7967
owner	-7968
▁Mountain	-7969
ode	-7970
every	-7971
▁grooming	-7972
▁Tasty	-7973
iped	-7974
onz	-7975
▁celebration	-7976
▁World	-7977
ERS	-7978
▁measure	-7979
▁Valent	-7980
▁remote	-7981
▁central	-7982
▁Diego	-7983
▁array	-7984
▁commer	-7985
▁pillows	-7986
▁Pre	-7987
▁Tower	-7988
▁BLT	-7989
jo	-7990
▁island	-7991
▁fund	-7992
org	-7993
season	-7994
▁Whole	-7995
▁greatly	-7996
▁junk	-7997
▁cav	-7998
▁Ham	-7999
▁units	-8000
▁married	-8001
▁Guys	-8002
▁gloves	-8003
▁electric	-8004
▁shipping	-8005
▁disaster	-8006
▁Coc	-8007
table	-8008
avings	-8009
▁resident	-8010
▁timing	-8011
▁Brunch	-8012
▁merchand	-8013
▁Rich	-8014
zels	-8015
▁distract	-8016
edium	-8017
▁Brazilian	-8018
▁ARE	-8019
▁incompetent	-8020
▁reserve	-8021
▁Da	-8022
▁Po	-8023
▁lesson	-8024
oza	-8025
amingo	-8026
FC	-8027
▁memory	-8028
▁Complete	-8029
somet	-8030
oust	-8031
▁freak	-8032
▁seven	-8033
▁washing	-8034
▁wooden	-8035
din	-8036
▁invited	-8037
▁brews	-8038
▁toler	-8039
away	-8040
▁soaked	-8041
▁Additionally	-8042
▁hrs	-8043
▁luggage	-8044
your	-8045
▁luxury	-8046
▁painting	-8047
▁Honey	-8048
▁sloppy	-8049
quis	-8050
▁copy	-8051
▁accessible	-8052
▁Whatever	-8053
▁Incred	-8054
▁Looks	-8055
urious	-8056
▁Planet	-8057
▁Foods	-8058
▁singing	-8059
▁gifts	-8060
ads	-8061
▁Ta	-8062
otch	-8063
▁Dam	-8064
▁tartare	-8065
▁franchise	-8066
roy	-8067
acity	-8068
▁reputation	-8069
▁muffins	-8070
▁tout	-8071
▁Has	-8072
cture	-8073
ANK	-8074
chat	-8075
▁Kids	-8076
▁fortun	-8077
▁pitcher	-8078
▁grade	-8079
.......	-8080
▁chir	-8081
▁bones	-8082
▁Japan	-8083
▁camera	-8084
ulate	-8085
▁rides	-8086
▁Based	-8087
andy	-8088
▁endless	-8089
▁Robert	-8090
▁kindly	-8091
▁Nove	-8092
amps	-8093
▁Taste	-8094
▁Burrito	-8095
TW	-8096
▁guessing	-8097
▁italian	-8098
uk	-8099
xtail	-8100
person	-8101
service	-8102
▁masala	-8103
▁pastas	-8104
▁cri	-8105
▁9:30	-8106
▁paste	-8107
▁trick	-8108
▁exit	-8109
▁sen	-8110
▁Subway	-8111
▁sheets	-8112
▁karaoke	-8113
bab	-8114
chicken	-8115
▁24/	-8116
▁ast	-8117
▁Nutella	-8118
++	-8119
▁surely	-8120
▁Josh	-8121
▁mirror	-8122
▁Going	-8123
▁meaty	-8124
ulent	-8125
▁5:30	-8126
▁Lisa	-8127
▁fif	-8128
▁holidays	-8129
▁Ashley	-8130
▁extraord	-8131
▁runny	-8132
cted	-8133
▁losing	-8134
▁barista	-8135
▁Station	-8136
▁celebrating	-8137
▁moder	-8138
▁ship	-8139
lyn	-8140
thru	-8141
▁Law	-8142
▁addressed	-8143
▁Simple	-8144
▁edges	-8145
▁Typ	-8146
▁TIM	-8147
▁Rio	-8148
▁Jenn	-8149
▁preparation	-8150
▁decad	-8151
▁overpowering	-8152
▁housekeeping	-8153
itty	-8154
▁approximately	-8155
▁highest	-8156
▁Pick	-8157
lig	-8158
▁cann	-8159
▁remain	-8160
▁mixture	-8161
▁Di	-8162
▁soo	-8163
▁uneven	-8164
▁ingredient	-8165
gee	-8166
▁becoming	-8167
▁disappoints	-8168
▁acts	-8169
▁applic	-8170
uan	-8171
▁unp	-8172
▁vous	-8173
▁Cheap	-8174
▁shelf	-8175
▁hygien	-8176
▁hundreds	-8177
▁som	-8178
▁8:30	-8179
eat	-8180
▁driven	-8181
▁featured	-8182
▁prix	-8183
▁75	-8184
loaf	-8185
irsty	-8186
▁WHAT	-8187
▁pee	-8188
▁Haven	-8189
check	-8190
▁culture	-8191
▁mountain	-8192
did	-8193
mopolitan	-8194
▁disappeared	-8195
80	-8196
mun	-8197
▁Pay	-8198
▁libr	-8199
▁10:30	-8200
ilton	-8201
▁allergy	-8202
▁trave	-8203
▁refrigerator	-8204
▁warn	-8205
▁Several	-8206
▁dedicated	-8207
▁katsu	-8208
▁marked	-8209
▁fold	-8210
▁spaces	-8211
▁diamond	-8212
▁cashiers	-8213
▁Full	-8214
▁pulling	-8215
ferent	-8216
▁rubbery	-8217
▁wonderfully	-8218
ember	-8219
▁interaction	-8220
▁shall	-8221
▁fishy	-8222
▁irritated	-8223
▁mocha	-8224
▁George	-8225
▁$5.	-8226
▁taxes	-8227
▁lying	-8228
▁catfish	-8229
▁hood	-8230
▁girlfriends	-8231
▁Unless	-8232
▁responsibility	-8233
▁lukewarm	-8234
▁beet	-8235
▁contem	-8236
▁priority	-8237
▁bananas	-8238
▁HIGHLY	-8239
Oh	-8240
▁Nails	-8241
▁cafeteria	-8242
▁definite	-8243
▁opposed	-8244
▁necessarily	-8245
▁WA	-8246
▁handling	-8247
▁carpets	-8248
▁amongst	-8249
bal	-8250
▁Employ	-8251
▁Consider	-8252
▁gran	-8253
▁matters	-8254
▁vinaigrette	-8255
▁sin	-8256
▁bien	-8257
▁concl	-8258
▁laptop	-8259
▁HOT	-8260
▁CR	-8261
▁teachers	-8262
▁Personally	-8263
▁sells	-8264
▁sensitive	-8265
▁inconsistent	-8266
vd	-8267
▁Guy	-8268
cas	-8269
▁Wasn	-8270
▁Origin	-8271
anche	-8272
▁challenging	-8273
▁facing	-8274
udge	-8275
▁palate	-8276
▁15-20	-8277
gher	-8278
▁chai	-8279
▁taro	-8280
▁carefully	-8281
▁bucket	-8282
▁sky	-8283
▁kicked	-8284
▁Filipino	-8285
een	-8286
▁ens	-8287
gen	-8288
quet	-8289
▁pushing	-8290
▁lun	-8291
▁rud	-8292
itation	-8293
▁$500	-8294
oche	-8295
▁Dom	-8296
▁exceptionally	-8297
mean	-8298
▁cutic	-8299
▁electron	-8300
▁ou	-8301
▁merchandise	-8302
▁representative	-8303
▁conditioning	-8304
▁chal	-8305
▁upbeat	-8306
dal	-8307
▁drain	-8308
▁eight	-8309
▁occasionally	-8310
core	-8311
▁Thanksgiving	-8312
▁tourists	-8313
▁insult	-8314
▁medication	-8315
▁Carne	-8316
▁admitted	-8317
oul	-8318
host	-8319
▁grub	-8320
▁trop	-8321
attle	-8322
▁disrespectful	-8323
▁danger	-8324
clectic	-8325
▁beach	-8326
▁venture	-8327
▁mousse	-8328
▁apples	-8329
▁occupied	-8330
ilarious	-8331
▁Used	-8332
lers	-8333
▁iPhone	-8334
perience	-8335
▁ahi	-8336
▁reviewer	-8337
▁stunning	-8338
▁Intern	-8339
▁sooooo	-8340
▁accompany	-8341
ounds	-8342
▁proof	-8343
▁Mis	-8344
▁raise	-8345
▁Anthony	-8346
▁confirmation	-8347
▁Kat	-8348
▁newly	-8349
-10	-8350
▁ta	-8351
▁Servers	-8352
▁Ur	-8353
▁intim	-8354
***	-8355
abor	-8356
▁narrow	-8357
▁Olive	-8358
urous	-8359
▁herbs	-8360
▁ruin	-8361
cal	-8362
▁blended	-8363
▁battered	-8364
▁corrected	-8365
IGHT	-8366
inoa	-8367
kn	-8368
▁Pap	-8369
▁whiskey	-8370
▁poisoning	-8371
▁Husband	-8372
▁Goo	-8373
▁healthier	-8374
owned	-8375
▁unc	-8376
▁Vegan	-8377
▁repeatedly	-8378
▁Started	-8379
▁11:30	-8380
▁Saw	-8381
lette	-8382
▁records	-8383
hour	-8384
▁Cheesecake	-8385
▁si	-8386
▁Post	-8387
ifferent	-8388
▁Dad	-8389
▁brakes	-8390
▁subway	-8391
▁gratuity	-8392
has	-8393
▁hike	-8394
umpt	-8395
▁printed	-8396
issa	-8397
▁breaking	-8398
▁strict	-8399
▁consultation	-8400
▁position	-8401
▁campus	-8402
▁Ant	-8403
▁Disc	-8404
▁twenty	-8405
▁scary	-8406
▁squeezed	-8407
▁Mi	-8408
▁WTF	-8409
▁combos	-8410
▁operation	-8411
▁babies	-8412
ockey	-8413
▁Michelle	-8414
▁mor	-8415
▁Visited	-8416
▁substitute	-8417
utions	-8418
▁succ	-8419
riptions	-8420
▁visitors	-8421
▁removal	-8422
▁BIG	-8423
▁hitting	-8424
ibut	-8425
▁Regardless	-8426
▁boutique	-8427
▁ears	-8428
▁Find	-8429
cheese	-8430
▁accidentally	-8431
▁alley	-8432
▁TA	-8433
▁movers	-8434
▁Without	-8435
▁Unlike	-8436
▁Solid	-8437
▁hangout	-8438
▁bands	-8439
▁laser	-8440
utes	-8441
▁spe	-8442
haust	-8443
▁Oy	-8444
▁Factory	-8445
aught	-8446
▁wipe	-8447
fty	-8448
▁lent	-8449
▁Walking	-8450
▁Omg	-8451
▁smoothly	-8452
▁outrageous	-8453
▁Enjoyed	-8454
▁balcony	-8455
▁lacks	-8456
▁died	-8457
▁bare	-8458
chy	-8459
ray	-8460
▁sheet	-8461
▁caramelized	-8462
▁CL	-8463
▁bikes	-8464
▁splur	-8465
gie	-8466
▁generic	-8467
▁Target	-8468
▁technicians	-8469
▁Coming	-8470
▁deck	-8471
▁boat	-8472
▁Whether	-8473
▁gamble	-8474
▁dense	-8475
▁Rem	-8476
▁inspired	-8477
▁cy	-8478
?!?!	-8479
▁dying	-8480
▁fountains	-8481
▁resist	-8482
▁grounds	-8483
▁Sy	-8484
▁RO	-8485
uzz	-8486
▁flower	-8487
▁panini	-8488
▁Fry	-8489
▁thinks	-8490
▁squeeze	-8491
▁sons	-8492
▁Sea	-8493
▁ATM	-8494
▁Facebook	-8495
oro	-8496
▁DE	-8497
▁gf	-8498
olk	-8499
usive	-8500
raction	-8501
rial	-8502
▁Sch	-8503
▁Den	-8504
▁arcade	-8505
▁stylists	-8506
▁Ken	-8507
▁Table	-8508
▁causing	-8509
▁dispens	-8510
▁$$$	-8511
▁SUPER	-8512
▁tack	-8513
▁desire	-8514
▁Eastern	-8515
▁trimm	-8516
▁trucks	-8517
etime	-8518
▁oun	-8519
▁subtle	-8520
▁claims	-8521
▁Cre	-8522
▁signing	-8523
ixed	-8524
▁2016	-8525
▁applied	-8526
▁freezer	-8527
▁breeze	-8528
▁nature	-8529
▁content	-8530
bec	-8531
▁jeans	-8532
opract	-8533
▁Caesars	-8534
▁significant	-8535
azzo	-8536
▁Sky	-8537
▁Sil	-8538
▁AF	-8539
▁Point	-8540
ores	-8541
▁mains	-8542
▁Under	-8543
▁bento	-8544
▁rum	-8545
▁regist	-8546
▁Meh	-8547
▁hibachi	-8548
▁settle	-8549
roit	-8550
▁military	-8551
▁lip	-8552
workers	-8553
▁bored	-8554
▁filter	-8555
▁30-	-8556
▁Quite	-8557
▁chances	-8558
▁ware	-8559
▁integr	-8560
▁supposedly	-8561
▁Cash	-8562
▁raving	-8563
▁net	-8564
lessly	-8565
▁death	-8566
▁beats	-8567
▁rac	-8568
mbre	-8569
▁resolve	-8570
▁Sign	-8571
▁outdated	-8572
rick	-8573
▁State	-8574
▁sketchy	-8575
rese	-8576
▁reschedule	-8577
▁excuses	-8578
▁stack	-8579
▁grace	-8580
▁outlets	-8581
▁MAN	-8582
tes	-8583
▁Mass	-8584
▁$19	-8585
▁obno	-8586
▁Review	-8587
▁purple	-8588
▁finance	-8589
▁decently	-8590
▁fitting	-8591
▁Yet	-8592
▁Cam	-8593
neath	-8594
▁Toyota	-8595
▁November	-8596
▁cast	-8597
▁groceries	-8598
▁flash	-8599
▁delicate	-8600
▁scar	-8601
▁bargain	-8602
▁dinning	-8603
▁SC	-8604
▁Milk	-8605
▁exhaust	-8606
▁placing	-8607
ASE	-8608
eps	-8609
▁eclectic	-8610
▁replacing	-8611
▁cravings	-8612
▁Bistro	-8613
ECT	-8614
comes	-8615
▁attractive	-8616
▁BM	-8617
▁MO	-8618
▁Ric	-8619
▁Rude	-8620
▁encourage	-8621
▁wond	-8622
▁skillet	-8623
ignment	-8624
▁Onion	-8625
▁passionate	-8626
▁ine	-8627
▁chem	-8628
▁citrus	-8629
▁gooey	-8630
▁Bud	-8631
berg	-8632
▁delect	-8633
▁meth	-8634
PS	-8635
▁dumpling	-8636
▁cappuccino	-8637
ffe	-8638
▁Nat	-8639
▁husbands	-8640
▁discounted	-8641
riott	-8642
▁expectation	-8643
▁closes	-8644
▁cheesesteak	-8645
▁extreme	-8646
ja	-8647
asses	-8648
▁viol	-8649
▁valid	-8650
▁CON	-8651
▁remark	-8652
ena	-8653
DATE	-8654
yani	-8655
▁Ent	-8656
▁eatery	-8657
▁Granted	-8658
ez	-8659
▁hookah	-8660
▁honesty	-8661
▁Outstanding	-8662
▁vast	-8663
umper	-8664
▁accommodated	-8665
▁grain	-8666
▁Fortun	-8667
▁Within	-8668
▁Ford	-8669
▁backyard	-8670
▁Poke	-8671
▁spic	-8672
▁slide	-8673
▁OH	-8674
itors	-8675
▁pricier	-8676
ongol	-8677
lly	-8678
rays	-8679
lder	-8680
▁Fashion	-8681
▁inspect	-8682
aka	-8683
▁sausages	-8684
▁sits	-8685
too	-8686
▁amounts	-8687
▁critic	-8688
▁BS	-8689
▁2015	-8690
▁sodas	-8691
▁appetizing	-8692
ief	-8693
▁capt	-8694
▁categ	-8695
▁Fre	-8696
▁aggressive	-8697
▁ber	-8698
▁calz	-8699
▁(5	-8700
▁companion	-8701
▁Kudos	-8702
▁covers	-8703
▁Pool	-8704
▁Things	-8705
andaise	-8706
▁Chile	-8707
▁deserts	-8708
▁ending	-8709
▁Depot	-8710
▁supply	-8711
utch	-8712
▁particip	-8713
asing	-8714
▁bear	-8715
▁rushing	-8716
▁miserable	-8717
▁toddler	-8718
▁holl	-8719
▁supporting	-8720
▁Tomato	-8721
▁pretzels	-8722
▁breaks	-8723
▁knocked	-8724
▁queen	-8725
▁hilarious	-8726
aco	-8727
lava	-8728
put	-8729
▁frankly	-8730
▁underneath	-8731
ummed	-8732
▁smokey	-8733
▁EVERYTHING	-8734
▁Ate	-8735
▁Tam	-8736
▁Panc	-8737
▁Brown	-8738
▁themed	-8739
pedi	-8740
▁Rain	-8741
uxe	-8742
▁organization	-8743
▁arrives	-8744
▁2017	-8745
osen	-8746
aneer	-8747
▁frames	-8748
▁Coke	-8749
▁laundry	-8750
▁shaped	-8751
yelp	-8752
▁executed	-8753
▁resc	-8754
▁gracious	-8755
▁statement	-8756
aux	-8757
▁Sin	-8758
▁carts	-8759
icelli	-8760
▁decadent	-8761
▁automatically	-8762
▁Bun	-8763
llo	-8764
▁frites	-8765
▁suspect	-8766
▁tit	-8767
ologist	-8768
▁adventurous	-8769
agger	-8770
▁rotation	-8771
▁!!!!	-8772
▁pistachio	-8773
▁Sar	-8774
▁moj	-8775
▁Trad	-8776
▁admission	-8777
anes	-8778
▁stadium	-8779
▁Turkey	-8780
▁Drive	-8781
▁Appetiz	-8782
▁McDonalds	-8783
about	-8784
▁practices	-8785
▁Cold	-8786
▁communicate	-8787
▁Box	-8788
▁Mars	-8789
▁district	-8790
▁inches	-8791
▁exhibit	-8792
▁marks	-8793
isse	-8794
▁sunny	-8795
▁adventure	-8796
▁responsible	-8797
▁Event	-8798
had	-8799
▁4-5	-8800
▁engaging	-8801
▁deliciousness	-8802
ribut	-8803
▁confidence	-8804
▁GF	-8805
▁dil	-8806
clean	-8807
▁avo	-8808
ongolian	-8809
▁inventory	-8810
▁Yog	-8811
▁melts	-8812
▁Louis	-8813
▁arms	-8814
ati	-8815
▁Nic	-8816
▁2018	-8817
▁Bag	-8818
▁harder	-8819
▁croissants	-8820
▁Wend	-8821
▁successful	-8822
rian	-8823
▁competent	-8824
igner	-8825
▁force	-8826
▁Champ	-8827
▁lame	-8828
▁bulgogi	-8829
DER	-8830
rence	-8831
▁bagu	-8832
▁gentlemen	-8833
-2	-8834
▁scrub	-8835
▁encounter	-8836
via	-8837
▁WiFi	-8838
▁commented	-8839
▁charred	-8840
▁assigned	-8841
▁Eve	-8842
ifer	-8843
▁kios	-8844
▁spell	-8845
ulting	-8846
▁cases	-8847
▁advertising	-8848
▁shelves	-8849
▁protect	-8850
▁Cuban	-8851
▁$45	-8852
▁gear	-8853
▁stressful	-8854
▁Jes	-8855
appro	-8856
rawberry	-8857
oun	-8858
▁Doctor	-8859
▁leaking	-8860
▁surrounded	-8861
▁acrylic	-8862
▁Hash	-8863
▁veter	-8864
▁Barb	-8865
▁prop	-8866
▁route	-8867
▁library	-8868
▁advertise	-8869
eaking	-8870
▁Hey	-8871
▁bug	-8872
▁rule	-8873
▁nonetheless	-8874
▁enthusiastic	-8875
▁Favor	-8876
▁renew	-8877
cuts	-8878
▁ple	-8879
point	-8880
▁Def	-8881
▁ER	-8882
ulty	-8883
▁peanuts	-8884
▁washer	-8885
▁meas	-8886
▁processed	-8887
▁hide	-8888
umpy	-8889
▁fits	-8890
▁purchases	-8891
▁Shan	-8892
eding	-8893
▁ded	-8894
▁patiently	-8895
▁Jam	-8896
tense	-8897
iantly	-8898
▁mash	-8899
agues	-8900
▁log	-8901
▁abund	-8902
▁puppies	-8903
worthy	-8904
dough	-8905
▁professionals	-8906
▁delectable	-8907
stone	-8908
umptious	-8909
apoint	-8910
▁MU	-8911
▁dancers	-8912
▁river	-8913
▁reality	-8914
▁PER	-8915
▁intense	-8916
ICK	-8917
▁foam	-8918
▁aesthetic	-8919
▁SL	-8920
▁sessions	-8921
▁ly	-8922
▁Watch	-8923
▁fulf	-8924
▁boneless	-8925
-8	-8926
atter	-8927
▁outlet	-8928
▁swing	-8929
▁staring	-8930
▁leaf	-8931
▁intended	-8932
▁magn	-8933
oms	-8934
▁closet	-8935
▁Gar	-8936
▁backed	-8937
▁September	-8938
albi	-8939
▁whoever	-8940
attes	-8941
▁sexy	-8942
▁Yonge	-8943
▁appeal	-8944
▁target	-8945
▁BF	-8946
▁picnic	-8947
▁PLE	-8948
owed	-8949
▁ain	-8950
▁Hospit	-8951
▁disgusted	-8952
▁Jessica	-8953
osis	-8954
▁booze	-8955
▁players	-8956
uis	-8957
▁Smith	-8958
▁bib	-8959
bean	-8960
▁rustic	-8961
▁sorbet	-8962
▁Lind	-8963
▁associates	-8964
▁brain	-8965
▁perman	-8966
▁manger	-8967
ris	-8968
cles	-8969
phone	-8970
▁Mor	-8971
▁YES	-8972
▁soak	-8973
▁doughnuts	-8974
▁bourbon	-8975
▁barbers	-8976
▁Jer	-8977
mony	-8978
▁Fab	-8979
▁silly	-8980
leep	-8981
▁lin	-8982
▁Vict	-8983
anged	-8984
asmine	-8985
▁passes	-8986
▁korean	-8987
ierge	-8988
▁speaks	-8989
▁properties	-8990
▁teacher	-8991
▁Ugh	-8992
▁Front	-8993
▁delivers	-8994
▁prin	-8995
▁whose	-8996
▁false	-8997
▁sleeping	-8998
▁alcoholic	-8999
▁Jimmy	-9000
▁sharp	-9001
▁mimosa	-9002
▁trio	-9003
▁ped	-9004
▁Kelly	-9005
▁understandable	-9006
▁3/5	-9007
▁Pin	-9008
acha	-9009
▁cheerful	-9010
▁painless	-9011
▁bummer	-9012
▁therapy	-9013
▁quotes	-9014
▁THANK	-9015
▁relief	-9016
▁seeds	-9017
▁Unt	-9018
▁amer	-9019
▁Asada	-9020
onut	-9021
▁Wouldn	-9022
▁$80	-9023
▁justify	-9024
licious	-9025
usage	-9026
really	-9027
think	-9028
▁Angeles	-9029
walk	-9030
My	-9031
eresting	-9032
▁moments	-9033
▁complimented	-9034
▁MA	-9035
ioca	-9036
▁pear	-9037
▁meatloaf	-9038
▁STAY	-9039
hr	-9040
,,	-9041
▁Ribs	-9042
▁fuss	-9043
▁sections	-9044
▁interrupt	-9045
▁basement	-9046
▁NC	-9047
▁WE	-9048
▁fills	-9049
HING	-9050
▁rolling	-9051
▁ASAP	-9052
▁Hills	-9053
▁roti	-9054
geon	-9055
▁hated	-9056
▁mobile	-9057
▁Markham	-9058
▁Turns	-9059
wait	-9060
▁Rolls	-9061
▁thousands	-9062
▁Dro	-9063
▁disorganized	-9064
mil	-9065
▁colorful	-9066
▁Less	-9067
▁symp	-9068
▁intimid	-9069
▁bottomless	-9070
▁nurses	-9071
▁convention	-9072
zo	-9073
▁directed	-9074
▁overhe	-9075
▁Nor	-9076
orney	-9077
▁Carolina	-9078
▁Stayed	-9079
▁Living	-9080
▁surv	-9081
oses	-9082
▁oat	-9083
▁Company	-9084
▁extensions	-9085
uffed	-9086
adish	-9087
den	-9088
uming	-9089
▁prec	-9090
isingly	-9091
▁macarons	-9092
▁thicker	-9093
▁AWAY	-9094
▁Central	-9095
▁Between	-9096
▁Ram	-9097
itz	-9098
▁taxi	-9099
EG	-9100
kka	-9101
▁denied	-9102
OULD	-9103
▁Rd	-9104
▁headache	-9105
▁desperate	-9106
▁displayed	-9107
▁DID	-9108
▁directions	-9109
▁refunded	-9110
▁BU	-9111
▁Know	-9112
▁Alfredo	-9113
ido	-9114
▁allergic	-9115
▁insanely	-9116
▁voicemail	-9117
▁nugg	-9118
▁increase	-9119
▁delayed	-9120
▁trusted	-9121
chata	-9122
oston	-9123
▁Authentic	-9124
▁customize	-9125
▁gin	-9126
hole	-9127
▁10.	-9128
mitted	-9129
▁Ah	-9130
▁nous	-9131
▁skilled	-9132
▁thoughtful	-9133
ji	-9134
rete	-9135
iances	-9136
yy	-9137
▁discussed	-9138
▁Cheers	-9139
▁certificate	-9140
▁il	-9141
▁airy	-9142
▁varied	-9143
▁European	-9144
▁vision	-9145
omas	-9146
▁Birthday	-9147
▁Style	-9148
▁Drink	-9149
▁renting	-9150
azon	-9151
▁Stephan	-9152
▁terminal	-9153
▁vary	-9154
▁falls	-9155
▁crying	-9156
▁Monte	-9157
▁dece	-9158
▁gyros	-9159
▁socks	-9160
▁Bakery	-9161
▁Bought	-9162
▁Hilton	-9163
▁flexible	-9164
▁Ron	-9165
▁halfway	-9166
beit	-9167
▁Fortunately	-9168
▁torn	-9169
▁Cosmopolitan	-9170
▁enormous	-9171
▁Told	-9172
▁Id	-9173
"...	-9174
pa	-9175
ensed	-9176
▁Considering	-9177
ERO	-9178
▁tests	-9179
▁pico	-9180
▁talent	-9181
▁roo	-9182
▁Stand	-9183
▁cott	-9184
elcome	-9185
▁Soooo	-9186
▁coord	-9187
gging	-9188
▁hunt	-9189
▁aqu	-9190
manager	-9191
ongr	-9192
▁flor	-9193
hmall	-9194
▁immediate	-9195
▁ach	-9196
▁cigarette	-9197
▁verm	-9198
▁Calamari	-9199
▁uni	-9200
▁locker	-9201
▁hust	-9202
▁creep	-9203
▁frustration	-9204
▁joined	-9205
▁sofa	-9206
▁purse	-9207
▁BR	-9208
▁Mas	-9209
▁woke	-9210
uments	-9211
▁Flamingo	-9212
▁videos	-9213
▁annual	-9214
▁oriented	-9215
▁deter	-9216
▁hotdog	-9217
▁professionally	-9218
▁TIME	-9219
▁gradu	-9220
▁IF	-9221
▁DIS	-9222
▁colored	-9223
▁bummed	-9224
▁fashioned	-9225
ario	-9226
▁bird	-9227
eper	-9228
ALL	-9229
▁race	-9230
▁vo	-9231
▁promotion	-9232
▁etait	-9233
lback	-9234
▁$1.	-9235
▁bay	-9236
▁lackl	-9237
▁heavily	-9238
▁bench	-9239
▁Margarita	-9240
▁wave	-9241
▁distinct	-9242
▁Read	-9243
▁Luc	-9244
▁regards	-9245
▁ultimately	-9246
▁hr	-9247
▁Classic	-9248
mans	-9249
▁Double	-9250
wed	-9251
▁HH	-9252
▁99	-9253
ruary	-9254
▁Ray	-9255
▁homey	-9256
▁Cup	-9257
▁method	-9258
▁allowing	-9259
▁lift	-9260
▁BTW	-9261
▁#2	-9262
▁Far	-9263
than	-9264
▁Acc	-9265
▁Talk	-9266
▁skinny	-9267
▁tremend	-9268
▁Tre	-9269
anyon	-9270
▁scrumptious	-9271
▁rect	-9272
▁creating	-9273
try	-9274
mal	-9275
▁Given	-9276
▁Francisco	-9277
▁poker	-9278
▁passen	-9279
▁shorter	-9280
▁Wood	-9281
hens	-9282
▁infused	-9283
orette	-9284
▁Until	-9285
▁Disappointed	-9286
▁remodeled	-9287
▁Dim	-9288
▁COMP	-9289
▁tele	-9290
-7	-9291
▁presence	-9292
▁Instagram	-9293
35	-9294
▁Fitness	-9295
▁hostesses	-9296
▁Wendy	-9297
▁EXCE	-9298
▁clock	-9299
▁factory	-9300
▁obnoxious	-9301
▁Filet	-9302
▁tenants	-9303
▁CLE	-9304
▁Expect	-9305
bag	-9306
▁upfront	-9307
▁mornings	-9308
▁DR	-9309
▁baseball	-9310
▁***	-9311
▁extraordinary	-9312
▁slots	-9313
▁Employees	-9314
▁comforting	-9315
hhh	-9316
cuterie	-9317
prise	-9318
▁ugly	-9319
▁quinoa	-9320
▁NOTHING	-9321
▁kindness	-9322
▁groomer	-9323
▁Canyon	-9324
▁Third	-9325
▁MUCH	-9326
▁dime	-9327
▁tost	-9328
▁Non	-9329
worker	-9330
enses	-9331
▁glazed	-9332
____	-9333
▁sirloin	-9334
▁vari	-9335
▁pecan	-9336
▁GET	-9337
▁jokes	-9338
▁ive	-9339
▁puree	-9340
rical	-9341
▁Jon	-9342
charged	-9343
wall	-9344
▁Max	-9345
GH	-9346
▁maintain	-9347
▁arro	-9348
▁media	-9349
▁hockey	-9350
▁Earl	-9351
▁application	-9352
▁filed	-9353
▁Brought	-9354
▁reviewing	-9355
▁fillings	-9356
▁mand	-9357
▁significantly	-9358
▁dread	-9359
▁berry	-9360
bre	-9361
▁cere	-9362
ilings	-9363
▁uber	-9364
▁boarding	-9365
▁Slow	-9366
▁treating	-9367
▁2014	-9368
▁Beach	-9369
▁slush	-9370
store	-9371
ori	-9372
▁acting	-9373
▁independ	-9374
▁industrial	-9375
▁thri	-9376
▁suits	-9377
▁jumped	-9378
olis	-9379
▁remaining	-9380
ulled	-9381
▁Shame	-9382
▁plays	-9383
best	-9384
▁restric	-9385
issue	-9386
▁lem	-9387
▁tartar	-9388
omy	-9389
olen	-9390
▁injury	-9391
▁novel	-9392
auga	-9393
▁slim	-9394
00.	-9395
ellow	-9396
▁cider	-9397
▁sticking	-9398
▁lane	-9399
▁resto	-9400
renched	-9401
▁smothered	-9402
▁Clearly	-9403
In	-9404
▁anx	-9405
▁glaze	-9406
ification	-9407
▁navigate	-9408
WARE	-9409
▁separately	-9410
▁Google	-9411
▁visible	-9412
arse	-9413
both	-9414
▁Jennifer	-9415
▁Mod	-9416
▁preparing	-9417
▁UPDATE	-9418
▁shitty	-9419
▁web	-9420
▁reass	-9421
avo	-9422
▁SA	-9423
▁Mississ	-9424
▁mes	-9425
▁cord	-9426
▁overs	-9427
▁efficiently	-9428
▁February	-9429
▁motiv	-9430
▁chemical	-9431
eradish	-9432
▁complicated	-9433
hetto	-9434
▁grey	-9435
▁Phil	-9436
▁confusion	-9437
▁depends	-9438
atient	-9439
▁SW	-9440
seasoned	-9441
fo	-9442
overy	-9443
SE	-9444
▁pairing	-9445
▁Hut	-9446
▁SM	-9447
▁assisted	-9448
andoor	-9449
▁ZERO	-9450
▁District	-9451
▁ceilings	-9452
ousy	-9453
▁$75	-9454
kers	-9455
▁skipped	-9456
▁Gave	-9457
oto	-9458
▁milkshakes	-9459
▁spoken	-9460
▁peaceful	-9461
▁relationship	-9462
teen	-9463
▁elder	-9464
▁activity	-9465
gage	-9466
▁btw	-9467
▁marrow	-9468
▁crown	-9469
▁procedures	-9470
▁thankfully	-9471
mother	-9472
▁warmer	-9473
meat	-9474
▁Yesterday	-9475
▁magaz	-9476
▁chosen	-9477
▁reward	-9478
▁Amy	-9479
▁grabbing	-9480
also	-9481
.50.	-9482
▁Down	-9483
▁addict	-9484
▁comedy	-9485
▁trainer	-9486
bie	-9487
▁wontons	-9488
rain	-9489
▁Oak	-9490
lines	-9491
▁cole	-9492
▁recipes	-9493
▁Ins	-9494
▁trek	-9495
▁Blvd	-9496
▁Host	-9497
▁maker	-9498
door	-9499
▁Justin	-9500
uled	-9501
▁drunken	-9502
▁Gel	-9503
ELP	-9504
▁born	-9505
ufact	-9506
non	-9507
▁devoured	-9508
▁legal	-9509
▁oxtail	-9510
▁Brussels	-9511
arts	-9512
▁triple	-9513
▁$2.	-9514
accio	-9515
▁Getting	-9516
oned	-9517
rob	-9518
restaurant	-9519
▁overnight	-9520
▁adop	-9521
▁unimp	-9522
▁gripe	-9523
▁$20.	-9524
▁fucking	-9525
▁burning	-9526
▁beforehand	-9527
▁arch	-9528
▁jazz	-9529
▁pred	-9530
▁border	-9531
▁arrangement	-9532
▁TER	-9533
▁Trop	-9534
▁tends	-9535
▁exquis	-9536
▁jacket	-9537
▁demean	-9538
▁Rooms	-9539
▁vegetarians	-9540
▁clar	-9541
▁Carn	-9542
▁CAN	-9543
cake	-9544
▁guaranteed	-9545
▁approved	-9546
ynam	-9547
▁24/7	-9548
▁primary	-9549
ga	-9550
▁Ly	-9551
▁Makes	-9552
▁Dental	-9553
▁Daniel	-9554
▁Jen	-9555
▁batch	-9556
milk	-9557
▁susp	-9558
▁Boston	-9559
▁idiot	-9560
▁Cock	-9561
inal	-9562
▁War	-9563
▁Bobby	-9564
▁attitudes	-9565
again	-9566
▁lap	-9567
▁jap	-9568
ilty	-9569
▁designs	-9570
▁Salt	-9571
▁streets	-9572
ault	-9573
▁mochi	-9574
▁utter	-9575
eck	-9576
▁Anyone	-9577
If	-9578
▁Cali	-9579
WH	-9580
▁witnessed	-9581
atz	-9582
▁hers	-9583
▁gest	-9584
▁naturally	-9585
...)	-9586
▁Might	-9587
▁lattes	-9588
▁Arrived	-9589
▁Ra	-9590
▁spotless	-9591
▁questioned	-9592
▁fruity	-9593
▁rail	-9594
▁lifetime	-9595
▁munch	-9596
▁nerve	-9597
▁Brook	-9598
uu	-9599
▁chatted	-9600
▁eyel	-9601
▁shrimps	-9602
▁Pink	-9603
▁Southwest	-9604
▁Mongolian	-9605
▁eaters	-9606
▁Run	-9607
▁Portion	-9608
▁Pur	-9609
▁Mem	-9610
▁planet	-9611
▁hence	-9612
▁airline	-9613
▁provider	-9614
▁sew	-9615
▁homes	-9616
▁hesitation	-9617
▁explains	-9618
ront	-9619
▁colleagues	-9620
▁Lucky	-9621
▁tears	-9622
/4	-9623
home	-9624
▁integrity	-9625
▁Ale	-9626
▁MS	-9627
life	-9628
▁signage	-9629
▁deserved	-9630
▁spiciness	-9631
▁cucumbers	-9632
▁BMW	-9633
UDE	-9634
iform	-9635
▁quit	-9636
▁Pita	-9637
▁acid	-9638
..."	-9639
hara	-9640
▁zoo	-9641
bas	-9642
▁carried	-9643
rendous	-9644
▁vap	-9645
van	-9646
▁EXT	-9647
▁Brit	-9648
▁holds	-9649
biz	-9650
▁PB	-9651
▁zone	-9652
mark	-9653
▁pleasing	-9654
▁cable	-9655
▁flies	-9656
▁recognize	-9657
▁empanadas	-9658
▁Luxor	-9659
ights	-9660
▁killed	-9661
▁props	-9662
▁Donuts	-9663
emed	-9664
▁Haha	-9665
▁Lef	-9666
isserie	-9667
▁Live	-9668
▁Creek	-9669
▁Palazzo	-9670
▁Kobe	-9671
▁flip	-9672
▁offices	-9673
▁Stud	-9674
▁mm	-9675
▁grandma	-9676
▁crawfish	-9677
▁wiped	-9678
gherita	-9679
▁yelpers	-9680
uds	-9681
▁marshmall	-9682
asting	-9683
▁Stephanie	-9684
▁Later	-9685
▁Spin	-9686
▁sundae	-9687
▁notified	-9688
EVER	-9689
▁Rom	-9690
▁chocolates	-9691
based	-9692
looked	-9693
▁Strawberry	-9694
▁Hospital	-9695
arium	-9696
▁commit	-9697
▁Serv	-9698
▁largest	-9699
esperson	-9700
▁randomly	-9701
▁unsure	-9702
▁crumb	-9703
▁enhan	-9704
▁gyoza	-9705
▁Panera	-9706
▁Smoke	-9707
▁roughly	-9708
racha	-9709
illo	-9710
▁privacy	-9711
▁1/4	-9712
▁discl	-9713
enta	-9714
CA	-9715
nie	-9716
▁solely	-9717
▁Maria	-9718
thern	-9719
▁performers	-9720
ript	-9721
▁magical	-9722
then	-9723
▁Ult	-9724
▁scoops	-9725
▁leftover	-9726
▁intention	-9727
▁Ret	-9728
▁vermicelli	-9729
▁hollandaise	-9730
▁Brisket	-9731
▁concoc	-9732
▁player	-9733
▁BEWARE	-9734
▁Moving	-9735
arin	-9736
▁pref	-9737
cai	-9738
▁memor	-9739
▁HO	-9740
str	-9741
iere	-9742
▁util	-9743
elle	-9744
unte	-9745
▁Roasted	-9746
ante	-9747
▁lackluster	-9748
▁Rel	-9749
attentive	-9750
▁Tons	-9751
▁fondue	-9752
▁radio	-9753
▁Shake	-9754
▁Taiw	-9755
▁drenched	-9756
▁iPad	-9757
▁Coast	-9758
▁Shack	-9759
lling	-9760
▁FIN	-9761
▁film	-9762
▁buildings	-9763
▁tapioca	-9764
▁american	-9765
▁wedge	-9766
▁payments	-9767
osas	-9768
▁Avenue	-9769
▁friendliness	-9770
▁Tap	-9771
▁diagnosed	-9772
itude	-9773
otos	-9774
▁BAD	-9775
▁Sing	-9776
run	-9777
urd	-9778
▁Tofu	-9779
▁clim	-9780
▁hiring	-9781
isions	-9782
▁neglect	-9783
▁guit	-9784
▁Um	-9785
spicy	-9786
▁loaf	-9787
▁ment	-9788
attered	-9789
▁doesnt	-9790
▁harass	-9791
▁bday	-9792
▁curly	-9793
▁percent	-9794
▁evenings	-9795
▁23	-9796
▁landsca	-9797
What	-9798
▁HOW	-9799
▁JUST	-9800
▁($2	-9801
aron	-9802
actions	-9803
▁dash	-9804
▁transferred	-9805
▁canceled	-9806
▁matched	-9807
▁manufact	-9808
▁bold	-9809
▁meds	-9810
▁Jac	-9811
▁candle	-9812
▁tonk	-9813
pective	-9814
special	-9815
▁commercial	-9816
iamond	-9817
ander	-9818
▁Due	-9819
▁Panda	-9820
nit	-9821
▁brake	-9822
▁satur	-9823
▁Door	-9824
▁freshest	-9825
▁$70	-9826
▁seam	-9827
▁Awful	-9828
▁fortunate	-9829
▁mechanics	-9830
▁7.	-9831
▁anticipated	-9832
▁mort	-9833
▁Thought	-9834
▁Sour	-9835
▁festival	-9836
▁simpl	-9837
▁teach	-9838
▁$22	-9839
▁inquired	-9840
va	-9841
▁wake	-9842
▁Doesn	-9843
ulation	-9844
▁Mirage	-9845
▁handy	-9846
ichang	-9847
▁reported	-9848
sl	-9849
▁Sarah	-9850
▁horseradish	-9851
▁shells	-9852
▁expired	-9853
/3	-9854
▁kinks	-9855
▁Lovely	-9856
▁splurge	-9857
▁Tuesdays	-9858
▁attempts	-9859
▁Fur	-9860
fresh	-9861
▁Cat	-9862
▁stools	-9863
▁Waiter	-9864
▁exotic	-9865
',	-9866
▁addicted	-9867
▁lash	-9868
▁obsessed	-9869
▁basics	-9870
▁OVER	-9871
▁storm	-9872
will	-9873
▁exercise	-9874
▁prawn	-9875
▁chiropract	-9876
▁biz	-9877
▁becomes	-9878
▁Cosmo	-9879
▁Fro	-9880
▁toe	-9881
iti	-9882
▁rounds	-9883
▁sneak	-9884
bird	-9885
▁spilled	-9886
▁Tan	-9887
▁Valentine	-9888
▁Overpriced	-9889
▁overlooking	-9890
▁whip	-9891
▁stolen	-9892
▁suddenly	-9893
▁uniform	-9894
▁tact	-9895
mit	-9896
▁Scall	-9897
▁econ	-9898
▁arrangements	-9899
lee	-9900
▁concierge	-9901
▁Mushroom	-9902
▁appliances	-9903
▁Rams	-9904
▁updates	-9905
▁PLEASE	-9906
▁speedy	-9907
▁apologies	-9908
valu	-9909
▁distur	-9910
▁shoulders	-9911
▁Cro	-9912
▁$3.	-9913
▁chilled	-9914
▁AD	-9915
▁posting	-9916
▁Tech	-9917
▁Lounge	-9918
▁Paradise	-9919
▁aisle	-9920
▁Swiss	-9921
▁oatmeal	-9922
Out	-9923
chair	-9924
race	-9925
▁reluct	-9926
rilliant	-9927
▁Nobody	-9928
▁weekdays	-9929
▁Saturdays	-9930
▁Banana	-9931
oup	-9932
▁availability	-9933
▁slammed	-9934
▁Cob	-9935
▁quicker	-9936
▁Nachos	-9937
▁excite	-9938
▁Johnny	-9939
▁sweeter	-9940
▁expertise	-9941
▁chalk	-9942
▁baguette	-9943
▁warehouse	-9944
▁AA	-9945
ferences	-9946
▁tent	-9947
imbap	-9948
tf	-9949
▁slower	-9950
He	-9951
▁medicine	-9952
▁negoti	-9953
▁FROM	-9954
▁STILL	-9955
▁pathetic	-9956
▁boots	-9957
stery	-9958
mers	-9959
VO	-9960
▁Rick	-9961
udo	-9962
▁depth	-9963
▁tradition	-9964
▁virt	-9965
▁cans	-9966
▁dismiss	-9967
▁enjoys	-9968
something	-9969
▁spirit	-9970
▁couldnt	-9971
▁instant	-9972
▁Camelback	-9973
.'	-9974
▁histor	-9975
▁flooring	-9976
▁journey	-9977
▁financial	-9978
▁busier	-9979
▁designer	-9980
▁thousand	-9981
▁nostal	-9982
oom	-9983
▁exagger	-9984
:20	-9985
▁brewed	-9986
ettes	-9987
▁shipped	-9988
▁2,	-9989
▁sucker	-9990
▁owns	-9991
riracha	-9992
xim	-9993
▁dangerous	-9994
▁Mean	-9995
andoori	-9996
▁Yay	-9997
▁Mine	-9998
▁freezing	-9999
▁fabric	-10000
▁friendliest	-10001
▁bake	-10002
member	-10003
▁baklava	-10004
▁beets	-10005
▁extras	-10006
▁substant	-10007
ettucc	-10008
ftop	-10009
▁blind	-10010
▁fourth	-10011
▁napkin	-10012
▁browse	-10013
▁Jay	-10014
▁Metro	-10015
▁waits	-10016
▁horrendous	-10017
▁stink	-10018
As	-10019
▁tikka	-10020
▁indicated	-10021
▁nostalg	-10022
▁suites	-10023
thank	-10024
▁caesar	-10025
▁pairs	-10026
▁32	-10027
▁Adam	-10028
▁REC	-10029
▁loudly	-10030
▁effective	-10031
▁28	-10032
oury	-10033
ATION	-10034
▁tune	-10035
▁oblig	-10036
▁aroma	-10037
▁faith	-10038
▁Brandon	-10039
▁prove	-10040
▁stressed	-10041
▁banh	-10042
▁Life	-10043
▁smelling	-10044
▁thanked	-10045
ndel	-10046
sweet	-10047
▁streng	-10048
▁pounds	-10049
▁carbon	-10050
▁arranged	-10051
▁textures	-10052
▁McC	-10053
balls	-10054
▁versus	-10055
▁deduct	-10056
▁underwhelmed	-10057
za	-10058
▁Bartender	-10059
And	-10060
▁butcher	-10061
probably	-10062
▁Flor	-10063
▁truff	-10064
▁condo	-10065
▁showers	-10066
ension	-10067
▁brussel	-10068
owered	-10069
▁occasional	-10070
jack	-10071
enches	-10072
osc	-10073
▁lunches	-10074
ienced	-10075
▁salesperson	-10076
▁halibut	-10077
▁stole	-10078
▁packaged	-10079
APP	-10080
▁Served	-10081
▁ranging	-10082
▁smiled	-10083
▁searched	-10084
▁sans	-10085
▁flan	-10086
add	-10087
GO	-10088
inate	-10089
gend	-10090
▁shy	-10091
▁Wanted	-10092
▁severe	-10093
▁ore	-10094
▁yrs	-10095
▁locks	-10096
▁Left	-10097
▁stickers	-10098
yo	-10099
▁pil	-10100
▁compon	-10101
▁experiencing	-10102
▁GR	-10103
▁frag	-10104
▁misle	-10105
▁accent	-10106
▁artwork	-10107
▁fuel	-10108
▁secure	-10109
anky	-10110
▁warmed	-10111
▁riding	-10112
▁worries	-10113
▁homeless	-10114
▁delighted	-10115
▁expressed	-10116
▁unbelievably	-10117
▁lies	-10118
▁pops	-10119
berto	-10120
▁Kong	-10121
▁Favorite	-10122
▁tissue	-10123
▁TERRIBLE	-10124
▁Hong	-10125
▁stain	-10126
nothing	-10127
▁apparent	-10128
small	-10129
▁entertained	-10130
▁2013	-10131
▁Dev	-10132
▁Miso	-10133
▁tater	-10134
▁Skip	-10135
▁Ramsay	-10136
venient	-10137
▁accomod	-10138
▁Ref	-10139
▁shooting	-10140
▁Season	-10141
▁thoughts	-10142
▁seemingly	-10143
▁sourdough	-10144
▁Incredible	-10145
▁succulent	-10146
▁Unbeliev	-10147
▁dispos	-10148
▁gaming	-10149
▁puzz	-10150
▁5-10	-10151
▁Diamond	-10152
▁REAL	-10153
why	-10154
▁Ros	-10155
except	-10156
▁Pricing	-10157
▁rosemary	-10158
▁Completely	-10159
insp	-10160
▁reaction	-10161
▁greek	-10162
▁CUST	-10163
▁TWO	-10164
oud	-10165
▁upsell	-10166
aying	-10167
▁tid	-10168
▁Ended	-10169
▁Ridiculous	-10170
▁Book	-10171
▁Andrew	-10172
▁proxim	-10173
▁curries	-10174
▁listens	-10175
▁conditioner	-10176
▁School	-10177
▁fireplace	-10178
▁HAD	-10179
▁Craig	-10180
▁bistro	-10181
▁elderly	-10182
▁countless	-10183
▁PO	-10184
OOOO	-10185
▁Supp	-10186
▁apt	-10187
ourse	-10188
▁exhibits	-10189
▁useless	-10190
▁Ill	-10191
▁Meg	-10192
▁ale	-10193
▁circum	-10194
▁popping	-10195
▁dripping	-10196
▁unorganized	-10197
▁birds	-10198
hem	-10199
▁Fred	-10200
▁volunte	-10201
stop	-10202
▁lamp	-10203
▁loyalty	-10204
▁peu	-10205
▁drug	-10206
▁seek	-10207
▁escal	-10208
▁guilty	-10209
▁Want	-10210
▁Sum	-10211
▁exquisite	-10212
▁bao	-10213
▁taught	-10214
▁native	-10215
▁accordingly	-10216
icking	-10217
▁attorney	-10218
▁requires	-10219
eline	-10220
▁cher	-10221
▁basketball	-10222
▁asleep	-10223
▁Mississauga	-10224
▁baristas	-10225
▁feelings	-10226
▁Experience	-10227
lendale	-10228
▁4)	-10229
▁Tort	-10230
▁Tay	-10231
THER	-10232
▁operated	-10233
▁rag	-10234
smo	-10235
▁USA	-10236
▁frills	-10237
▁delivering	-10238
avender	-10239
aja	-10240
▁yumm	-10241
▁differently	-10242
▁contained	-10243
Not	-10244
▁Fine	-10245
▁coverage	-10246
▁Gall	-10247
▁Amanda	-10248
▁CUSTOM	-10249
orted	-10250
▁sizz	-10251
leans	-10252
▁Fridays	-10253
▁Sausage	-10254
▁ghetto	-10255
RED	-10256
▁Mot	-10257
acent	-10258
BB	-10259
rim	-10260
▁Leg	-10261
▁tattoos	-10262
▁cities	-10263
▁horribly	-10264
▁wi	-10265
▁lined	-10266
▁bulk	-10267
▁plumber	-10268
▁execution	-10269
▁FAN	-10270
park	-10271
▁tenderloin	-10272
lpful	-10273
ani	-10274
▁Er	-10275
▁compassionate	-10276
FECT	-10277
▁arguing	-10278
▁dare	-10279
▁outs	-10280
since	-10281
▁infection	-10282
▁Ball	-10283
▁Marriott	-10284
▁bachelorette	-10285
▁berries	-10286
▁dislike	-10287
▁rab	-10288
imm	-10289
▁connection	-10290
▁Gyro	-10291
▁nuggets	-10292
ados	-10293
11	-10294
▁spit	-10295
▁SN	-10296
▁hush	-10297
▁Kinda	-10298
houses	-10299
▁Ba	-10300
▁drizzled	-10301
▁herb	-10302
▁Conc	-10303
▁River	-10304
▁chest	-10305
▁alterations	-10306
uzzi	-10307
itect	-10308
▁goal	-10309
▁dissapoint	-10310
▁Sol	-10311
▁Reasonable	-10312
▁technique	-10313
▁---	-10314
urant	-10315
▁Veggie	-10316
▁stamp	-10317
70	-10318
issan	-10319
▁nit	-10320
▁benches	-10321
▁cloth	-10322
atin	-10323
▁BBB	-10324
▁Delivery	-10325
▁Surprisingly	-10326
▁rainbow	-10327
▁Chur	-10328
▁Encore	-10329
▁15%	-10330
▁ED	-10331
▁Baby	-10332
▁structure	-10333
▁Year	-10334
ulated	-10335
▁Neither	-10336
▁requesting	-10337
angers	-10338
OMM	-10339
▁catching	-10340
▁sprinkled	-10341
fin	-10342
▁creepy	-10343
lection	-10344
▁cardboard	-10345
▁meets	-10346
▁staffs	-10347
▁urgent	-10348
▁haircuts	-10349
▁supermarket	-10350
stars	-10351
▁anxiety	-10352
▁Richard	-10353
iar	-10354
oween	-10355
▁$400	-10356
▁BACK	-10357
▁Dirty	-10358
▁tummy	-10359
▁Tha	-10360
site	-10361
▁lousy	-10362
▁charcuterie	-10363
▁heels	-10364
▁assemb	-10365
▁senior	-10366
▁proximity	-10367
▁Pass	-10368
▁Lady	-10369
▁Tasted	-10370
▁overrated	-10371
mate	-10372
ours	-10373
▁gigantic	-10374
▁ceremony	-10375
▁rooftop	-10376
▁ener	-10377
ueless	-10378
▁hazel	-10379
izon	-10380
▁GTA	-10381
loc	-10382
▁Resort	-10383
▁8.	-10384
▁cuticles	-10385
▁Perfectly	-10386
▁defiantly	-10387
▁cleaners	-10388
▁owe	-10389
▁warmly	-10390
▁rescue	-10391
fun	-10392
▁True	-10393
▁piled	-10394
▁Felt	-10395
▁brush	-10396
AME	-10397
▁sup	-10398
arth	-10399
▁ASU	-10400
venir	-10401
▁bride	-10402
notch	-10403
▁outcome	-10404
agine	-10405
hich	-10406
▁uptown	-10407
▁trays	-10408
▁Pizz	-10409
:0	-10410
actus	-10411
▁prim	-10412
▁drinker	-10413
▁winning	-10414
▁tz	-10415
onsin	-10416
▁yo	-10417
known	-10418
▁48	-10419
▁Plaza	-10420
▁texted	-10421
manship	-10422
▁downfall	-10423
IF	-10424
▁cigar	-10425
▁ster	-10426
▁Bac	-10427
elper	-10428
▁deliciously	-10429
▁4:30	-10430
▁paneer	-10431
▁renovation	-10432
▁Andy	-10433
uev	-10434
▁bridal	-10435
▁Sales	-10436
Al	-10437
ttes	-10438
▁finest	-10439
▁Cur	-10440
▁tear	-10441
▁Gi	-10442
▁Safe	-10443
oty	-10444
▁yr	-10445
▁aisles	-10446
▁Cut	-10447
isconsin	-10448
▁HOUR	-10449
▁title	-10450
▁cannoli	-10451
▁personnel	-10452
▁core	-10453
▁shellac	-10454
▁corners	-10455
▁masse	-10456
SA	-10457
nese	-10458
cean	-10459
▁Seating	-10460
▁returns	-10461
▁energetic	-10462
ext	-10463
▁sore	-10464
STIC	-10465
▁task	-10466
▁fooled	-10467
▁carrying	-10468
▁Bean	-10469
ustin	-10470
ication	-10471
▁childhood	-10472
▁Il	-10473
▁ultimate	-10474
▁agreement	-10475
▁Ont	-10476
▁competitors	-10477
▁Rainbow	-10478
▁dealerships	-10479
▁insist	-10480
▁overdone	-10481
▁habit	-10482
▁doughy	-10483
gran	-10484
greens	-10485
▁adore	-10486
▁hosts	-10487
aign	-10488
▁tamales	-10489
▁Basil	-10490
▁retro	-10491
▁pays	-10492
▁Tire	-10493
▁Fox	-10494
jun	-10495
▁hangover	-10496
▁eel	-10497
:5	-10498
▁catered	-10499
eal	-10500
▁equal	-10501
▁grind	-10502
INT	-10503
odd	-10504
▁educated	-10505
iva	-10506
ressing	-10507
▁Dragon	-10508
▁celery	-10509
▁Professional	-10510
▁epic	-10511
▁outdoors	-10512
▁Interesting	-10513
▁dragon	-10514
▁decisions	-10515
ching	-10516
▁active	-10517
estyle	-10518
▁trainers	-10519
interest	-10520
▁remained	-10521
▁accompl	-10522
▁carb	-10523
▁University	-10524
ifying	-10525
▁excitement	-10526
long	-10527
▁consideration	-10528
uous	-10529
▁Orleans	-10530
▁RUDE	-10531
win	-10532
▁definately	-10533
▁Salsa	-10534
▁Silver	-10535
▁referral	-10536
▁washroom	-10537
ucky	-10538
ikes	-10539
▁AFTER	-10540
▁Reuben	-10541
▁26	-10542
lled	-10543
▁omg	-10544
atta	-10545
▁pou	-10546
cra	-10547
asis	-10548
▁niece	-10549
▁Aud	-10550
VEN	-10551
assuming	-10552
▁Average	-10553
▁contemporary	-10554
ennel	-10555
▁walnut	-10556
▁scramble	-10557
mill	-10558
▁Surprise	-10559
▁concrete	-10560
kel	-10561
▁individuals	-10562
▁capacity	-10563
▁transmission	-10564
▁Ri	-10565
wa	-10566
▁flew	-10567
arc	-10568
▁glance	-10569
▁lessons	-10570
▁cranberry	-10571
▁testing	-10572
itters	-10573
RONG	-10574
▁vra	-10575
▁cardio	-10576
▁Health	-10577
▁toffee	-10578
▁Wind	-10579
oe	-10580
eras	-10581
▁resemb	-10582
!!!!!!!	-10583
▁shave	-10584
▁avoided	-10585
odge	-10586
▁IMO	-10587
▁1:30	-10588
▁dishonest	-10589
fly	-10590
▁belongings	-10591
▁nightclub	-10592
▁Glendale	-10593
▁remains	-10594
▁eastern	-10595
▁Animal	-10596
▁doz	-10597
▁Lot	-10598
▁slab	-10599
▁needless	-10600
▁quesadillas	-10601
▁Internet	-10602
▁Circus	-10603
▁Det	-10604
▁Moon	-10605
▁crafted	-10606
▁lunchtime	-10607
ractions	-10608
▁Remember	-10609
▁flawless	-10610
▁chilli	-10611
▁joking	-10612
▁=)	-10613
▁isnt	-10614
▁grandmother	-10615
▁tak	-10616
▁sampling	-10617
stru	-10618
▁Wag	-10619
▁India	-10620
assy	-10621
▁horse	-10622
▁Further	-10623
▁solo	-10624
▁displays	-10625
▁flakes	-10626
olognese	-10627
▁contacting	-10628
▁od	-10629
▁Put	-10630
▁Business	-10631
▁Office	-10632
ogies	-10633
mpt	-10634
▁Pleas	-10635
quality	-10636
▁contrast	-10637
▁Cry	-10638
▁dang	-10639
▁decoration	-10640
▁calzone	-10641
▁revis	-10642
▁mojito	-10643
▁excessive	-10644
);	-10645
▁Fo	-10646
▁Paid	-10647
▁PERFECT	-10648
▁mary	-10649
▁Rachel	-10650
▁clueless	-10651
TY	-10652
▁Tal	-10653
▁arts	-10654
▁profile	-10655
▁Years	-10656
▁reheated	-10657
▁eh	-10658
▁circumst	-10659
jacent	-10660
▁Palms	-10661
▁mount	-10662
▁weights	-10663
▁sweetest	-10664
high	-10665
nice	-10666
▁updating	-10667
▁nope	-10668
▁PL	-10669
▁technology	-10670
▁tricks	-10671
▁Area	-10672
▁Pres	-10673
atziki	-10674
select	-10675
▁consists	-10676
▁benefits	-10677
▁covering	-10678
▁jus	-10679
nitzel	-10680
▁Gotta	-10681
▁piano	-10682
▁brioche	-10683
▁reim	-10684
▁Eventually	-10685
▁Yard	-10686
▁Amazon	-10687
▁advis	-10688
▁rye	-10689
▁Airport	-10690
▁concess	-10691
▁estate	-10692
▁bumper	-10693
▁Local	-10694
▁specialist	-10695
OMMEND	-10696
▁cobb	-10697
▁caffe	-10698
▁sticker	-10699
▁alert	-10700
▁mentioning	-10701
▁Os	-10702
▁kidd	-10703
photos	-10704
▁Smoked	-10705
▁Wisconsin	-10706
▁Centre	-10707
fam	-10708
mates	-10709
▁quiche	-10710
▁Bomb	-10711
▁gut	-10712
▁fraud	-10713
▁dishwas	-10714
▁removing	-10715
▁touching	-10716
▁verify	-10717
kind	-10718
▁mahi	-10719
quee	-10720
▁Est	-10721
▁leading	-10722
eks	-10723
▁Ass	-10724
▁Dry	-10725
▁Ten	-10726
ridge	-10727
phew	-10728
arded	-10729
▁2:30	-10730
▁Hun	-10731
▁Dont	-10732
▁contacts	-10733
▁kiosk	-10734
theless	-10735
▁Nissan	-10736
▁27	-10737
▁crushed	-10738
So	-10739
▁strength	-10740
ffle	-10741
▁Kung	-10742
▁conclusion	-10743
formed	-10744
MM	-10745
▁fails	-10746
haw	-10747
▁treasure	-10748
LLENT	-10749
▁alarm	-10750
▁stare	-10751
▁diagnosis	-10752
rah	-10753
▁brides	-10754
▁latter	-10755
▁powd	-10756
▁electrical	-10757
▁Thomas	-10758
▁emot	-10759
▁Warm	-10760
▁architect	-10761
:40	-10762
▁author	-10763
▁floating	-10764
▁seeking	-10765
▁lanes	-10766
together	-10767
omegran	-10768
▁meticulous	-10769
▁Avocado	-10770
▁loung	-10771
▁chipped	-10772
ungle	-10773
▁1/3	-10774
▁vendor	-10775
▁RECOMMEND	-10776
▁shopped	-10777
▁fighting	-10778
their	-10779
▁praise	-10780
▁horchata	-10781
otsu	-10782
▁mole	-10783
▁indulge	-10784
▁Recommended	-10785
▁chilly	-10786
▁lowest	-10787
▁stuffing	-10788
▁Sahara	-10789
▁innov	-10790
▁attack	-10791
▁demeanor	-10792
▁MORE	-10793
▁trout	-10794
▁touches	-10795
▁gou	-10796
▁Baked	-10797
cers	-10798
▁wheels	-10799
▁convince	-10800
▁engaged	-10801
▁wire	-10802
▁western	-10803
▁marketing	-10804
▁Gra	-10805
▁sufficient	-10806
▁Coconut	-10807
pton	-10808
never	-10809
▁Tiff	-10810
erving	-10811
▁reimbur	-10812
▁mission	-10813
▁subject	-10814
isters	-10815
loaded	-10816
▁Hello	-10817
▁finds	-10818
▁impatient	-10819
ested	-10820
▁canal	-10821
▁Edd	-10822
▁snag	-10823
▁liver	-10824
▁pressured	-10825
▁photographer	-10826
▁yours	-10827
▁tape	-10828
▁Week	-10829
$.	-10830
!.	-10831
PR	-10832
▁Hand	-10833
▁HE	-10834
▁FU	-10835
▁conditions	-10836
▁filing	-10837
▁physician	-10838
▁DI	-10839
▁flood	-10840
▁link	-10841
▁Spoon	-10842
▁Taylor	-10843
▁increased	-10844
hell	-10845
▁Belg	-10846
▁ounce	-10847
▁scrap	-10848
▁dente	-10849
OWN	-10850
▁materials	-10851
ashi	-10852
Well	-10853
▁gyms	-10854
▁crumbs	-10855
▁span	-10856
▁Bang	-10857
▁Nicole	-10858
▁sparkling	-10859
▁Diner	-10860
▁nephew	-10861
▁wondered	-10862
INE	-10863
▁assess	-10864
▁poop	-10865
▁upside	-10866
▁colleague	-10867
▁dozens	-10868
▁congee	-10869
▁pillow	-10870
yu	-10871
▁199	-10872
▁$24	-10873
itives	-10874
▁bothering	-10875
tan	-10876
▁RV	-10877
▁Camp	-10878
▁kebab	-10879
▁assorted	-10880
▁stingy	-10881
aren	-10882
▁recognized	-10883
▁Kay	-10884
▁behold	-10885
▁Through	-10886
▁piercing	-10887
▁renovations	-10888
ooper	-10889
▁CAR	-10890
athetic	-10891
▁$6.	-10892
12	-10893
dinner	-10894
▁separated	-10895
bye	-10896
▁coating	-10897
!!)	-10898
▁yellowtail	-10899
▁map	-10900
▁category	-10901
▁Russ	-10902
▁sauna	-10903
▁google	-10904
fi	-10905
chon	-10906
▁reloc	-10907
-9	-10908
▁Fabulous	-10909
oted	-10910
▁scor	-10911
▁traveled	-10912
▁source	-10913
▁permanent	-10914
▁smallest	-10915
▁severely	-10916
▁Carib	-10917
▁aunt	-10918
▁valu	-10919
▁exposed	-10920
▁freeway	-10921
▁fudge	-10922
iveness	-10923
▁skimpy	-10924
▁Tell	-10925
▁300	-10926
▁adjacent	-10927
irgin	-10928
▁feast	-10929
▁EXCELLENT	-10930
▁Royal	-10931
inisc	-10932
yl	-10933
▁dreams	-10934
▁shorts	-10935
▁contractor	-10936
▁ther	-10937
REM	-10938
month	-10939
▁coated	-10940
▁Wr	-10941
icc	-10942
rors	-10943
▁tarts	-10944
▁artific	-10945
▁cush	-10946
▁rend	-10947
▁Ms	-10948
▁Krist	-10949
▁Original	-10950
-5	-10951
▁Ahi	-10952
▁dissatisfied	-10953
ucing	-10954
▁dietary	-10955
▁Greg	-10956
vl	-10957
TASTIC	-10958
OUT	-10959
hamed	-10960
▁$250	-10961
▁laws	-10962
▁indian	-10963
▁stacked	-10964
▁independent	-10965
▁deluxe	-10966
▁Tao	-10967
vi	-10968
acker	-10969
enne	-10970
▁limp	-10971
▁perspective	-10972
elled	-10973
▁Crazy	-10974
▁overlooked	-10975
▁physically	-10976
▁alive	-10977
tain	-10978
▁conver	-10979
▁document	-10980
▁DM	-10981
▁albeit	-10982
appropri	-10983
▁bless	-10984
looking	-10985
▁introduce	-10986
▁Jama	-10987
▁unre	-10988
▁crout	-10989
▁12:30	-10990
▁guitar	-10991
▁Convenient	-10992
▁tempted	-10993
▁luxurious	-10994
inn	-10995
▁Chick	-10996
▁Services	-10997
ande	-10998
▁specially	-10999
▁partial	-11000
▁macaroons	-11001
▁redo	-11002
▁theaters	-11003
▁embarrassing	-11004
▁Rub	-11005
▁Sugar	-11006
▁stained	-11007
▁Cow	-11008
▁philly	-11009
▁lotion	-11010
▁Peter	-11011
▁imagined	-11012
▁1-2	-11013
▁Halloween	-11014
▁Ques	-11015
▁drawn	-11016
▁interactive	-11017
▁harsh	-11018
▁Work	-11019
▁gesture	-11020
▁2019	-11021
▁slip	-11022
▁Dutch	-11023
ITE	-11024
▁stronger	-11025
▁Hair	-11026
▁thinly	-11027
▁souvenir	-11028
▁Zero	-11029
▁Court	-11030
LV	-11031
unkin	-11032
▁reduced	-11033
▁Hen	-11034
▁Andre	-11035
▁investig	-11036
▁immac	-11037
▁Guac	-11038
▁Pac	-11039
▁KN	-11040
▁Santa	-11041
▁soph	-11042
▁tricky	-11043
ko	-11044
▁Oreo	-11045
▁Sole	-11046
▁playground	-11047
▁Jeep	-11048
▁proceed	-11049
▁Potatoes	-11050
okay	-11051
▁KFC	-11052
-3	-11053
▁creativity	-11054
▁500	-11055
▁THEM	-11056
▁Sus	-11057
▁Bonus	-11058
▁Beyond	-11059
▁inconvenient	-11060
▁propor	-11061
meh	-11062
▁comparing	-11063
▁Tart	-11064
▁grape	-11065
ervation	-11066
obile	-11067
parent	-11068
▁2012	-11069
▁questionable	-11070
▁greater	-11071
done	-11072
taste	-11073
▁confit	-11074
owers	-11075
▁martinis	-11076
▁Typical	-11077
ND	-11078
▁HK	-11079
▁aka	-11080
▁towed	-11081
▁cabinets	-11082
▁complementary	-11083
▁inquire	-11084
▁Iced	-11085
▁classics	-11086
▁overfl	-11087
▁Laure	-11088
▁leads	-11089
▁YELP	-11090
▁Bul	-11091
▁platters	-11092
▁Danny	-11093
:50	-11094
inity	-11095
▁Es	-11096
ussi	-11097
▁Disappointing	-11098
▁vom	-11099
ilted	-11100
omegranate	-11101
▁primarily	-11102
mont	-11103
▁dishwasher	-11104
ACT	-11105
ongrass	-11106
▁reference	-11107
▁incorrectly	-11108
▁churros	-11109
▁savoury	-11110
▁skewer	-11111
▁polenta	-11112
▁refried	-11113
Che	-11114
fied	-11115
▁belie	-11116
▁drizzle	-11117
utive	-11118
▁roller	-11119
▁pod	-11120
ipast	-11121
49	-11122
▁Secondly	-11123
▁blackened	-11124
onese	-11125
▁intent	-11126
▁tacky	-11127
▁profit	-11128
sequ	-11129
▁manicures	-11130
VS	-11131
▁holy	-11132
▁Card	-11133
▁Patrick	-11134
▁plantains	-11135
▁stared	-11136
▁breakfasts	-11137
▁garnish	-11138
▁hel	-11139
▁cubes	-11140
fts	-11141
▁meme	-11142
▁pouring	-11143
EM	-11144
rib	-11145
bell	-11146
▁Along	-11147
▁reminisc	-11148
▁fence	-11149
▁Jersey	-11150
▁Poutine	-11151
ibi	-11152
▁90%	-11153
case	-11154
▁Boba	-11155
"!	-11156
▁remarkable	-11157
▁newest	-11158
bus	-11159
▁Sean	-11160
▁comfortably	-11161
▁ashamed	-11162
▁chimichang	-11163
▁Hak	-11164
beef	-11165
▁determined	-11166
▁expense	-11167
▁cotton	-11168
ASH	-11169
wow	-11170
▁estimated	-11171
▁alignment	-11172
▁formal	-11173
▁Aff	-11174
▁limo	-11175
▁lineup	-11176
▁BYOB	-11177
▁carries	-11178
▁tie	-11179
ques	-11180
▁parf	-11181
▁chandel	-11182
▁cameras	-11183
▁handmade	-11184
▁meetings	-11185
Mex	-11186
▁Union	-11187
ccer	-11188
▁doughnut	-11189
==	-11190
▁FANTASTIC	-11191
▁cones	-11192
▁string	-11193
▁Sher	-11194
▁Waffle	-11195
osure	-11196
lights	-11197
▁forms	-11198
▁$8.	-11199
▁decade	-11200
▁$7.	-11201
▁.....	-11202
▁Az	-11203
iors	-11204
▁refilling	-11205
▁Heather	-11206
uevos	-11207
▁Except	-11208
▁Country	-11209
▁Eye	-11210
▁toy	-11211
ISH	-11212
full	-11213
have	-11214
▁Lin	-11215
efruit	-11216
▁eateries	-11217
SO	-11218
▁carpaccio	-11219
▁microwaved	-11220
▁Eas	-11221
▁adjusted	-11222
▁Yellow	-11223
▁Melissa	-11224
iop	-11225
▁papers	-11226
▁argued	-11227
▁Speaking	-11228
ilia	-11229
▁fortune	-11230
▁Discount	-11231
▁pinch	-11232
▁trustworthy	-11233
-12	-11234
▁Pure	-11235
▁$2.50	-11236
▁trailer	-11237
▁pitch	-11238
▁overheard	-11239
AK	-11240
▁nacho	-11241
▁wound	-11242
▁carbs	-11243
▁financing	-11244
▁Gab	-11245
▁verde	-11246
▁officially	-11247
▁Jacks	-11248
cook	-11249
hensive	-11250
oulder	-11251
mble	-11252
▁STARS	-11253
▁Lex	-11254
▁Works	-11255
▁confront	-11256
▁DC	-11257
▁Creme	-11258
▁lb	-11259
▁Gross	-11260
▁destroy	-11261
▁bouncer	-11262
▁ay	-11263
noisse	-11264
▁cancer	-11265
▁Desserts	-11266
isin	-11267
reen	-11268
▁talks	-11269
▁1000	-11270
▁Rece	-11271
▁hunger	-11272
tor	-11273
still	-11274
▁daycare	-11275
▁sparse	-11276
▁Nail	-11277
ounced	-11278
▁Western	-11279
ali	-11280
atches	-11281
▁crusty	-11282
rolled	-11283
▁chunky	-11284
▁Caramel	-11285
▁crackers	-11286
scar	-11287
▁XS	-11288
arre	-11289
oster	-11290
▁supple	-11291
▁4,	-11292
raut	-11293
pack	-11294
▁sugary	-11295
▁tat	-11296
▁venues	-11297
yer	-11298
▁Belly	-11299
▁cancellation	-11300
▁3,	-11301
▁expans	-11302
▁jac	-11303
▁nom	-11304
▁lychee	-11305
▁Imagine	-11306
▁$4.	-11307
▁Net	-11308
▁OFF	-11309
bearing	-11310
▁Comfort	-11311
▁vibrant	-11312
▁Stone	-11313
▁shine	-11314
▁cough	-11315
▁pots	-11316
Ex	-11317
IZ	-11318
▁Trader	-11319
▁restrictions	-11320
▁lawn	-11321
▁Tiffany	-11322
▁speakers	-11323
oi	-11324
▁Sprouts	-11325
▁browsing	-11326
▁aim	-11327
▁alike	-11328
▁PE	-11329
▁unhelpful	-11330
ivalent	-11331
▁thro	-11332
▁humble	-11333
▁locate	-11334
▁Robin	-11335
▁Jalap	-11336
▁float	-11337
▁rotating	-11338
▁Cu	-11339
▁puffs	-11340
ieux	-11341
▁Word	-11342
▁candles	-11343
▁Pig	-11344
▁wore	-11345
▁timer	-11346
▁hearts	-11347
?),	-11348
▁surprises	-11349
▁vets	-11350
▁tread	-11351
▁southwest	-11352
▁tenant	-11353
works	-11354
▁manufacture	-11355
auc	-11356
▁penne	-11357
▁rainy	-11358
▁crusted	-11359
▁prescri	-11360
thew	-11361
▁nons	-11362
isha	-11363
ashes	-11364
sm	-11365
IST	-11366
▁stall	-11367
esc	-11368
ogo	-11369
▁influ	-11370
▁MSG	-11371
▁sunset	-11372
▁friday	-11373
▁glor	-11374
▁struggling	-11375
working	-11376
▁cereal	-11377
▁sisters	-11378
cont	-11379
▁Dent	-11380
▁dips	-11381
obo	-11382
oyaki	-11383
plus	-11384
▁hefty	-11385
▁boards	-11386
▁paella	-11387
▁sincere	-11388
▁Fle	-11389
▁sizzling	-11390
lb	-11391
▁Unbelievable	-11392
▁brie	-11393
▁element	-11394
▁arrogant	-11395
▁someplace	-11396
▁highway	-11397
▁attraction	-11398
▁favourites	-11399
▁TIP	-11400
▁drool	-11401
▁VEG	-11402
oters	-11403
▁hazelnut	-11404
▁:-	-11405
▁centre	-11406
▁Iron	-11407
llow	-11408
▁remembers	-11409
▁Yep	-11410
ugu	-11411
▁tvs	-11412
ording	-11413
▁Pancakes	-11414
▁noticeable	-11415
bies	-11416
▁Security	-11417
▁projects	-11418
▁Ginger	-11419
amboo	-11420
▁tasteful	-11421
▁evalu	-11422
▁encouraged	-11423
two	-11424
▁shiny	-11425
▁Atl	-11426
▁convey	-11427
▁attempting	-11428
▁aspects	-11429
▁artificial	-11430
aura	-11431
xtures	-11432
▁facials	-11433
wy	-11434
▁Bian	-11435
ases	-11436
▁connoisse	-11437
▁ip	-11438
▁Massage	-11439
▁Amber	-11440
▁gates	-11441
▁Middle	-11442
▁trails	-11443
born	-11444
▁Seattle	-11445
▁samosas	-11446
▁inattentive	-11447
▁Sandwiches	-11448
▁CUSTOMER	-11449
▁struggle	-11450
arborough	-11451
▁Vel	-11452
▁acrob	-11453
▁satay	-11454
▁leasing	-11455
.).	-11456
▁THERE	-11457
▁cashew	-11458
▁wouldnt	-11459
▁steer	-11460
▁staples	-11461
▁misleading	-11462
▁Taiwanese	-11463
ounce	-11464
▁Looked	-11465
▁lbs	-11466
▁speaker	-11467
▁production	-11468
▁quir	-11469
▁existed	-11470
▁DEF	-11471
▁Brad	-11472
▁guid	-11473
▁ic	-11474
lunch	-11475
umes	-11476
That	-11477
gate	-11478
▁plug	-11479
▁remake	-11480
yyy	-11481
agle	-11482
ettuccine	-11483
▁Imm	-11484
There	-11485
▁ignoring	-11486
▁turf	-11487
bee	-11488
▁wherever	-11489
big	-11490
▁thigh	-11491
▁Pulled	-11492
▁Bru	-11493
cap	-11494
zard	-11495
▁costumer	-11496
vlaki	-11497
athered	-11498
▁series	-11499
▁anxious	-11500
▁mol	-11501
▁Party	-11502
▁rely	-11503
▁fallen	-11504
▁alb	-11505
▁TOO	-11506
ingo	-11507
▁mistaken	-11508
lol	-11509
othing	-11510
▁gumbo	-11511
rey	-11512
▁Temp	-11513
▁ethnic	-11514
▁Latte	-11515
▁trimmed	-11516
izable	-11517
munication	-11518
through	-11519
▁um	-11520
▁Sports	-11521
▁stiff	-11522
▁cass	-11523
▁Line	-11524
▁fart	-11525
▁lamps	-11526
▁racks	-11527
▁weeknight	-11528
▁solve	-11529
▁Ka	-11530
▁Vanilla	-11531
▁justice	-11532
▁($5	-11533
▁considerate	-11534
▁Sang	-11535
▁NOW	-11536
medium	-11537
uded	-11538
▁brilliant	-11539
▁Mondays	-11540
etta	-11541
oos	-11542
▁assure	-11543
▁device	-11544
▁landed	-11545
lleno	-11546
▁stylish	-11547
/18	-11548
ensington	-11549
▁billed	-11550
▁drip	-11551
▁Plumbing	-11552
▁metro	-11553
▁creations	-11554
▁dun	-11555
▁freakin	-11556
▁appropriately	-11557
▁cob	-11558
love	-11559
▁substantial	-11560
ista	-11561
▁Sashimi	-11562
▁inappropri	-11563
OMB	-11564
▁3:30	-11565
▁20-30	-11566
▁stove	-11567
isan	-11568
▁ventured	-11569
▁essential	-11570
▁english	-11571
▁packing	-11572
rata	-11573
eye	-11574
▁Penn	-11575
▁bol	-11576
▁waa	-11577
gyu	-11578
▁wrist	-11579
▁overcharged	-11580
▁$28	-11581
▁laying	-11582
icies	-11583
hey	-11584
▁drops	-11585
▁transl	-11586
▁reads	-11587
▁sees	-11588
ESE	-11589
▁United	-11590
▁upcoming	-11591
week	-11592
▁plated	-11593
anut	-11594
▁maki	-11595
▁overbearing	-11596
ressive	-11597
▁Nap	-11598
▁acai	-11599
▁petite	-11600
▁Emp	-11601
▁hub	-11602
▁wagyu	-11603
▁absurd	-11604
IA	-11605
▁Head	-11606
▁snap	-11607
▁hospitable	-11608
▁apologizing	-11609
ounded	-11610
▁Cesar	-11611
▁lavender	-11612
inst	-11613
▁wandering	-11614
▁ignor	-11615
▁5,	-11616
ublic	-11617
▁affect	-11618
tyard	-11619
▁tanning	-11620
▁okra	-11621
▁hiking	-11622
▁Friends	-11623
▁gathering	-11624
veg	-11625
▁budd	-11626
▁Color	-11627
▁sympt	-11628
▁IH	-11629
▁dingy	-11630
▁picks	-11631
▁Eth	-11632
▁dynam	-11633
onnaise	-11634
dom	-11635
▁cajun	-11636
▁authenticity	-11637
▁CC	-11638
▁instance	-11639
▁fryer	-11640
▁jumping	-11641
▁proceeds	-11642
▁Disney	-11643
▁Waffles	-11644
▁aquarium	-11645
▁FRI	-11646
▁kudos	-11647
▁skirt	-11648
▁Ap	-11649
delicious	-11650
UE	-11651
rets	-11652
hattan	-11653
▁moms	-11654
▁Britt	-11655
▁techniques	-11656
▁loads	-11657
ando	-11658
zech	-11659
▁Funny	-11660
▁Init	-11661
▁greets	-11662
▁Walgreens	-11663
▁rig	-11664
▁pretend	-11665
▁vraiment	-11666
hrs	-11667
▁hotter	-11668
almost	-11669
▁blows	-11670
▁strictly	-11671
▁addictive	-11672
▁engagement	-11673
redit	-11674
▁shru	-11675
▁radish	-11676
▁diced	-11677
▁rows	-11678
▁mirrors	-11679
steak	-11680
▁diab	-11681
foam	-11682
▁Everytime	-11683
▁saucy	-11684
▁Omelet	-11685
▁decades	-11686
▁slee	-11687
▁Steakhouse	-11688
lands	-11689
apping	-11690
▁Harr	-11691
▁beg	-11692
▁EAT	-11693
uguese	-11694
▁registration	-11695
▁virtually	-11696
didn	-11697
yeah	-11698
▁cafes	-11699
iner	-11700
▁Forget	-11701
▁viewing	-11702
▁diagnost	-11703
▁occurred	-11704
▁offended	-11705
▁Spinach	-11706
hab	-11707
▁longest	-11708
sea	-11709
▁Doll	-11710
▁adjustments	-11711
▁Dumpl	-11712
▁pains	-11713
▁stones	-11714
▁muscles	-11715
▁forgetting	-11716
▁Melt	-11717
ordable	-11718
HA	-11719
eez	-11720
super	-11721
▁dill	-11722
▁uncle	-11723
▁coolest	-11724
▁mixing	-11725
▁circle	-11726
▁Fed	-11727
▁reminiscent	-11728
▁nest	-11729
▁panel	-11730
▁invoice	-11731
▁drawback	-11732
▁Beat	-11733
▁genius	-11734
▁PT	-11735
▁disag	-11736
▁Carlos	-11737
apper	-11738
▁yolk	-11739
otti	-11740
egg	-11741
-4	-11742
▁brag	-11743
▁dentists	-11744
▁theres	-11745
▁unassuming	-11746
ioned	-11747
rimin	-11748
▁Social	-11749
▁certified	-11750
irls	-11751
▁$15.	-11752
▁croutons	-11753
▁jerky	-11754
▁hoag	-11755
▁improvements	-11756
▁Wicked	-11757
▁curtains	-11758
▁realizing	-11759
▁discour	-11760
owded	-11761
▁packs	-11762
▁surface	-11763
▁soaking	-11764
▁pointing	-11765
▁Kha	-11766
▁precise	-11767
▁Appetizers	-11768
▁chut	-11769
▁der	-11770
▁Matthew	-11771
▁AVO	-11772
wear	-11773
▁ink	-11774
▁thirsty	-11775
▁expanded	-11776
▁ome	-11777
▁proved	-11778
▁Heaven	-11779
▁AAA	-11780
▁caprese	-11781
tails	-11782
▁PHX	-11783
▁teaching	-11784
ardens	-11785
▁fanc	-11786
▁1,	-11787
▁blanket	-11788
▁turnover	-11789
INK	-11790
▁mug	-11791
OD	-11792
aro	-11793
▁Jean	-11794
▁illeg	-11795
▁Ambience	-11796
▁Cou	-11797
▁nine	-11798
▁Sit	-11799
▁stuffy	-11800
▁tamale	-11801
▁tipping	-11802
▁national	-11803
umin	-11804
▁Beans	-11805
▁subur	-11806
▁Studio	-11807
tub	-11808
▁EXTREM	-11809
▁situated	-11810
▁referring	-11811
ometown	-11812
▁prawns	-11813
▁birthdays	-11814
Amer	-11815
▁rim	-11816
▁Truffle	-11817
agi	-11818
▁impact	-11819
▁climbing	-11820
rice	-11821
▁Tavern	-11822
▁downright	-11823
▁lips	-11824
▁Du	-11825
▁$1000	-11826
▁spicier	-11827
▁Caribbean	-11828
▁automatic	-11829
iac	-11830
▁Elvis	-11831
ottsdale	-11832
▁Pers	-11833
▁counters	-11834
▁policies	-11835
▁acqu	-11836
▁aussi	-11837
▁truffles	-11838
ushes	-11839
▁Tina	-11840
▁Florida	-11841
▁existing	-11842
/19	-11843
▁artic	-11844
▁recovery	-11845
bby	-11846
people	-11847
▁$1.50	-11848
▁creamed	-11849
▁slider	-11850
atric	-11851
▁Seemed	-11852
▁accompanying	-11853
WHERE	-11854
resentation	-11855
▁lump	-11856
▁splitting	-11857
")	-11858
▁award	-11859
▁threading	-11860
▁hustle	-11861
dec	-11862
ective	-11863
▁Cox	-11864
▁Tender	-11865
▁iceberg	-11866
▁beaten	-11867
▁distracted	-11868
▁labeled	-11869
▁SUV	-11870
▁soccer	-11871
▁Expensive	-11872
▁CVS	-11873
▁Ele	-11874
drink	-11875
▁Juice	-11876
▁urban	-11877
▁Play	-11878
VD	-11879
stickers	-11880
▁strangers	-11881
lar	-11882
▁Vegetarian	-11883
▁jumbo	-11884
▁biryani	-11885
▁rou	-11886
ashing	-11887
▁fluid	-11888
▁waterfall	-11889
▁savings	-11890
▁demon	-11891
▁County	-11892
▁unreal	-11893
▁Kensington	-11894
browns	-11895
▁angel	-11896
▁emphas	-11897
▁clo	-11898
▁visitor	-11899
▁roots	-11900
▁fillet	-11901
▁guided	-11902
▁elements	-11903
▁Oysters	-11904
▁equivalent	-11905
▁sweetheart	-11906
rr	-11907
ambal	-11908
▁Help	-11909
▁scones	-11910
▁Deal	-11911
▁steel	-11912
▁instit	-11913
nels	-11914
▁bik	-11915
▁throat	-11916
/17	-11917
kish	-11918
▁tropical	-11919
▁therapists	-11920
.95.	-11921
iency	-11922
▁hallways	-11923
▁5-6	-11924
piece	-11925
▁Enough	-11926
▁Skin	-11927
▁papaya	-11928
isticated	-11929
▁Bry	-11930
▁SF	-11931
▁concoction	-11932
▁TL	-11933
udy	-11934
▁atroc	-11935
▁ultra	-11936
▁Aaron	-11937
half	-11938
▁adjustment	-11939
▁souffle	-11940
▁blamed	-11941
▁critical	-11942
▁Easily	-11943
ahn	-11944
▁Modern	-11945
▁36	-11946
ancing	-11947
▁steakhouses	-11948
omp	-11949
▁Eddie	-11950
icana	-11951
Yes	-11952
urst	-11953
▁tremendous	-11954
▁electronic	-11955
▁birth	-11956
/15	-11957
estic	-11958
▁jacuzzi	-11959
▁Bone	-11960
▁intrig	-11961
▁bibimbap	-11962
▁($3	-11963
▁royal	-11964
▁scenery	-11965
▁landscaping	-11966
▁3/4	-11967
▁almonds	-11968
lasses	-11969
▁brownies	-11970
▁Lad	-11971
▁interview	-11972
▁25%	-11973
iration	-11974
▁Juan	-11975
AG	-11976
burgers	-11977
▁indoors	-11978
▁hygienist	-11979
▁succe	-11980
comend	-11981
▁Walk	-11982
▁ventil	-11983
levision	-11984
▁systems	-11985
olone	-11986
▁moon	-11987
▁fois	-11988
bad	-11989
taking	-11990
▁Carlo	-11991
▁UPS	-11992
▁Fore	-11993
▁Outside	-11994
▁wedges	-11995
▁antibi	-11996
▁groomed	-11997
forward	-11998
▁Li	-11999
▁BOMB	-12000
▁garl	-12001
iley	-12002
▁Dip	-12003
▁unimpressed	-12004
perienced	-12005
▁TON	-12006
▁Charlie	-12007
ooks	-12008
▁stair	-12009
▁creams	-12010
▁promising	-12011
onzola	-12012
▁cosmet	-12013
▁cleanest	-12014
▁Lawrence	-12015
▁education	-12016
▁Rather	-12017
▁Compared	-12018
▁scal	-12019
▁Tree	-12020
▁Roast	-12021
▁cave	-12022
▁sunday	-12023
▁granola	-12024
▁Hab	-12025
▁guns	-12026
▁Mostly	-12027
▁visual	-12028
▁Stick	-12029
idently	-12030
▁Nik	-12031
▁achieve	-12032
kets	-12033
▁Crust	-12034
inton	-12035
▁Gelato	-12036
▁criticism	-12037
▁Land	-12038
▁Liber	-12039
ima	-12040
▁Mast	-12041
▁prob	-12042
▁tidy	-12043
▁admin	-12044
adia	-12045
▁pipe	-12046
▁Kar	-12047
▁blinds	-12048
▁80'	-12049
rise	-12050
▁Spent	-12051
▁Crunch	-12052
▁Cross	-12053
▁DMV	-12054
▁caution	-12055
▁(6	-12056
pre	-12057
▁tested	-12058
vo	-12059
everything	-12060
▁hairs	-12061
▁claw	-12062
▁bouncers	-12063
▁flavoring	-12064
▁roommate	-12065
▁Dunkin	-12066
▁rounded	-12067
▁Grab	-12068
▁Pest	-12069
green	-12070
▁Scarborough	-12071
▁buyer	-12072
▁Juicy	-12073
+.	-12074
otics	-12075
▁DEFIN	-12076
▁international	-12077
▁promises	-12078
▁sarc	-12079
▁knee	-12080
cano	-12081
ossibly	-12082
interested	-12083
▁naked	-12084
rofoam	-12085
▁dilig	-12086
▁Strong	-12087
▁bod	-12088
▁DONT	-12089
▁Tommy	-12090
▁friendlier	-12091
PT	-12092
oha	-12093
▁Bloor	-12094
▁Spe	-12095
▁Combo	-12096
▁gems	-12097
▁neon	-12098
▁AVOID	-12099
orgonzola	-12100
----------------	-12101
▁Kara	-12102
▁Close	-12103
▁Meanwhile	-12104
▁Medi	-12105
▁tzatziki	-12106
▁Jerry	-12107
gano	-12108
▁Michel	-12109
▁chaos	-12110
▁exped	-12111
ONEY	-12112
▁racist	-12113
▁Kyle	-12114
▁motel	-12115
▁deviled	-12116
▁circumstances	-12117
▁Brother	-12118
▁humid	-12119
▁Dark	-12120
▁pads	-12121
oodle	-12122
▁innovative	-12123
▁Soft	-12124
▁Wellington	-12125
iable	-12126
regular	-12127
▁Laura	-12128
▁lentil	-12129
▁reputable	-12130
▁masseuse	-12131
▁addicting	-12132
▁Follow	-12133
▁fixtures	-12134
▁symptoms	-12135
▁LONG	-12136
▁transition	-12137
▁Waiting	-12138
▁operate	-12139
▁preferences	-12140
otted	-12141
ament	-12142
▁backs	-12143
▁biased	-12144
▁dram	-12145
ege	-12146
▁EXTREMELY	-12147
▁Cobb	-12148
▁switching	-12149
▁Margaritas	-12150
▁difficulty	-12151
first	-12152
▁Value	-12153
▁Joey	-12154
▁umbre	-12155
uces	-12156
▁WRONG	-12157
▁SNS	-12158
▁thirty	-12159
▁heating	-12160
ibur	-12161
cakes	-12162
▁Chop	-12163
▁suffer	-12164
ASS	-12165
▁Peoria	-12166
▁exploring	-12167
▁stere	-12168
▁NEW	-12169
asc	-12170
oyu	-12171
▁sac	-12172
▁gast	-12173
▁reccomend	-12174
▁lec	-12175
▁Washing	-12176
yum	-12177
uzu	-12178
▁sung	-12179
▁network	-12180
▁impl	-12181
▁SE	-12182
▁fresher	-12183
▁Deep	-12184
▁Jesus	-12185
word	-12186
▁Hostess	-12187
▁fifteen	-12188
aries	-12189
▁urge	-12190
▁Dire	-12191
▁List	-12192
▁beard	-12193
▁portioned	-12194
▁Carr	-12195
▁bitch	-12196
hhhh	-12197
▁Tonk	-12198
▁saturday	-12199
▁Exc	-12200
tip	-12201
amazing	-12202
akase	-12203
▁Ethiop	-12204
▁bow	-12205
▁Extra	-12206
▁workouts	-12207
ui	-12208
▁partially	-12209
buds	-12210
▁outing	-12211
▁channel	-12212
uously	-12213
▁slept	-12214
▁buttermilk	-12215
▁washes	-12216
▁spotted	-12217
▁Plate	-12218
PP	-12219
brunch	-12220
▁Master	-12221
▁Bank	-12222
▁($10	-12223
▁trivia	-12224
▁versions	-12225
▁29	-12226
▁pamp	-12227
▁(10	-12228
▁Gener	-12229
▁appalled	-12230
▁Nonetheless	-12231
▁runner	-12232
▁alas	-12233
ennial	-12234
▁hyped	-12235
▁dull	-12236
▁effic	-12237
▁crafts	-12238
pled	-12239
▁Cantonese	-12240
uvian	-12241
▁SAL	-12242
▁compensation	-12243
ptown	-12244
▁handic	-12245
▁broad	-12246
RA	-12247
▁Anyhow	-12248
▁flowing	-12249
▁japanese	-12250
▁sporting	-12251
▁surgeon	-12252
▁Visiting	-12253
oco	-12254
▁Kr	-12255
▁conscious	-12256
▁Brooklyn	-12257
▁Giant	-12258
▁showroom	-12259
▁computers	-12260
▁$26	-12261
▁vit	-12262
▁pepp	-12263
▁reve	-12264
rene	-12265
▁generously	-12266
▁immaculate	-12267
▁performing	-12268
▁Holid	-12269
▁thinner	-12270
▁Museum	-12271
MENT	-12272
▁Marc	-12273
▁counting	-12274
▁Wagyu	-12275
izen	-12276
▁straws	-12277
▁Urban	-12278
▁Cherry	-12279
▁caffeine	-12280
But	-12281
rett	-12282
▁toss	-12283
▁waist	-12284
▁Wing	-12285
▁NEED	-12286
▁useful	-12287
▁buddies	-12288
▁sidewalk	-12289
▁Jord	-12290
▁lenses	-12291
▁capable	-12292
▁television	-12293
ESH	-12294
▁ABS	-12295
▁Bally	-12296
inating	-12297
western	-12298
▁chap	-12299
▁CD	-12300
▁slam	-12301
▁fiancee	-12302
▁inappropriate	-12303
lished	-12304
▁valuable	-12305
▁Vin	-12306
▁Jerk	-12307
▁Latin	-12308
▁spotty	-12309
▁$29	-12310
ouver	-12311
▁Katsu	-12312
▁Sunset	-12313
▁desperately	-12314
▁Chuck	-12315
rolls	-12316
▁scra	-12317
ancheros	-12318
▁NV	-12319
▁$65	-12320
▁Disgust	-12321
▁tastier	-12322
▁washrooms	-12323
▁connoisseur	-12324
▁ec	-12325
▁trap	-12326
sec	-12327
▁coco	-12328
▁fritters	-12329
ITELY	-12330
mores	-12331
ias	-12332
asts	-12333
▁fauc	-12334
▁hamburgers	-12335
print	-12336
▁ox	-12337
urger	-12338
▁Terri	-12339
▁ringing	-12340
▁discrimin	-12341
▁abundance	-12342
▁frequented	-12343
▁disconn	-12344
EAL	-12345
She	-12346
bro	-12347
thanks	-12348
▁ayce	-12349
▁honored	-12350
▁:/	-12351
▁satisfactory	-12352
▁lining	-12353
▁National	-12354
▁escar	-12355
lay	-12356
▁discussing	-12357
▁Smooth	-12358
▁alfredo	-12359
▁demanded	-12360
▁mut	-12361
▁View	-12362
▁consumer	-12363
▁loop	-12364
▁Checked	-12365
▁Sounds	-12366
waitress	-12367
▁taps	-12368
▁image	-12369
▁drown	-12370
▁seasonings	-12371
atement	-12372
▁gain	-12373
▁IHOP	-12374
▁arena	-12375
▁bubbles	-12376
▁heartbeat	-12377
cons	-12378
▁$120	-12379
▁Todd	-12380
▁Needed	-12381
▁polished	-12382
▁20+	-12383
▁Larry	-12384
▁waxed	-12385
▁Return	-12386
▁featuring	-12387
/16	-12388
▁calming	-12389
▁spas	-12390
▁termin	-12391
▁Soleil	-12392
▁vacc	-12393
rate	-12394
▁Said	-12395
▁opinions	-12396
▁Harris	-12397
▁grapefruit	-12398
▁scare	-12399
▁Fal	-12400
▁cru	-12401
▁pron	-12402
▁Tables	-12403
▁bleeding	-12404
▁Spot	-12405
▁mask	-12406
perfect	-12407
▁clearance	-12408
▁hectic	-12409
▁Mur	-12410
▁pea	-12411
▁Linda	-12412
kyo	-12413
▁bot	-12414
-6	-12415
▁Joy	-12416
▁FINALLY	-12417
minute	-12418
▁Body	-12419
▁boxed	-12420
▁sophisticated	-12421
▁oddly	-12422
make	-12423
▁rotten	-12424
▁tool	-12425
ARD	-12426
remy	-12427
▁Steel	-12428
▁documents	-12429
▁Benny	-12430
▁costumes	-12431
▁INC	-12432
▁Teriyaki	-12433
fries	-12434
frican	-12435
dry	-12436
▁prescriptions	-12437
▁manners	-12438
▁inner	-12439
▁pollo	-12440
ANY	-12441
▁cockro	-12442
▁Others	-12443
asonable	-12444
▁avoiding	-12445
▁guessed	-12446
▁Christian	-12447
▁agents	-12448
▁neglected	-12449
▁object	-12450
▁fait	-12451
▁Peak	-12452
▁advertis	-12453
iland	-12454
▁30%	-12455
▁Liz	-12456
▁Kore	-12457
ku	-12458
nda	-12459
▁Hu	-12460
▁Cooked	-12461
▁Julie	-12462
▁acoust	-12463
▁registers	-12464
laws	-12465
▁wandered	-12466
▁Father	-12467
▁quieter	-12468
▁breweries	-12469
▁Washington	-12470
rare	-12471
▁Team	-12472
arson	-12473
▁Easter	-12474
▁Salads	-12475
▁release	-12476
▁Portuguese	-12477
shit	-12478
▁$21	-12479
▁USE	-12480
▁coats	-12481
aire	-12482
▁moderately	-12483
▁Bass	-12484
▁resulted	-12485
▁DEFINITELY	-12486
▁FAR	-12487
NO	-12488
▁Jalapeno	-12489
▁Alas	-12490
▁atrocious	-12491
▁pearl	-12492
▁Heard	-12493
▁cracker	-12494
eston	-12495
▁evident	-12496
▁Bed	-12497
shirt	-12498
ordered	-12499
▁matching	-12500
▁cigarettes	-12501
▁valued	-12502
▁Feel	-12503
▁shabby	-12504
lics	-12505
▁scratches	-12506
▁handing	-12507
▁YUMM	-12508
gment	-12509
retentious	-12510
orie	-12511
▁Mama	-12512
▁hats	-12513
▁Banh	-12514
▁stream	-12515
▁smog	-12516
tering	-12517
▁salami	-12518
▁candied	-12519
▁pate	-12520
berts	-12521
▁payed	-12522
rio	-12523
▁marshmallow	-12524
▁whites	-12525
▁intrigued	-12526
▁cigars	-12527
▁nonsense	-12528
▁Bravo	-12529
▁wowed	-12530
:10	-12531
▁$23	-12532
▁revol	-12533
ARN	-12534
lie	-12535
▁Baja	-12536
▁baking	-12537
▁nailed	-12538
▁concent	-12539
▁teenagers	-12540
▁developed	-12541
▁Americanized	-12542
▁appreciation	-12543
AA	-12544
▁TRY	-12545
▁Chang	-12546
▁Certain	-12547
▁tandoori	-12548
FORE	-12549
▁goals	-12550
ii	-12551
arest	-12552
▁taqu	-12553
▁scattered	-12554
pork	-12555
▁Sic	-12556
▁Smash	-12557
▁smashed	-12558
atics	-12559
▁MIN	-12560
▁scream	-12561
▁DD	-12562
▁Valet	-12563
▁failure	-12564
hare	-12565
▁Yoga	-12566
▁argument	-12567
▁bridesma	-12568
▁compensate	-12569
comp	-12570
hant	-12571
▁Anything	-12572
anyaki	-12573
********	-12574
▁bridge	-12575
▁Shout	-12576
▁blueberries	-12577
dress	-12578
chanal	-12579
▁Weird	-12580
▁Champaign	-12581
veget	-12582
▁oils	-12583
▁Papa	-12584
▁steady	-12585
▁communicated	-12586
▁tube	-12587
▁wilted	-12588
▁upgrades	-12589
▁yea	-12590
▁hates	-12591
▁lasts	-12592
orning	-12593
▁supper	-12594
▁individually	-12595
safe	-12596
▁lid	-12597
▁Consist	-12598
▁magnific	-12599
tery	-12600
▁antipast	-12601
▁safely	-12602
▁conduct	-12603
IRE	-12604
▁Pic	-12605
▁Mandarin	-12606
▁faced	-12607
▁reaching	-12608
▁remotely	-12609
yr	-12610
ITY	-12611
▁Flat	-12612
▁Persian	-12613
▁layered	-12614
▁Mario	-12615
vest	-12616
▁Uptown	-12617
▁Chat	-12618
▁Jun	-12619
▁MONEY	-12620
oph	-12621
▁Shops	-12622
▁transportation	-12623
▁determine	-12624
undas	-12625
ford	-12626
ENCE	-12627
▁Hi	-12628
▁closely	-12629
norm	-12630
▁Harb	-12631
▁compete	-12632
▁agency	-12633
Veg	-12634
American	-12635
white	-12636
▁Bisc	-12637
▁hopping	-12638
▁tournam	-12639
▁reduction	-12640
▁THEN	-12641
▁outer	-12642
inyl	-12643
▁Tempura	-12644
gency	-12645
▁omelets	-12646
inspired	-12647
▁Masala	-12648
▁bedside	-12649
▁crammed	-12650
▁studying	-12651
lery	-12652
▁Naan	-12653
CKS	-12654
▁$55	-12655
orial	-12656
▁passenger	-12657
▁Shang	-12658
▁owed	-12659
▁pages	-12660
▁pasty	-12661
▁ghost	-12662
▁easiest	-12663
▁Damn	-12664
itches	-12665
▁Jeremy	-12666
whe	-12667
▁repres	-12668
▁stepping	-12669
thora	-12670
▁seed	-12671
▁chopsticks	-12672
▁dept	-12673
ige	-12674
▁chaotic	-12675
▁Initially	-12676
sted	-12677
pic	-12678
▁compelled	-12679
▁haban	-12680
▁phoenix	-12681
▁los	-12682
▁companions	-12683
▁Fu	-12684
inem	-12685
▁Winter	-12686
unless	-12687
▁BEFORE	-12688
▁tunes	-12689
▁rudeness	-12690
▁tastebuds	-12691
mind	-12692
▁Wont	-12693
vice	-12694
▁($6	-12695
▁novelty	-12696
▁splash	-12697
▁Dentist	-12698
▁seal	-12699
▁overhead	-12700
▁95	-12701
▁Use	-12702
cedes	-12703
▁France	-12704
▁underground	-12705
▁math	-12706
▁shack	-12707
▁spoons	-12708
▁healing	-12709
▁gallo	-12710
▁liter	-12711
▁moderate	-12712
▁kabobs	-12713
▁BUS	-12714
▁Prom	-12715
▁alternatives	-12716
▁glowing	-12717
bucks	-12718
▁mystery	-12719
▁utterly	-12720
▁steaming	-12721
▁discussion	-12722
▁Gary	-12723
▁Ross	-12724
▁personalized	-12725
test	-12726
▁Yumm	-12727
BBQ	-12728
▁Wash	-12729
obs	-12730
pretty	-12731
▁Medium	-12732
▁Christina	-12733
▁petit	-12734
▁Ev	-12735
▁KNOW	-12736
▁bound	-12737
▁Pollo	-12738
OLUT	-12739
Be	-12740
▁tha	-12741
▁tags	-12742
▁Liberty	-12743
▁cobbler	-12744
▁immense	-12745
atos	-12746
ucson	-12747
▁Prior	-12748
▁plethora	-12749
▁spam	-12750
▁Yuck	-12751
▁dumped	-12752
▁sealed	-12753
▁$30.	-12754
▁States	-12755
▁Mahi	-12756
▁Boulder	-12757
▁situations	-12758
▁apr	-12759
▁fax	-12760
▁effects	-12761
▁horror	-12762
etc	-12763
▁climb	-12764
▁comme	-12765
▁approval	-12766
▁hometown	-12767
atoni	-12768
▁Pastor	-12769
▁pomegranate	-12770
▁odor	-12771
▁Jackson	-12772
▁descriptions	-12773
overing	-12774
▁Sangria	-12775
▁glue	-12776
▁inspected	-12777
"?	-12778
▁Boys	-12779
▁Polish	-12780
▁Manhattan	-12781
Sp	-12782
acking	-12783
▁Ribeye	-12784
▁margin	-12785
▁resolution	-12786
Re	-12787
alia	-12788
▁Tropicana	-12789
▁butternut	-12790
▁Pu	-12791
▁Fest	-12792
▁OB	-12793
custom	-12794
▁THEIR	-12795
▁psy	-12796
forget	-12797
▁bonne	-12798
▁Signature	-12799
▁styled	-12800
▁terrace	-12801
▁Sen	-12802
▁Standard	-12803
▁official	-12804
▁Dining	-12805
▁powdered	-12806
▁PC	-12807
▁Jamaican	-12808
type	-12809
▁Scallops	-12810
▁Bartenders	-12811
ippers	-12812
school	-12813
▁rudest	-12814
▁nutella	-12815
▁walnuts	-12816
flower	-12817
▁Ethiopian	-12818
avail	-12819
▁Child	-12820
▁chimichanga	-12821
▁McD	-12822
anic	-12823
▁scent	-12824
▁wheelchair	-12825
▁FRESH	-12826
▁survive	-12827
▁Immedi	-12828
▁Enterprise	-12829
▁breadsticks	-12830
▁parks	-12831
▁$9.	-12832
▁shaking	-12833
▁texting	-12834
▁acrylics	-12835
▁hous	-12836
▁Cave	-12837
▁curb	-12838
serve	-12839
▁55	-12840
▁lengthy	-12841
▁SOME	-12842
▁crossed	-12843
coal	-12844
▁releas	-12845
▁Marquee	-12846
rum	-12847
▁Steven	-12848
▁mayonnaise	-12849
heast	-12850
fruit	-12851
▁gimm	-12852
family	-12853
▁Cind	-12854
least	-12855
▁Jenny	-12856
▁Jamie	-12857
▁Therefore	-12858
▁associated	-12859
▁logo	-12860
nis	-12861
▁Girl	-12862
▁skins	-12863
rais	-12864
▁consumed	-12865
▁sadd	-12866
▁Roberto	-12867
oush	-12868
▁hubs	-12869
anchan	-12870
inness	-12871
▁marble	-12872
▁surroundings	-12873
quiles	-12874
without	-12875
▁packaging	-12876
▁encl	-12877
▁Floor	-12878
▁ath	-12879
▁begins	-12880
▁cabana	-12881
▁pale	-12882
/0	-12883
▁spirits	-12884
▁attendants	-12885
▁kiss	-12886
▁kits	-12887
▁Excal	-12888
▁biggie	-12889
▁blocked	-12890
vegan	-12891
▁Tast	-12892
▁9.	-12893
▁Bull	-12894
▁Anytime	-12895
▁mildly	-12896
ervations	-12897
▁$27	-12898
ih	-12899
▁dise	-12900
▁150	-12901
▁disgr	-12902
asse	-12903
▁atop	-12904
brew	-12905
▁11:00	-12906
▁redone	-12907
watering	-12908
▁PRI	-12909
▁bamboo	-12910
NE	-12911
▁2011	-12912
▁Cast	-12913
▁Chow	-12914
▁equipped	-12915
▁clearing	-12916
▁dug	-12917
▁stro	-12918
▁errands	-12919
▁exhausted	-12920
RY	-12921
▁standout	-12922
▁exists	-12923
▁efforts	-12924
▁gay	-12925
▁divers	-12926
▁epis	-12927
▁celebrated	-12928
aimed	-12929
arms	-12930
▁ket	-12931
obello	-12932
▁ft	-12933
▁sites	-12934
▁shank	-12935
▁driveway	-12936
▁Austin	-12937
▁Reasonably	-12938
NY	-12939
▁Dur	-12940
▁Cannot	-12941
▁($8	-12942
▁granted	-12943
▁urine	-12944
▁muscle	-12945
▁temporary	-12946
could	-12947
▁Shawn	-12948
▁quarters	-12949
ambalaya	-12950
▁Brussel	-12951
▁flavoured	-12952
ship	-12953
▁peeling	-12954
ere	-12955
▁Peanut	-12956
▁bizarre	-12957
▁Travel	-12958
▁accommodations	-12959
▁understatement	-12960
▁9:00	-12961
▁shr	-12962
▁solved	-12963
would	-12964
▁bathtub	-12965
▁celebrity	-12966
▁relaxation	-12967
rics	-12968
▁$12.	-12969
▁Asia	-12970
▁continuously	-12971
▁sriracha	-12972
▁kit	-12973
▁Bros	-12974
▁flair	-12975
▁revisit	-12976
hub	-12977
open	-12978
▁sau	-12979
▁sheer	-12980
▁vegans	-12981
PE	-12982
once	-12983
take	-12984
zing	-12985
▁Harrah	-12986
▁altogether	-12987
▁dear	-12988
▁bubbly	-12989
beer	-12990
▁souvlaki	-12991
achable	-12992
▁drying	-12993
▁Elect	-12994
▁architecture	-12995
▁extend	-12996
▁Thailand	-12997
ession	-12998
▁threatened	-12999
▁escorted	-13000
▁Pineapple	-13001
▁QU	-13002
▁bakeries	-13003
yc	-13004
TS	-13005
▁encouraging	-13006
lightly	-13007
▁meantime	-13008
▁suis	-13009
▁height	-13010
▁retrie	-13011
▁palette	-13012
▁8:00	-13013
▁coma	-13014
▁).	-13015
▁Neg	-13016
▁partying	-13017
▁Presentation	-13018
plex	-13019
▁reps	-13020
▁bleu	-13021
▁advisor	-13022
ampi	-13023
▁Hidden	-13024
▁carniv	-13025
▁explos	-13026
atable	-13027
▁110	-13028
▁raz	-13029
▁:).	-13030
▁haw	-13031
▁dudes	-13032
stein	-13033
umbling	-13034
▁facts	-13035
▁ABSOLUT	-13036
▁Boo	-13037
▁Emily	-13038
▁mur	-13039
▁Bec	-13040
▁Vol	-13041
▁soooooo	-13042
▁Katie	-13043
▁Tucson	-13044
▁Verizon	-13045
▁unsatisfied	-13046
▁sliding	-13047
▁habanero	-13048
▁stalls	-13049
▁weigh	-13050
▁gosh	-13051
▁Spice	-13052
▁beloved	-13053
▁elevated	-13054
▁bustling	-13055
asco	-13056
okes	-13057
▁Mint	-13058
▁Pain	-13059
▁roaches	-13060
ya	-13061
▁FL	-13062
▁Tyler	-13063
▁omelettes	-13064
▁grumpy	-13065
▁Belgian	-13066
shirts	-13067
▁RA	-13068
inge	-13069
iller	-13070
▁Tokyo	-13071
▁Lauren	-13072
▁forks	-13073
▁wre	-13074
ggies	-13075
ateur	-13076
▁interacted	-13077
▁receipts	-13078
▁quirky	-13079
▁Disgusting	-13080
▁feeding	-13081
▁flagged	-13082
▁5)	-13083
▁brothers	-13084
Go	-13085
▁troubles	-13086
always	-13087
▁worthwhile	-13088
▁mak	-13089
▁paintings	-13090
▁faves	-13091
▁Furthermore	-13092
▁romaine	-13093
▁torte	-13094
▁tepp	-13095
▁courts	-13096
▁kiddos	-13097
▁Believe	-13098
▁commitment	-13099
▁Mile	-13100
▁redeeming	-13101
▁$90	-13102
▁tiles	-13103
▁Jasmine	-13104
▁Trying	-13105
know	-13106
▁7:00	-13107
▁designated	-13108
▁awe	-13109
▁Defin	-13110
▁douche	-13111
▁instructed	-13112
ainer	-13113
▁Mich	-13114
▁wander	-13115
▁handles	-13116
zechuan	-13117
▁modest	-13118
▁claiming	-13119
▁WHY	-13120
▁converted	-13121
▁continually	-13122
▁Cul	-13123
osing	-13124
▁bid	-13125
▁Cole	-13126
▁installing	-13127
price	-13128
▁vict	-13129
▁counted	-13130
▁characters	-13131
▁Et	-13132
ondon	-13133
▁palm	-13134
▁$3.50	-13135
▁Anna	-13136
▁bund	-13137
▁Whoever	-13138
▁inha	-13139
VOR	-13140
▁diagnose	-13141
▁creates	-13142
▁Excalibur	-13143
▁Bella	-13144
▁pitchers	-13145
ielle	-13146
▁HOWEVER	-13147
abilia	-13148
wart	-13149
▁Gras	-13150
▁COMPANY	-13151
▁101	-13152
wr	-13153
col	-13154
anded	-13155
▁decline	-13156
▁musical	-13157
▁poo	-13158
▁Peruvian	-13159
obby	-13160
▁summary	-13161
▁Nevertheless	-13162
▁macaron	-13163
▁cheat	-13164
▁Ontario	-13165
amba	-13166
▁enthusiasm	-13167
▁Ak	-13168
repared	-13169
▁Rav	-13170
igan	-13171
▁COME	-13172
▁Wrong	-13173
▁committed	-13174
▁pockets	-13175
▁linguine	-13176
▁Lib	-13177
▁DAY	-13178
▁script	-13179
Cal	-13180
99	-13181
akaya	-13182
roph	-13183
▁Craft	-13184
▁enfor	-13185
po	-13186
▁rotisserie	-13187
atures	-13188
▁Victoria	-13189
▁Kn	-13190
▁kalbi	-13191
▁zip	-13192
▁Republic	-13193
▁suffering	-13194
▁legend	-13195
▁monster	-13196
▁afterward	-13197
ete	-13198
build	-13199
▁radi	-13200
▁chase	-13201
▁rabbit	-13202
ugged	-13203
▁Stri	-13204
backs	-13205
▁outfit	-13206
▁relieved	-13207
▁suited	-13208
▁blat	-13209
▁roomy	-13210
▁negatives	-13211
▁Miller	-13212
▁judgement	-13213
▁African	-13214
edly	-13215
▁Bot	-13216
▁appointed	-13217
emy	-13218
▁Ble	-13219
▁vape	-13220
▁reminder	-13221
Do	-13222
icate	-13223
perial	-13224
fficient	-13225
▁soothing	-13226
amm	-13227
▁compares	-13228
▁intimidating	-13229
minutes	-13230
▁Russian	-13231
dict	-13232
▁dissapointed	-13233
oman	-13234
▁nearest	-13235
▁PRO	-13236
▁Hung	-13237
▁sipping	-13238
▁imported	-13239
▁Sitting	-13240
pay	-13241
-15	-13242
▁Church	-13243
▁filler	-13244
▁hurting	-13245
▁torta	-13246
▁surpass	-13247
ancouver	-13248
▁lemongrass	-13249
▁scorp	-13250
▁Hummus	-13251
istle	-13252
▁continuing	-13253
zer	-13254
▁crabs	-13255
▁pattern	-13256
▁spinning	-13257
▁mere	-13258
▁heap	-13259
▁potstickers	-13260
▁Heart	-13261
▁Arc	-13262
SP	-13263
TC	-13264
umn	-13265
▁provolone	-13266
▁illegal	-13267
▁fettuccine	-13268
▁magnificent	-13269
▁Charleston	-13270
▁potentially	-13271
▁pond	-13272
▁Prem	-13273
▁awa	-13274
IDE	-13275
▁AR	-13276
assi	-13277
▁science	-13278
▁Immediately	-13279
usually	-13280
▁Singap	-13281
▁Crystal	-13282
▁("	-13283
▁~$	-13284
▁supreme	-13285
ulti	-13286
▁glam	-13287
▁juke	-13288
▁Lexus	-13289
beatable	-13290
▁pregnancy	-13291
▁Pier	-13292
▁WHO	-13293
▁promo	-13294
▁circus	-13295
▁director	-13296
▁Rod	-13297
▁mats	-13298
▁idiots	-13299
▁experiment	-13300
▁ventilation	-13301
How	-13302
izer	-13303
▁fixe	-13304
▁TJ	-13305
▁Foie	-13306
▁garlicky	-13307
▁competitor	-13308
▁anti	-13309
filled	-13310
▁Elite	-13311
▁fade	-13312
▁paradise	-13313
▁operating	-13314
▁OJ	-13315
▁wis	-13316
▁Purcha	-13317
▁Guacamole	-13318
AST	-13319
▁maid	-13320
▁Sep	-13321
crowded	-13322
▁Jordan	-13323
▁parfait	-13324
▁memorabilia	-13325
AB	-13326
▁unbe	-13327
▁chemicals	-13328
▁gum	-13329
▁condensed	-13330
▁dur	-13331
▁delays	-13332
otive	-13333
▁Mini	-13334
▁Fig	-13335
enced	-13336
▁Luke	-13337
▁Gluten	-13338
▁jaw	-13339
▁Drove	-13340
▁Mt	-13341
▁drum	-13342
▁historic	-13343
▁commission	-13344
▁Si	-13345
erkraut	-13346
▁killing	-13347
▁Restaurants	-13348
clock	-13349
▁struck	-13350
▁farmers	-13351
hetically	-13352
TO	-13353
▁punct	-13354
▁slimy	-13355
▁misters	-13356
▁hurts	-13357
▁blessed	-13358
▁sincerely	-13359
▁hashbrowns	-13360
▁bye	-13361
▁Creat	-13362
▁samm	-13363
▁hosted	-13364
▁costing	-13365
▁contractors	-13366
▁village	-13367
▁sandwhich	-13368
▁Comes	-13369
▁melting	-13370
wash	-13371
▁Pricey	-13372
▁components	-13373
▁Guinness	-13374
▁Pacific	-13375
▁comprom	-13376
▁channels	-13377
Can	-13378
artment	-13379
▁assisting	-13380
fire	-13381
▁Grey	-13382
▁Tour	-13383
▁AWFUL	-13384
▁Sir	-13385
▁Barrel	-13386
▁darker	-13387
acoa	-13388
existent	-13389
▁collard	-13390
▁judging	-13391
▁accustom	-13392
▁understands	-13393
▁swall	-13394
▁Richmond	-13395
▁tostada	-13396
eee	-13397
▁Key	-13398
▁10:00	-13399
▁caters	-13400
▁Mercedes	-13401
▁Seeing	-13402
▁Patio	-13403
adays	-13404
▁dimly	-13405
▁Turkish	-13406
▁managing	-13407
▁Bacchanal	-13408
▁Cocktails	-13409
▁Sides	-13410
▁London	-13411
▁Fort	-13412
▁lawyer	-13413
▁orth	-13414
▁Typically	-13415
.99)	-13416
oler	-13417
ences	-13418
▁Dollar	-13419
▁Affordable	-13420
▁bin	-13421
▁ancho	-13422
▁shades	-13423
▁gallery	-13424
▁listing	-13425
▁Waste	-13426
cellent	-13427
▁EN	-13428
▁overdue	-13429
▁carbonara	-13430
▁diff	-13431
▁shif	-13432
▁#3	-13433
▁suggesting	-13434
▁Unique	-13435
▁Mediocre	-13436
▁bom	-13437
rition	-13438
▁bumped	-13439
Mart	-13440
▁WAIT	-13441
▁sober	-13442
▁fajita	-13443
class	-13444
▁Martini	-13445
▁visually	-13446
▁dj	-13447
wich	-13448
▁Mayo	-13449
▁GU	-13450
▁$600	-13451
▁ga	-13452
llip	-13453
▁disab	-13454
▁compre	-13455
▁accounts	-13456
▁sunglasses	-13457
▁caliber	-13458
▁urgency	-13459
apia	-13460
▁relleno	-13461
▁coloring	-13462
must	-13463
▁lava	-13464
annah	-13465
▁Ramsey	-13466
▁noticing	-13467
▁wrapping	-13468
▁65	-13469
▁chewing	-13470
▁communal	-13471
▁Safeway	-13472
▁According	-13473
pas	-13474
raft	-13475
opped	-13476
icans	-13477
▁floral	-13478
▁advanced	-13479
▁careless	-13480
▁courtyard	-13481
▁arom	-13482
smoking	-13483
▁jasmine	-13484
▁mandatory	-13485
▁BUY	-13486
▁brace	-13487
▁Grille	-13488
▁baskets	-13489
osity	-13490
▁bison	-13491
▁Nord	-13492
▁tanks	-13493
▁foreign	-13494
▁Eggplant	-13495
▁asap	-13496
ppe	-13497
▁bait	-13498
▁hardware	-13499
▁instruction	-13500
▁sanit	-13501
▁schnitzel	-13502
▁WON	-13503
▁Outback	-13504
arned	-13505
▁installer	-13506
vals	-13507
▁remar	-13508
▁breathing	-13509
pop	-13510
▁($9	-13511
▁Megan	-13512
▁Martin	-13513
▁British	-13514
▁sweating	-13515
ossom	-13516
▁chutney	-13517
▁Somehow	-13518
nn	-13519
▁blankets	-13520
▁Set	-13521
▁aux	-13522
▁outf	-13523
▁RIGHT	-13524
▁heaters	-13525
▁merely	-13526
▁Parm	-13527
▁Public	-13528
▁supportive	-13529
▁refresh	-13530
▁Ladies	-13531
▁struggled	-13532
▁substance	-13533
▁manufacturer	-13534
je	-13535
▁Pump	-13536
▁Lola	-13537
▁technically	-13538
▁Ren	-13539
▁vinyl	-13540
▁Tso	-13541
▁Hom	-13542
▁plugs	-13543
▁complemented	-13544
ulpt	-13545
▁Chel	-13546
▁VEGAS	-13547
▁homework	-13548
▁Everybody	-13549
▁inexperienced	-13550
▁Brie	-13551
▁coach	-13552
▁scalp	-13553
▁obsc	-13554
bling	-13555
▁STAR	-13556
▁caviar	-13557
▁resturant	-13558
burg	-13559
▁speci	-13560
▁$1,	-13561
▁fer	-13562
▁trial	-13563
▁positives	-13564
▁Holiday	-13565
gled	-13566
sole	-13567
▁condiment	-13568
▁cabinet	-13569
▁chickpe	-13570
▁submitted	-13571
▁brushed	-13572
▁10+	-13573
ben	-13574
lime	-13575
▁Chase	-13576
▁Hel	-13577
▁cured	-13578
▁intell	-13579
ouch	-13580
▁parmig	-13581
epsi	-13582
▁beign	-13583
▁Tiramisu	-13584
▁crooked	-13585
accia	-13586
▁liar	-13587
▁precious	-13588
.99,	-13589
encies	-13590
▁digress	-13591
▁mond	-13592
▁sinks	-13593
▁6:00	-13594
▁exceed	-13595
▁tied	-13596
▁oasis	-13597
ilaquiles	-13598
-30	-13599
oran	-13600
▁remodeling	-13601
▁lac	-13602
▁ultras	-13603
▁speech	-13604
▁impressions	-13605
pick	-13606
▁clever	-13607
isty	-13608
▁digging	-13609
VES	-13610
aks	-13611
▁Mai	-13612
▁unapp	-13613
▁rocked	-13614
▁observed	-13615
▁Suites	-13616
▁figuring	-13617
▁Nathan	-13618
ertz	-13619
GG	-13620
boards	-13621
forth	-13622
▁CLEAN	-13623
-11	-13624
▁(8	-13625
▁grac	-13626
▁pizzeria	-13627
▁Vancouver	-13628
▁choix	-13629
▁insulting	-13630
▁cowboy	-13631
▁borderline	-13632
▁customized	-13633
cool	-13634
▁gray	-13635
▁Glass	-13636
▁resour	-13637
▁Bathrooms	-13638
▁($7	-13639
▁timers	-13640
▁cris	-13641
▁Margherita	-13642
▁guidance	-13643
▁destroyed	-13644
▁WANT	-13645
▁Keg	-13646
▁$50.	-13647
▁polit	-13648
▁appreciative	-13649
▁dial	-13650
ORT	-13651
▁EM	-13652
▁College	-13653
lying	-13654
▁swiss	-13655
▁boyfriends	-13656
▁Odd	-13657
▁temps	-13658
▁pours	-13659
▁valve	-13660
IENCE	-13661
▁porter	-13662
ekend	-13663
▁Cuisine	-13664
▁contains	-13665
▁dele	-13666
▁values	-13667
▁warmth	-13668
▁goodbye	-13669
▁tablet	-13670
▁Cookie	-13671
Sh	-13672
pher	-13673
inder	-13674
▁Northern	-13675
▁scratched	-13676
▁minced	-13677
ounding	-13678
▁investment	-13679
rer	-13680
▁Tik	-13681
▁Randy	-13682
▁efficiency	-13683
IB	-13684
▁indec	-13685
▁gallon	-13686
▁Pil	-13687
bra	-13688
▁Around	-13689
▁neut	-13690
▁links	-13691
▁definition	-13692
▁outta	-13693
▁unfair	-13694
▁bursting	-13695
▁Eating	-13696
▁Ruth	-13697
▁kicking	-13698
anti	-13699
▁disple	-13700
▁survey	-13701
▁antique	-13702
▁Moo	-13703
▁upsetting	-13704
▁overpowered	-13705
All	-13706
▁OP	-13707
▁unbeatable	-13708
▁pars	-13709
asar	-13710
shrimp	-13711
▁Shady	-13712
▁printing	-13713
undai	-13714
▁horrific	-13715
IX	-13716
otes	-13717
▁cutlery	-13718
▁31	-13719
▁10,	-13720
▁coz	-13721
▁suitable	-13722
strom	-13723
▁creation	-13724
grav	-13725
▁hosting	-13726
▁dressings	-13727
▁Kent	-13728
▁straightforward	-13729
▁gan	-13730
state	-13731
▁unreasonable	-13732
inkle	-13733
sty	-13734
▁boil	-13735
▁cutest	-13736
▁relish	-13737
▁collections	-13738
OOK	-13739
▁Yup	-13740
▁Natur	-13741
▁groomers	-13742
▁estimates	-13743
▁disreg	-13744
▁calorie	-13745
▁Kale	-13746
drinks	-13747
▁glitter	-13748
▁sanitary	-13749
▁Mosc	-13750
▁graduation	-13751
▁bolognese	-13752
rust	-13753
▁pups	-13754
▁rentals	-13755
▁pints	-13756
eh	-13757
▁rant	-13758
melier	-13759
SH	-13760
▁nickel	-13761
▁Lakewood	-13762
▁magazines	-13763
▁performances	-13764
▁sleek	-13765
▁steering	-13766
▁snot	-13767
▁disagree	-13768
▁CONS	-13769
▁drives	-13770
▁quail	-13771
▁pampered	-13772
▁tee	-13773
isure	-13774
▁travels	-13775
▁Pec	-13776
▁Cindy	-13777
▁minds	-13778
▁faire	-13779
▁posts	-13780
▁mellow	-13781
▁premises	-13782
opened	-13783
▁pairings	-13784
▁Sicilian	-13785
loom	-13786
▁Sab	-13787
▁mast	-13788
▁happiness	-13789
marked	-13790
▁plats	-13791
▁wishing	-13792
▁Kia	-13793
▁$25.	-13794
▁glut	-13795
▁diagnostic	-13796
▁Trans	-13797
cup	-13798
▁sust	-13799
course	-13800
▁prints	-13801
▁strike	-13802
▁sarcastic	-13803
IEW	-13804
▁ORDER	-13805
▁accustomed	-13806
▁boom	-13807
▁overflowing	-13808
▁Tus	-13809
▁Houst	-13810
▁Kenny	-13811
▁Pepsi	-13812
hal	-13813
▁Veter	-13814
▁Danielle	-13815
phones	-13816
▁foodies	-13817
▁Thumbs	-13818
▁melon	-13819
aimer	-13820
seriously	-13821
▁believed	-13822
▁proteins	-13823
▁Pour	-13824
▁Veal	-13825
rapped	-13826
standard	-13827
iao	-13828
▁ba	-13829
▁bouquet	-13830
▁Mills	-13831
▁crawl	-13832
▁relig	-13833
section	-13834
▁Clinic	-13835
▁burrata	-13836
▁Delish	-13837
▁interrupted	-13838
cking	-13839
▁Tres	-13840
NOT	-13841
▁Mixed	-13842
▁posters	-13843
coffee	-13844
▁Thats	-13845
▁Homemade	-13846
▁Oscar	-13847
▁sprayed	-13848
▁charcoal	-13849
▁Welcome	-13850
CT	-13851
etic	-13852
haha	-13853
OND	-13854
▁coin	-13855
▁Bouchon	-13856
▁magazine	-13857
uini	-13858
▁benny	-13859
▁marvel	-13860
ipper	-13861
▁gals	-13862
grilled	-13863
▁Spaghetti	-13864
▁18%	-13865
▁MANY	-13866
▁Organ	-13867
▁Generally	-13868
iro	-13869
obl	-13870
▁hicc	-13871
▁nause	-13872
oration	-13873
▁Warning	-13874
▁Bub	-13875
▁audio	-13876
▁85	-13877
▁abrupt	-13878
▁intend	-13879
▁Fer	-13880
▁jun	-13881
ULOUS	-13882
▁pong	-13883
umption	-13884
▁buttered	-13885
dar	-13886
▁Repair	-13887
▁hiding	-13888
▁DVD	-13889
▁Young	-13890
▁Springs	-13891
▁mode	-13892
▁busiest	-13893
anity	-13894
cient	-13895
▁bachelor	-13896
▁miracle	-13897
▁servicing	-13898
size	-13899
▁ANYTHING	-13900
▁patronize	-13901
▁whats	-13902
▁sprinkles	-13903
▁aggrav	-13904
▁dosa	-13905
rently	-13906
▁rapid	-13907
▁styling	-13908
▁errors	-13909
▁sno	-13910
▁lifting	-13911
▁Absolute	-13912
16	-13913
▁Pete	-13914
icia	-13915
▁Wolf	-13916
sn	-13917
▁texts	-13918
▁CP	-13919
salad	-13920
▁starbucks	-13921
▁haun	-13922
▁actions	-13923
▁tactics	-13924
available	-13925
▁faux	-13926
▁Earth	-13927
▁alongside	-13928
▁Treat	-13929
▁Matcha	-13930
▁6,	-13931
grade	-13932
▁Oyster	-13933
▁barrier	-13934
▁quart	-13935
▁Henry	-13936
iger	-13937
▁reimburse	-13938
▁ete	-13939
▁dusty	-13940
▁specialize	-13941
▁storefront	-13942
ukee	-13943
▁wig	-13944
▁digital	-13945
esh	-13946
fil	-13947
▁absor	-13948
wat	-13949
▁mountains	-13950
▁Miam	-13951
▁Karen	-13952
▁Vet	-13953
▁economy	-13954
▁Angela	-13955
lot	-13956
iesta	-13957
▁Susan	-13958
ighed	-13959
WN	-13960
▁bustle	-13961
▁Certainly	-13962
▁Hertz	-13963
▁dispute	-13964
▁Dol	-13965
▁Peach	-13966
▁fasc	-13967
▁THREE	-13968
▁Macar	-13969
▁bullshit	-13970
uca	-13971
▁thumb	-13972
erole	-13973
▁Dundas	-13974
▁sauerkraut	-13975
▁kar	-13976
▁hose	-13977
▁farther	-13978
▁Hort	-13979
▁Brothers	-13980
▁Maple	-13981
▁lifestyle	-13982
▁Grub	-13983
▁$10,	-13984
▁Eagle	-13985
foot	-13986
▁takoyaki	-13987
▁suffered	-13988
▁dragged	-13989
▁pecans	-13990
▁cooling	-13991
literally	-13992
▁accomodating	-13993
▁ranges	-13994
▁prescribed	-13995
▁guards	-13996
▁offensive	-13997
▁Mignon	-13998
▁styrofoam	-13999
▁tin	-14000
▁Sooo	-14001
▁escargot	-14002
▁Brittany	-14003
▁gang	-14004
▁2/5	-14005
▁defensive	-14006
▁reverse	-14007
▁airports	-14008
▁specializes	-14009
▁tennis	-14010
▁motorcy	-14011
▁duct	-14012
▁knocking	-14013
hs	-14014
▁sed	-14015
▁inventive	-14016
▁forgettable	-14017
▁breathtaking	-14018
etizing	-14019
▁breathe	-14020
▁qualified	-14021
▁HOA	-14022
▁capers	-14023
▁follows	-14024
▁functional	-14025
▁han	-14026
▁tours	-14027
▁Charles	-14028
▁misunder	-14029
$$	-14030
▁produced	-14031
▁Btw	-14032
▁patch	-14033
▁kicker	-14034
▁Opt	-14035
▁tempting	-14036
▁$32	-14037
liner	-14038
▁WOULD	-14039
watch	-14040
▁icecream	-14041
▁Eh	-14042
▁Secret	-14043
Bl	-14044
alling	-14045
irable	-14046
eled	-14047
▁Sapp	-14048
iab	-14049
ieces	-14050
▁hairdress	-14051
Ok	-14052
▁slides	-14053
▁workmanship	-14054
▁Doug	-14055
▁Theres	-14056
▁ripe	-14057
▁tubs	-14058
▁scone	-14059
▁expertly	-14060
▁5:00	-14061
▁Nancy	-14062
▁thermost	-14063
▁Kell	-14064
ptional	-14065
▁Dogs	-14066
▁chit	-14067
afe	-14068
▁rug	-14069
▁Wednesdays	-14070
▁concession	-14071
▁AH	-14072
▁inn	-14073
▁scotch	-14074
pliment	-14075
▁Triple	-14076
▁Ess	-14077
▁newsp	-14078
erning	-14079
▁rubbed	-14080
▁bend	-14081
▁malls	-14082
arind	-14083
▁pant	-14084
▁Uncle	-14085
▁($4	-14086
▁Twice	-14087
▁irritating	-14088
UP	-14089
▁stealing	-14090
▁perk	-14091
▁fluke	-14092
▁Hyundai	-14093
daughter	-14094
mentioned	-14095
▁indication	-14096
▁established	-14097
▁Mort	-14098
▁oldest	-14099
▁hairsty	-14100
▁passable	-14101
ayer	-14102
▁90'	-14103
▁messing	-14104
▁swap	-14105
▁PAR	-14106
▁Shar	-14107
▁banchan	-14108
▁pharmac	-14109
▁Lab	-14110
▁Mix	-14111
▁EVEN	-14112
▁disease	-14113
▁responses	-14114
▁timeshare	-14115
vegas	-14116
▁Game	-14117
▁Owners	-14118
▁models	-14119
▁preface	-14120
▁electronics	-14121
essa	-14122
▁Ber	-14123
fta	-14124
visions	-14125
▁Americano	-14126
▁nostalgic	-14127
▁Throughout	-14128
rav	-14129
▁dye	-14130
▁Casa	-14131
▁UNLV	-14132
▁teenage	-14133
athan	-14134
▁brun	-14135
▁aftertaste	-14136
ACH	-14137
▁BJ	-14138
eyes	-14139
▁tails	-14140
▁retired	-14141
owdy	-14142
▁smelly	-14143
▁episode	-14144
▁sche	-14145
▁hoagie	-14146
▁persons	-14147
chef	-14148
plan	-14149
▁Firstly	-14150
▁sourced	-14151
▁burst	-14152
▁peeps	-14153
ultiple	-14154
▁Hooters	-14155
▁awkwardly	-14156
▁lox	-14157
▁ding	-14158
▁Dish	-14159
ilets	-14160
/5)	-14161
▁Busy	-14162
extra	-14163
▁chuck	-14164
▁leisure	-14165
▁Appetizer	-14166
▁Daddy	-14167
FE	-14168
▁Houston	-14169
▁ignorant	-14170
▁Arcadia	-14171
bt	-14172
etait	-14173
▁flush	-14174
▁region	-14175
▁sweetened	-14176
▁FIR	-14177
▁packets	-14178
▁sounding	-14179
▁HD	-14180
▁Pom	-14181
▁teens	-14182
▁ordeal	-14183
▁Ridge	-14184
▁Stuffed	-14185
▁landscape	-14186
▁Jones	-14187
ondition	-14188
▁Snow	-14189
▁role	-14190
▁HAPP	-14191
▁wins	-14192
▁80%	-14193
▁Worse	-14194
▁reduce	-14195
▁chiropractor	-14196
usas	-14197
▁disappear	-14198
▁breaker	-14199
▁Chelsea	-14200
▁mud	-14201
▁rectify	-14202
▁foil	-14203
▁ocean	-14204
▁Fruit	-14205
▁aband	-14206
▁Vi	-14207
▁drugs	-14208
▁Yelper	-14209
▁cordial	-14210
▁institution	-14211
Good	-14212
▁lists	-14213
▁fixings	-14214
▁cried	-14215
▁drama	-14216
▁weed	-14217
▁churro	-14218
Great	-14219
▁Audi	-14220
▁Miami	-14221
▁shrugged	-14222
▁domestic	-14223
▁zest	-14224
▁opportunities	-14225
iw	-14226
▁spite	-14227
▁Almond	-14228
▁Velvet	-14229
▁substituted	-14230
▁yak	-14231
▁cure	-14232
▁2010	-14233
iction	-14234
aaa	-14235
▁drew	-14236
llence	-14237
▁Foot	-14238
▁Bathroom	-14239
▁comic	-14240
▁esthetic	-14241
▁bliss	-14242
▁Famous	-14243
▁Peking	-14244
▁Tab	-14245
▁cane	-14246
▁mont	-14247
▁Summ	-14248
▁drafts	-14249
▁remade	-14250
▁dispenser	-14251
OSS	-14252
▁faucet	-14253
▁holder	-14254
▁AJ	-14255
another	-14256
▁protection	-14257
▁Bianco	-14258
▁matches	-14259
▁loo	-14260
▁fraction	-14261
▁Jake	-14262
imento	-14263
▁growl	-14264
▁galore	-14265
▁saltiness	-14266
▁resid	-14267
▁Enchil	-14268
▁unbear	-14269
▁backwards	-14270
▁perks	-14271
▁career	-14272
udging	-14273
▁3.5/5	-14274
atively	-14275
▁louder	-14276
▁dresser	-14277
▁crime	-14278
▁assistants	-14279
▁Ko	-14280
▁verb	-14281
▁oo	-14282
▁mc	-14283
▁exem	-14284
▁hottest	-14285
▁studios	-14286
▁mugs	-14287
▁walkway	-14288
▁smash	-14289
onic	-14290
▁cops	-14291
▁$100.	-14292
▁EXPER	-14293
▁Bear	-14294
▁perm	-14295
▁Aloha	-14296
▁Hmmm	-14297
▁devour	-14298
▁consume	-14299
▁automated	-14300
▁croqu	-14301
▁England	-14302
eday	-14303
▁Keith	-14304
▁EVERYONE	-14305
▁Frit	-14306
▁league	-14307
▁compress	-14308
▁Fix	-14309
▁lick	-14310
irloom	-14311
▁Dar	-14312
▁Job	-14313
large	-14314
▁drastic	-14315
uling	-14316
father	-14317
▁tier	-14318
gger	-14319
▁Denver	-14320
▁tonkatsu	-14321
▁recl	-14322
▁deceiving	-14323
being	-14324
▁outgoing	-14325
▁connecting	-14326
▁clin	-14327
ente	-14328
▁jars	-14329
▁Jungle	-14330
▁artisan	-14331
bits	-14332
▁Hmm	-14333
fix	-14334
▁tournament	-14335
▁Rocky	-14336
▁programs	-14337
▁household	-14338
▁detailing	-14339
▁Rent	-14340
▁CHE	-14341
unken	-14342
▁Bal	-14343
▁university	-14344
?".	-14345
tea	-14346
▁chore	-14347
ifications	-14348
lbs	-14349
rary	-14350
▁Patty	-14351
▁variations	-14352
▁avid	-14353
▁concerts	-14354
▁Gal	-14355
▁pak	-14356
▁Drop	-14357
ento	-14358
▁Different	-14359
▁pediatric	-14360
▁mental	-14361
18	-14362
▁Andrea	-14363
▁consultant	-14364
▁curd	-14365
▁Beatles	-14366
sum	-14367
▁nowadays	-14368
beque	-14369
▁Grim	-14370
▁queue	-14371
▁teams	-14372
▁Dropped	-14373
▁accepting	-14374
▁Au	-14375
ener	-14376
▁LOC	-14377
▁Yogurt	-14378
▁attire	-14379
agu	-14380
▁Lime	-14381
ethical	-14382
▁attractions	-14383
▁Major	-14384
24	-14385
▁atleast	-14386
▁curtain	-14387
▁nation	-14388
authentic	-14389
▁Mrs	-14390
anne	-14391
▁rotate	-14392
▁craz	-14393
▁Apart	-14394
CD	-14395
▁Korea	-14396
▁greedy	-14397
gasm	-14398
▁Tracy	-14399
communication	-14400
▁Limited	-14401
▁markets	-14402
▁Singapore	-14403
▁Tikka	-14404
▁https	-14405
▁Proper	-14406
▁unsafe	-14407
▁Pizzeria	-14408
▁ultrasound	-14409
dara	-14410
▁getaway	-14411
▁expansive	-14412
▁IV	-14413
▁reluctant	-14414
ardo	-14415
icle	-14416
▁horrid	-14417
ocha	-14418
▁Lowe	-14419
ainted	-14420
▁Flavors	-14421
▁intoler	-14422
▁glorious	-14423
▁graciously	-14424
▁;-)	-14425
▁Cakes	-14426
▁Shawarma	-14427
ev	-14428
AGE	-14429
aloo	-14430
▁snobby	-14431
hana	-14432
▁tai	-14433
▁Soon	-14434
▁Pep	-14435
▁Power	-14436
▁razor	-14437
▁privile	-14438
▁ruining	-14439
▁Cinnamon	-14440
▁Heck	-14441
▁accused	-14442
etly	-14443
▁ensured	-14444
▁pipes	-14445
▁Marsala	-14446
▁Tak	-14447
▁Showed	-14448
▁tendon	-14449
▁30+	-14450
▁Ris	-14451
▁lam	-14452
▁medications	-14453
kee	-14454
▁Crepe	-14455
▁abundant	-14456
▁outfits	-14457
▁distribut	-14458
▁Trail	-14459
▁seamless	-14460
▁($12	-14461
▁Cad	-14462
▁GPS	-14463
ela	-14464
▁clip	-14465
▁hints	-14466
▁Memorial	-14467
rug	-14468
cold	-14469
▁LOU	-14470
esque	-14471
▁Lotus	-14472
▁avons	-14473
roe	-14474
▁Pleasant	-14475
▁departure	-14476
▁pom	-14477
▁Jesse	-14478
vegetarian	-14479
rad	-14480
▁exclus	-14481
▁Mmm	-14482
▁Sesame	-14483
FL	-14484
aru	-14485
▁chatty	-14486
las	-14487
▁nu	-14488
llas	-14489
▁Rh	-14490
agan	-14491
▁plating	-14492
▁hotdogs	-14493
avis	-14494
fted	-14495
▁Entrees	-14496
▁fennel	-14497
▁blackjack	-14498
athon	-14499
▁softer	-14500
▁era	-14501
fest	-14502
▁FULL	-14503
ermat	-14504
▁existent	-14505
▁Quebec	-14506
▁Joseph	-14507
▁maze	-14508
matched	-14509
▁TI	-14510
▁neighboring	-14511
▁lone	-14512
▁elim	-14513
▁thickness	-14514
▁passengers	-14515
lord	-14516
▁proportion	-14517
▁unappetizing	-14518
▁Kimchi	-14519
▁Blueberry	-14520
▁Six	-14521
▁Broad	-14522
▁costly	-14523
▁tinted	-14524
▁FIRST	-14525
▁subsequ	-14526
▁realtor	-14527
ronic	-14528
▁technical	-14529
▁mechanical	-14530
▁Pudding	-14531
▁Zen	-14532
▁Sake	-14533
▁pinball	-14534
▁Board	-14535
▁staffing	-14536
▁Suite	-14537
▁Thursdays	-14538
DAY	-14539
aware	-14540
▁asset	-14541
▁AMC	-14542
▁Ag	-14543
aldi	-14544
oths	-14545
▁clut	-14546
▁freeze	-14547
▁identify	-14548
▁tastiest	-14549
▁Colorado	-14550
▁Pinot	-14551
▁engage	-14552
▁altered	-14553
wine	-14554
▁passport	-14555
▁PF	-14556
▁trunk	-14557
▁Generous	-14558
▁Victor	-14559
▁instagram	-14560
▁reset	-14561
▁folded	-14562
▁stout	-14563
▁minded	-14564
omic	-14565
aust	-14566
sushi	-14567
▁resorts	-14568
lots	-14569
better	-14570
ureau	-14571
▁gummy	-14572
▁specialties	-14573
▁Ordering	-14574
ooze	-14575
▁calc	-14576
▁rode	-14577
▁whereas	-14578
vies	-14579
▁approachable	-14580
▁Healthy	-14581
▁thier	-14582
▁Tow	-14583
▁remedy	-14584
▁sacri	-14585
▁stroller	-14586
▁wo	-14587
chin	-14588
jang	-14589
HO	-14590
bled	-14591
▁caut	-14592
▁cousins	-14593
hire	-14594
▁Dian	-14595
▁flake	-14596
bes	-14597
▁CB	-14598
riage	-14599
▁notify	-14600
▁Applebee	-14601
▁YE	-14602
▁leaks	-14603
▁indecis	-14604
atosphere	-14605
▁indifferent	-14606
inator	-14607
▁$39	-14608
burn	-14609
▁Buc	-14610
▁Terry	-14611
▁Detroit	-14612
▁speciality	-14613
RO	-14614
▁watches	-14615
▁bok	-14616
▁Chorizo	-14617
▁identical	-14618
▁Nobu	-14619
▁(2)	-14620
▁LIKE	-14621
▁Greens	-14622
▁snapped	-14623
▁Linq	-14624
▁fluff	-14625
▁Nordstrom	-14626
IBLE	-14627
▁lockers	-14628
▁candies	-14629
▁casserole	-14630
▁mouths	-14631
▁Consistently	-14632
▁Goat	-14633
▁brat	-14634
▁renter	-14635
▁uncooked	-14636
▁2000	-14637
▁REV	-14638
▁Choice	-14639
▁intellig	-14640
▁Rad	-14641
▁contribut	-14642
▁ENT	-14643
▁settings	-14644
13	-14645
.95)	-14646
▁Prov	-14647
▁Credit	-14648
▁rescheduled	-14649
▁Verde	-14650
▁Jackie	-14651
shine	-14652
anny	-14653
▁gap	-14654
▁Harry	-14655
▁GL	-14656
eted	-14657
▁Tat	-14658
▁laughs	-14659
▁york	-14660
▁Giving	-14661
▁Dumplings	-14662
▁appliance	-14663
▁sculpt	-14664
▁buttons	-14665
▁audacity	-14666
▁BUR	-14667
▁shook	-14668
mex	-14669
▁Magic	-14670
▁depressing	-14671
ciety	-14672
▁sends	-14673
▁limits	-14674
kas	-14675
rano	-14676
▁scampi	-14677
▁thrift	-14678
▁215	-14679
▁400	-14680
quite	-14681
▁ooz	-14682
▁WARN	-14683
▁Udon	-14684
▁income	-14685
▁Thin	-14686
sim	-14687
amin	-14688
▁Shane	-14689
▁Furn	-14690
▁ombre	-14691
please	-14692
▁Mimos	-14693
▁downs	-14694
▁varies	-14695
▁monitor	-14696
▁informing	-14697
▁bob	-14698
▁Cand	-14699
icker	-14700
▁partake	-14701
▁OWN	-14702
▁unhealthy	-14703
▁poppers	-14704
▁Ted	-14705
▁$5.00	-14706
plimentary	-14707
▁sword	-14708
▁Received	-14709
IAN	-14710
▁olds	-14711
▁shish	-14712
▁installers	-14713
iltmore	-14714
lif	-14715
obic	-14716
▁signal	-14717
▁Problem	-14718
▁richness	-14719
iffy	-14720
overs	-14721
▁Were	-14722
▁fulfill	-14723
▁demanding	-14724
eu	-14725
▁ache	-14726
definitely	-14727
▁$40.	-14728
zes	-14729
▁Whis	-14730
▁funds	-14731
▁cactus	-14732
19	-14733
BO	-14734
▁afore	-14735
▁Rog	-14736
amper	-14737
▁MM	-14738
▁Sent	-14739
icit	-14740
actly	-14741
oples	-14742
▁rowdy	-14743
▁stranger	-14744
▁favs	-14745
▁bumping	-14746
inished	-14747
▁regretted	-14748
▁measurements	-14749
urri	-14750
▁unknown	-14751
▁EXPERIENCE	-14752
14	-14753
▁Nugg	-14754
▁Alright	-14755
▁devices	-14756
itto	-14757
thought	-14758
▁baggage	-14759
abeth	-14760
▁3:00	-14761
server	-14762
▁measured	-14763
▁Bagel	-14764
Vegas	-14765
▁COLD	-14766
▁distracting	-14767
▁Billy	-14768
▁elbow	-14769
▁Kid	-14770
▁selecting	-14771
▁differences	-14772
haul	-14773
▁Leb	-14774
▁Blanc	-14775
▁dope	-14776
▁Sears	-14777
▁Lakes	-14778
▁Oakland	-14779
▁commend	-14780
▁Sara	-14781
▁Wall	-14782
▁traum	-14783
uro	-14784
▁Holl	-14785
▁Nous	-14786
▁singer	-14787
bbie	-14788
▁disturbing	-14789
▁Pict	-14790
called	-14791
▁raves	-14792
▁contest	-14793
active	-14794
▁succeed	-14795
▁Szechuan	-14796
▁caps	-14797
▁Miracle	-14798
▁century	-14799
▁hipsters	-14800
▁malt	-14801
▁Roc	-14802
▁transform	-14803
▁scoot	-14804
▁Hay	-14805
▁PEOP	-14806
On	-14807
odont	-14808
▁enhance	-14809
▁contempl	-14810
ij	-14811
▁youre	-14812
lys	-14813
▁thermostat	-14814
▁data	-14815
before	-14816
▁mule	-14817
oooooo	-14818
▁Bever	-14819
rills	-14820
▁Sams	-14821
hall	-14822
paper	-14823
▁artistic	-14824
onzu	-14825
▁Sammy	-14826
▁Incredibly	-14827
▁VW	-14828
▁Kab	-14829
▁porch	-14830
▁Eliz	-14831
stals	-14832
respons	-14833
▁bac	-14834
▁wtf	-14835
▁(?)	-14836
▁bins	-14837
▁vague	-14838
▁remainder	-14839
face	-14840
▁discomfort	-14841
▁reb	-14842
▁nour	-14843
▁assembly	-14844
▁Dor	-14845
▁Marie	-14846
▁unpretentious	-14847
LET	-14848
▁Pao	-14849
▁Kathy	-14850
▁transported	-14851
▁Ut	-14852
▁Wrap	-14853
▁knees	-14854
▁donate	-14855
▁margherita	-14856
▁Lets	-14857
▁antibiotics	-14858
▁Var	-14859
▁hella	-14860
▁assessment	-14861
▁evidence	-14862
▁Hisp	-14863
▁Bourbon	-14864
▁advertisement	-14865
sur	-14866
▁soften	-14867
▁comed	-14868
▁Purchased	-14869
▁dai	-14870
hable	-14871
▁slap	-14872
UCK	-14873
▁choy	-14874
watukee	-14875
▁Joel	-14876
▁Luis	-14877
▁fifth	-14878
▁stoked	-14879
▁repeating	-14880
▁Pra	-14881
rusive	-14882
▁rout	-14883
▁Brewery	-14884
/14	-14885
▁Visit	-14886
▁cuis	-14887
oblano	-14888
▁opener	-14889
▁Jew	-14890
▁hero	-14891
▁Uh	-14892
▁cheek	-14893
▁ew	-14894
orail	-14895
▁flyer	-14896
▁combine	-14897
▁Gate	-14898
▁Knowing	-14899
main	-14900
17	-14901
INESS	-14902
▁battle	-14903
▁wisdom	-14904
▁Ched	-14905
▁batteries	-14906
▁Mead	-14907
▁Moscow	-14908
▁toilets	-14909
▁Attentive	-14910
▁Sav	-14911
▁PEOPLE	-14912
▁ensuring	-14913
▁overload	-14914
leb	-14915
elcoming	-14916
Just	-14917
▁Field	-14918
▁Cart	-14919
mostly	-14920
▁recreat	-14921
▁smoker	-14922
acles	-14923
▁mileage	-14924
STE	-14925
▁Angus	-14926
hea	-14927
▁letters	-14928
arter	-14929
inter	-14930
▁SOOOO	-14931
▁Vdara	-14932
▁Late	-14933
▁snapper	-14934
▁pole	-14935
▁sigh	-14936
▁linger	-14937
▁default	-14938
▁dynamite	-14939
▁loin	-14940
▁EXACT	-14941
shu	-14942
▁Hol	-14943
iabatta	-14944
▁enjoyment	-14945
▁reassured	-14946
▁entit	-14947
▁input	-14948
▁nitro	-14949
ablo	-14950
To	-14951
▁behalf	-14952
alous	-14953
▁Frozen	-14954
▁camper	-14955
▁imagin	-14956
▁reluctantly	-14957
▁ren	-14958
▁pine	-14959
▁yearly	-14960
alcohol	-14961
function	-14962
aucoup	-14963
▁ABSOLUTELY	-14964
▁gown	-14965
▁disabled	-14966
▁pc	-14967
▁braces	-14968
▁MRI	-14969
▁30-40	-14970
▁evenly	-14971
▁blessing	-14972
▁suspicious	-14973
▁aforementioned	-14974
▁peppercorn	-14975
▁na	-14976
▁tripe	-14977
▁Support	-14978
▁costume	-14979
▁televisions	-14980
▁800	-14981
▁breakdown	-14982
▁grapes	-14983
▁sensor	-14984
▁Regular	-14985
▁LEA	-14986
▁panels	-14987
▁platform	-14988
▁Bat	-14989
▁Pack	-14990
OINT	-14991
▁beignets	-14992
▁talkative	-14993
▁Comb	-14994
▁disli	-14995
▁misses	-14996
▁panang	-14997
▁tonkotsu	-14998
bone	-14999
▁$.	-15000
dated	-15001
▁permission	-15002
▁tram	-15003
ickets	-15004
▁plump	-15005
▁Concord	-15006
▁bangs	-15007
▁observation	-15008
keys	-15009
▁INS	-15010
▁pumps	-15011
▁deeply	-15012
▁Chill	-15013
.50)	-15014
amous	-15015
anges	-15016
▁lasting	-15017
▁Beauty	-15018
▁wiping	-15019
▁11.	-15020
▁Barrio	-15021
▁researched	-15022
▁cer	-15023
▁Shell	-15024
▁insulted	-15025
.(	-15026
▁Cuc	-15027
VAC	-15028
▁CN	-15029
▁Chad	-15030
▁Bland	-15031
▁interactions	-15032
▁describing	-15033
di	-15034
▁Hit	-15035
▁Uni	-15036
orous	-15037
levard	-15038
however	-15039
▁loading	-15040
iry	-15041
icity	-15042
▁Loco	-15043
▁scarf	-15044
.!	-15045
YE	-15046
▁Dream	-15047
▁Tor	-15048
anz	-15049
▁Prod	-15050
past	-15051
▁explosion	-15052
▁Adv	-15053
▁ger	-15054
▁thy	-15055
▁Minus	-15056
mid	-15057
▁vic	-15058
▁Selection	-15059
▁portobello	-15060
▁dan	-15061
pical	-15062
▁Comfortable	-15063
xx	-15064
▁clou	-15065
▁tuned	-15066
▁spouse	-15067
▁joining	-15068
hoo	-15069
▁nib	-15070
ifies	-15071
▁sis	-15072
Sorry	-15073
▁entre	-15074
▁smack	-15075
▁Harbor	-15076
▁REVIEW	-15077
▁exercises	-15078
drated	-15079
▁Labor	-15080
▁Starting	-15081
cel	-15082
sauce	-15083
▁Wei	-15084
▁Cass	-15085
▁cage	-15086
▁pedest	-15087
▁manages	-15088
▁turt	-15089
▁cuisines	-15090
▁clarify	-15091
▁administ	-15092
ador	-15093
▁omakase	-15094
▁Dun	-15095
▁goss	-15096
amo	-15097
▁Pas	-15098
ocados	-15099
▁flank	-15100
▁Carpet	-15101
vie	-15102
▁Af	-15103
▁Porter	-15104
▁EL	-15105
▁ounces	-15106
▁hamachi	-15107
________	-15108
ombie	-15109
▁Conn	-15110
▁pall	-15111
▁recieved	-15112
▁vacuumed	-15113
▁residential	-15114
illac	-15115
omend	-15116
:3	-15117
gance	-15118
▁doggie	-15119
▁communicating	-15120
▁crystal	-15121
card	-15122
▁bond	-15123
▁Shortly	-15124
[...]
